{
  "version": "1.0",
  "truncation": null,
  "padding": null,
  "added_tokens": [
    {
      "id": 0,
      "content": "[PAD]",
      "single_word": false,
      "lstrip": false,
      "rstrip": false,
      "normalized": false,
      "special": true
    },
    {
      "id": 1,
      "content": "[UNK]",
      "single_word": false,
      "lstrip": false,
      "rstrip": false,
      "normalized": false,
      "special": true
    }
  ],
  "normalizer": null,
  "pre_tokenizer": {
    "type": "Whitespace"
  },
  "post_processor": null,
  "decoder": null,
  "model": {
    "type": "BPE",
    "dropout": null,
    "unk_token": "[UNK]",
    "continuing_subword_prefix": "##",
    "end_of_word_suffix": null,
    "fuse_unk": false,
    "byte_fallback": false,
    "ignore_merges": false,
    "vocab": {
      "[PAD]": 0,
      "[UNK]": 1,
      "0": 2,
      "1": 3,
      "2": 4,
      "3": 5,
      "4": 6,
      "5": 7,
      "6": 8,
      "7": 9,
      "8": 10,
      "9": 11,
      "\\": 12,
      "a": 13,
      "b": 14,
      "c": 15,
      "d": 16,
      "e": 17,
      "f": 18,
      "g": 19,
      "h": 20,
      "i": 21,
      "j": 22,
      "k": 23,
      "l": 24,
      "m": 25,
      "n": 26,
      "o": 27,
      "p": 28,
      "q": 29,
      "r": 30,
      "s": 31,
      "t": 32,
      "u": 33,
      "v": 34,
      "w": 35,
      "x": 36,
      "y": 37,
      "z": 38,
      "¡": 39,
      "¤": 40,
      "§": 41,
      "¨": 42,
      "­": 43,
      "°": 44,
      "²": 45,
      "³": 46,
      "´": 47,
      "·": 48,
      "¿": 49,
      "×": 50,
      "÷": 51,
      "˚": 52,
      "π": 53,
      "ω": 54,
      "ᆞ": 55,
      "‘": 56,
      "’": 57,
      "“": 58,
      "”": 59,
      "‥": 60,
      "…": 61,
      "‰": 62,
      "※": 63,
      "ⁿ": 64,
      "₂": 65,
      "ⅰ": 66,
      "ⅱ": 67,
      "ⅲ": 68,
      "←": 69,
      "↑": 70,
      "→": 71,
      "↓": 72,
      "↖": 73,
      "↗": 74,
      "↘": 75,
      "∀": 76,
      "∇": 77,
      "∼": 78,
      "≤": 79,
      "≥": 80,
      "⊙": 81,
      "⌒": 82,
      "①": 83,
      "②": 84,
      "⑦": 85,
      "⑹": 86,
      "ⓒ": 87,
      "ⓛ": 88,
      "ⓞ": 89,
      "─": 90,
      "━": 91,
      "┏": 92,
      "┑": 93,
      "■": 94,
      "□": 95,
      "△": 96,
      "▶": 97,
      "▷": 98,
      "▼": 99,
      "▽": 100,
      "◀": 101,
      "◁": 102,
      "◆": 103,
      "◇": 104,
      "○": 105,
      "◎": 106,
      "●": 107,
      "◐": 108,
      "◑": 109,
      "★": 110,
      "☆": 111,
      "☜": 112,
      "☞": 113,
      "☻": 114,
      "♂": 115,
      "♡": 116,
      "♣": 117,
      "♤": 118,
      "♥": 119,
      "♧": 120,
      "♨": 121,
      "♩": 122,
      "♪": 123,
      "♫": 124,
      "♬": 125,
      "、": 126,
      "。": 127,
      "《": 128,
      "》": 129,
      "「": 130,
      "」": 131,
      "『": 132,
      "』": 133,
      "【": 134,
      "】": 135,
      "あ": 136,
      "い": 137,
      "う": 138,
      "え": 139,
      "お": 140,
      "か": 141,
      "が": 142,
      "き": 143,
      "く": 144,
      "け": 145,
      "こ": 146,
      "さ": 147,
      "し": 148,
      "す": 149,
      "せ": 150,
      "そ": 151,
      "た": 152,
      "だ": 153,
      "っ": 154,
      "つ": 155,
      "づ": 156,
      "て": 157,
      "で": 158,
      "と": 159,
      "な": 160,
      "に": 161,
      "ね": 162,
      "の": 163,
      "は": 164,
      "ひ": 165,
      "ほ": 166,
      "ぽ": 167,
      "ま": 168,
      "む": 169,
      "も": 170,
      "ゃ": 171,
      "よ": 172,
      "ら": 173,
      "り": 174,
      "る": 175,
      "れ": 176,
      "ろ": 177,
      "わ": 178,
      "を": 179,
      "ん": 180,
      "イ": 181,
      "ウ": 182,
      "エ": 183,
      "カ": 184,
      "ガ": 185,
      "ク": 186,
      "グ": 187,
      "コ": 188,
      "シ": 189,
      "ス": 190,
      "セ": 191,
      "タ": 192,
      "ダ": 193,
      "チ": 194,
      "ッ": 195,
      "テ": 196,
      "デ": 197,
      "ト": 198,
      "ニ": 199,
      "ノ": 200,
      "バ": 201,
      "パ": 202,
      "ヒ": 203,
      "ビ": 204,
      "ピ": 205,
      "ベ": 206,
      "マ": 207,
      "ミ": 208,
      "ム": 209,
      "メ": 210,
      "ョ": 211,
      "ヨ": 212,
      "リ": 213,
      "ル": 214,
      "ロ": 215,
      "ワ": 216,
      "ン": 217,
      "ㄱ": 218,
      "ㄲ": 219,
      "ㄳ": 220,
      "ㄴ": 221,
      "ㄵ": 222,
      "ㄶ": 223,
      "ㄷ": 224,
      "ㄸ": 225,
      "ㄹ": 226,
      "ㄺ": 227,
      "ㄻ": 228,
      "ㅀ": 229,
      "ㅁ": 230,
      "ㅂ": 231,
      "ㅃ": 232,
      "ㅄ": 233,
      "ㅅ": 234,
      "ㅆ": 235,
      "ㅇ": 236,
      "ㅈ": 237,
      "ㅉ": 238,
      "ㅊ": 239,
      "ㅋ": 240,
      "ㅌ": 241,
      "ㅍ": 242,
      "ㅎ": 243,
      "ㅏ": 244,
      "ㅐ": 245,
      "ㅑ": 246,
      "ㅒ": 247,
      "ㅓ": 248,
      "ㅔ": 249,
      "ㅕ": 250,
      "ㅖ": 251,
      "ㅗ": 252,
      "ㅘ": 253,
      "ㅚ": 254,
      "ㅛ": 255,
      "ㅜ": 256,
      "ㅝ": 257,
      "ㅞ": 258,
      "ㅟ": 259,
      "ㅠ": 260,
      "ㅡ": 261,
      "ㅢ": 262,
      "ㅣ": 263,
      "ㅤ": 264,
      "ㆀ": 265,
      "ㆍ": 266,
      "一": 267,
      "三": 268,
      "上": 269,
      "下": 270,
      "世": 271,
      "丙": 272,
      "中": 273,
      "乃": 274,
      "也": 275,
      "亞": 276,
      "亡": 277,
      "人": 278,
      "低": 279,
      "佑": 280,
      "作": 281,
      "侖": 282,
      "信": 283,
      "候": 284,
      "倭": 285,
      "傑": 286,
      "僞": 287,
      "先": 288,
      "典": 289,
      "凡": 290,
      "凸": 291,
      "出": 292,
      "刀": 293,
      "刻": 294,
      "前": 295,
      "力": 296,
      "助": 297,
      "勇": 298,
      "化": 299,
      "北": 300,
      "千": 301,
      "及": 302,
      "友": 303,
      "反": 304,
      "古": 305,
      "史": 306,
      "名": 307,
      "吐": 308,
      "味": 309,
      "品": 310,
      "善": 311,
      "喜": 312,
      "器": 313,
      "型": 314,
      "塵": 315,
      "外": 316,
      "大": 317,
      "天": 318,
      "失": 319,
      "女": 320,
      "好": 321,
      "娼": 322,
      "婦": 323,
      "子": 324,
      "孝": 325,
      "宋": 326,
      "完": 327,
      "定": 328,
      "害": 329,
      "家": 330,
      "小": 331,
      "尾": 332,
      "山": 333,
      "岡": 334,
      "峰": 335,
      "峽": 336,
      "希": 337,
      "師": 338,
      "常": 339,
      "年": 340,
      "幸": 341,
      "庭": 342,
      "式": 343,
      "張": 344,
      "彩": 345,
      "彼": 346,
      "待": 347,
      "後": 348,
      "復": 349,
      "心": 350,
      "必": 351,
      "忍": 352,
      "忠": 353,
      "念": 354,
      "急": 355,
      "性": 356,
      "悲": 357,
      "情": 358,
      "惡": 359,
      "愛": 360,
      "感": 361,
      "慧": 362,
      "慰": 363,
      "慶": 364,
      "憎": 365,
      "戰": 366,
      "手": 367,
      "故": 368,
      "敵": 369,
      "新": 370,
      "旋": 371,
      "日": 372,
      "映": 373,
      "曰": 374,
      "曲": 375,
      "最": 376,
      "會": 377,
      "月": 378,
      "有": 379,
      "望": 380,
      "期": 381,
      "木": 382,
      "末": 383,
      "本": 384,
      "朴": 385,
      "林": 386,
      "柱": 387,
      "棒": 388,
      "様": 389,
      "檢": 390,
      "歌": 391,
      "武": 392,
      "死": 393,
      "殖": 394,
      "母": 395,
      "氣": 396,
      "水": 397,
      "永": 398,
      "求": 399,
      "江": 400,
      "法": 401,
      "派": 402,
      "流": 403,
      "淇": 404,
      "湖": 405,
      "漁": 406,
      "演": 407,
      "濡": 408,
      "火": 409,
      "無": 410,
      "熱": 411,
      "父": 412,
      "特": 413,
      "猶": 414,
      "王": 415,
      "現": 416,
      "生": 417,
      "用": 418,
      "田": 419,
      "甲": 420,
      "申": 421,
      "男": 422,
      "画": 423,
      "異": 424,
      "畵": 425,
      "白": 426,
      "的": 427,
      "皿": 428,
      "益": 429,
      "目": 430,
      "直": 431,
      "看": 432,
      "眞": 433,
      "眠": 434,
      "祖": 435,
      "神": 436,
      "禪": 437,
      "秀": 438,
      "私": 439,
      "立": 440,
      "笑": 441,
      "糞": 442,
      "紅": 443,
      "紙": 444,
      "終": 445,
      "結": 446,
      "緣": 447,
      "罪": 448,
      "美": 449,
      "義": 450,
      "者": 451,
      "腸": 452,
      "自": 453,
      "臭": 454,
      "舒": 455,
      "船": 456,
      "色": 457,
      "苦": 458,
      "英": 459,
      "萬": 460,
      "落": 461,
      "葉": 462,
      "蒼": 463,
      "藝": 464,
      "蛇": 465,
      "蜀": 466,
      "蟲": 467,
      "街": 468,
      "衛": 469,
      "要": 470,
      "見": 471,
      "觸": 472,
      "言": 473,
      "記": 474,
      "話": 475,
      "論": 476,
      "謝": 477,
      "讐": 478,
      "車": 479,
      "過": 480,
      "道": 481,
      "遠": 482,
      "部": 483,
      "都": 484,
      "里": 485,
      "野": 486,
      "針": 487,
      "鈴": 488,
      "鋒": 489,
      "錢": 490,
      "間": 491,
      "集": 492,
      "離": 493,
      "難": 494,
      "電": 495,
      "霆": 496,
      "非": 497,
      "面": 498,
      "韓": 499,
      "頑": 500,
      "頭": 501,
      "飛": 502,
      "香": 503,
      "驛": 504,
      "高": 505,
      "가": 506,
      "각": 507,
      "갂": 508,
      "간": 509,
      "갅": 510,
      "갇": 511,
      "갈": 512,
      "갉": 513,
      "감": 514,
      "갑": 515,
      "값": 516,
      "갓": 517,
      "갔": 518,
      "강": 519,
      "갖": 520,
      "갗": 521,
      "갘": 522,
      "같": 523,
      "갚": 524,
      "갛": 525,
      "개": 526,
      "객": 527,
      "갠": 528,
      "갤": 529,
      "갬": 530,
      "갮": 531,
      "갯": 532,
      "갰": 533,
      "갱": 534,
      "갵": 535,
      "갸": 536,
      "갹": 537,
      "걀": 538,
      "걈": 539,
      "걍": 540,
      "걑": 541,
      "걔": 542,
      "걘": 543,
      "거": 544,
      "걱": 545,
      "건": 546,
      "걷": 547,
      "걸": 548,
      "검": 549,
      "겁": 550,
      "겂": 551,
      "것": 552,
      "겄": 553,
      "겅": 554,
      "겈": 555,
      "겉": 556,
      "겋": 557,
      "게": 558,
      "겍": 559,
      "겐": 560,
      "겓": 561,
      "겔": 562,
      "겜": 563,
      "겝": 564,
      "겟": 565,
      "겠": 566,
      "겡": 567,
      "겤": 568,
      "겧": 569,
      "겨": 570,
      "격": 571,
      "겪": 572,
      "견": 573,
      "결": 574,
      "겸": 575,
      "겹": 576,
      "겻": 577,
      "겼": 578,
      "경": 579,
      "곀": 580,
      "곁": 581,
      "곃": 582,
      "계": 583,
      "곅": 584,
      "곗": 585,
      "곘": 586,
      "고": 587,
      "곡": 588,
      "곤": 589,
      "곧": 590,
      "골": 591,
      "곪": 592,
      "곰": 593,
      "곱": 594,
      "곳": 595,
      "공": 596,
      "곶": 597,
      "곷": 598,
      "곸": 599,
      "곻": 600,
      "과": 601,
      "곽": 602,
      "관": 603,
      "괄": 604,
      "광": 605,
      "괘": 606,
      "괜": 607,
      "괞": 608,
      "괨": 609,
      "괭": 610,
      "괴": 611,
      "괸": 612,
      "괺": 613,
      "굉": 614,
      "교": 615,
      "굣": 616,
      "구": 617,
      "국": 618,
      "굯": 619,
      "군": 620,
      "굳": 621,
      "굴": 622,
      "굵": 623,
      "굶": 624,
      "굷": 625,
      "굼": 626,
      "굽": 627,
      "굿": 628,
      "궁": 629,
      "궂": 630,
      "궄": 631,
      "궅": 632,
      "궈": 633,
      "권": 634,
      "궐": 635,
      "궛": 636,
      "궜": 637,
      "궤": 638,
      "궨": 639,
      "귀": 640,
      "귄": 641,
      "귓": 642,
      "귘": 643,
      "규": 644,
      "귝": 645,
      "균": 646,
      "귤": 647,
      "귬": 648,
      "귯": 649,
      "귱": 650,
      "그": 651,
      "극": 652,
      "귻": 653,
      "근": 654,
      "귿": 655,
      "글": 656,
      "긁": 657,
      "금": 658,
      "급": 659,
      "긋": 660,
      "긌": 661,
      "긍": 662,
      "긑": 663,
      "긔": 664,
      "긛": 665,
      "긬": 666,
      "기": 667,
      "긱": 668,
      "긴": 669,
      "길": 670,
      "김": 671,
      "깁": 672,
      "깃": 673,
      "깄": 674,
      "깅": 675,
      "깇": 676,
      "깈": 677,
      "깉": 678,
      "깊": 679,
      "까": 680,
      "깍": 681,
      "깎": 682,
      "깐": 683,
      "깔": 684,
      "깜": 685,
      "깝": 686,
      "깞": 687,
      "깟": 688,
      "깡": 689,
      "깤": 690,
      "깥": 691,
      "깨": 692,
      "깩": 693,
      "깻": 694,
      "깽": 695,
      "꺄": 696,
      "꺅": 697,
      "꺆": 698,
      "꺇": 699,
      "꺍": 700,
      "꺙": 701,
      "꺜": 702,
      "꺠": 703,
      "꺤": 704,
      "꺴": 705,
      "꺼": 706,
      "꺽": 707,
      "꺾": 708,
      "껀": 709,
      "껃": 710,
      "껄": 711,
      "껌": 712,
      "껍": 713,
      "껏": 714,
      "껐": 715,
      "껑": 716,
      "껒": 717,
      "께": 718,
      "껜": 719,
      "껬": 720,
      "껭": 721,
      "껰": 722,
      "껴": 723,
      "꼅": 724,
      "꼇": 725,
      "꼐": 726,
      "꼬": 727,
      "꼭": 728,
      "꼮": 729,
      "꼰": 730,
      "꼳": 731,
      "꼴": 732,
      "꼼": 733,
      "꼽": 734,
      "꼿": 735,
      "꽁": 736,
      "꽂": 737,
      "꽃": 738,
      "꽄": 739,
      "꽈": 740,
      "꽉": 741,
      "꽝": 742,
      "꽤": 743,
      "꽥": 744,
      "꽦": 745,
      "꽹": 746,
      "꾀": 747,
      "꾜": 748,
      "꾱": 749,
      "꾸": 750,
      "꾹": 751,
      "꾼": 752,
      "꾿": 753,
      "꿀": 754,
      "꿂": 755,
      "꿇": 756,
      "꿈": 757,
      "꿉": 758,
      "꿋": 759,
      "꿍": 760,
      "꿎": 761,
      "꿐": 762,
      "꿑": 763,
      "꿓": 764,
      "꿔": 765,
      "꿘": 766,
      "꿧": 767,
      "꿩": 768,
      "꿬": 769,
      "꿰": 770,
      "뀌": 771,
      "뀨": 772,
      "뀩": 773,
      "뀰": 774,
      "뀼": 775,
      "끄": 776,
      "끅": 777,
      "끆": 778,
      "끈": 779,
      "끊": 780,
      "끋": 781,
      "끌": 782,
      "끓": 783,
      "끔": 784,
      "끕": 785,
      "끗": 786,
      "끙": 787,
      "끚": 788,
      "끝": 789,
      "끠": 790,
      "끼": 791,
      "끽": 792,
      "끾": 793,
      "낀": 794,
      "낄": 795,
      "낌": 796,
      "낏": 797,
      "낑": 798,
      "낔": 799,
      "나": 800,
      "낙": 801,
      "낚": 802,
      "낛": 803,
      "난": 804,
      "낞": 805,
      "낟": 806,
      "날": 807,
      "낡": 808,
      "남": 809,
      "납": 810,
      "낫": 811,
      "났": 812,
      "낭": 813,
      "낮": 814,
      "낯": 815,
      "낰": 816,
      "낱": 817,
      "낲": 818,
      "낳": 819,
      "내": 820,
      "낸": 821,
      "낼": 822,
      "냄": 823,
      "냅": 824,
      "냇": 825,
      "냉": 826,
      "냊": 827,
      "냌": 828,
      "냐": 829,
      "냑": 830,
      "냔": 831,
      "냘": 832,
      "냠": 833,
      "냣": 834,
      "냥": 835,
      "냨": 836,
      "냬": 837,
      "넀": 838,
      "너": 839,
      "넉": 840,
      "넋": 841,
      "넌": 842,
      "널": 843,
      "넑": 844,
      "넒": 845,
      "넓": 846,
      "넖": 847,
      "넗": 848,
      "넘": 849,
      "넙": 850,
      "넛": 851,
      "넜": 852,
      "넝": 853,
      "넢": 854,
      "넣": 855,
      "네": 856,
      "넥": 857,
      "넨": 858,
      "넫": 859,
      "넬": 860,
      "넴": 861,
      "넵": 862,
      "넷": 863,
      "넸": 864,
      "넹": 865,
      "넼": 866,
      "넿": 867,
      "녀": 868,
      "녁": 869,
      "년": 870,
      "녈": 871,
      "념": 872,
      "녓": 873,
      "녔": 874,
      "녕": 875,
      "녘": 876,
      "녜": 877,
      "노": 878,
      "녹": 879,
      "논": 880,
      "녿": 881,
      "놀": 882,
      "놃": 883,
      "놈": 884,
      "놉": 885,
      "놋": 886,
      "농": 887,
      "놑": 888,
      "높": 889,
      "놓": 890,
      "놔": 891,
      "놕": 892,
      "놘": 893,
      "놜": 894,
      "놧": 895,
      "놨": 896,
      "놬": 897,
      "놰": 898,
      "뇌": 899,
      "뇔": 900,
      "뇨": 901,
      "뇬": 902,
      "뇰": 903,
      "뇽": 904,
      "뇾": 905,
      "누": 906,
      "눅": 907,
      "눈": 908,
      "눊": 909,
      "눌": 910,
      "눔": 911,
      "눕": 912,
      "눙": 913,
      "눠": 914,
      "눼": 915,
      "뉘": 916,
      "뉨": 917,
      "뉴": 918,
      "늄": 919,
      "늉": 920,
      "느": 921,
      "늑": 922,
      "는": 923,
      "늗": 924,
      "늘": 925,
      "늙": 926,
      "늠": 927,
      "늡": 928,
      "늣": 929,
      "능": 930,
      "늦": 931,
      "늨": 932,
      "늪": 933,
      "늬": 934,
      "늰": 935,
      "늴": 936,
      "닁": 937,
      "니": 938,
      "닉": 939,
      "닊": 940,
      "닌": 941,
      "닏": 942,
      "닐": 943,
      "님": 944,
      "닙": 945,
      "닛": 946,
      "닝": 947,
      "닟": 948,
      "닠": 949,
      "다": 950,
      "닥": 951,
      "닦": 952,
      "단": 953,
      "닫": 954,
      "달": 955,
      "닭": 956,
      "닮": 957,
      "닯": 958,
      "닳": 959,
      "담": 960,
      "답": 961,
      "닶": 962,
      "닷": 963,
      "당": 964,
      "닺": 965,
      "닻": 966,
      "닼": 967,
      "닽": 968,
      "닾": 969,
      "닿": 970,
      "대": 971,
      "댁": 972,
      "댄": 973,
      "댇": 974,
      "댈": 975,
      "댐": 976,
      "댓": 977,
      "댕": 978,
      "댖": 979,
      "댘": 980,
      "댜": 981,
      "댝": 982,
      "댠": 983,
      "댣": 984,
      "댬": 985,
      "댰": 986,
      "댸": 987,
      "더": 988,
      "덕": 989,
      "던": 990,
      "덛": 991,
      "덜": 992,
      "덟": 993,
      "덤": 994,
      "덥": 995,
      "덧": 996,
      "덨": 997,
      "덩": 998,
      "덫": 999,
      "덮": 1000,
      "덯": 1001,
      "데": 1002,
      "덱": 1003,
      "덴": 1004,
      "덷": 1005,
      "델": 1006,
      "뎀": 1007,
      "뎁": 1008,
      "뎃": 1009,
      "뎄": 1010,
      "뎅": 1011,
      "뎈": 1012,
      "뎋": 1013,
      "뎌": 1014,
      "뎍": 1015,
      "뎐": 1016,
      "뎜": 1017,
      "뎟": 1018,
      "뎠": 1019,
      "뎡": 1020,
      "뎨": 1021,
      "도": 1022,
      "독": 1023,
      "돈": 1024,
      "돋": 1025,
      "돌": 1026,
      "돔": 1027,
      "돕": 1028,
      "돗": 1029,
      "동": 1030,
      "돜": 1031,
      "돟": 1032,
      "돠": 1033,
      "돤": 1034,
      "돱": 1035,
      "돵": 1036,
      "돼": 1037,
      "됀": 1038,
      "됄": 1039,
      "됏": 1040,
      "됐": 1041,
      "됑": 1042,
      "되": 1043,
      "된": 1044,
      "될": 1045,
      "됨": 1046,
      "됫": 1047,
      "됬": 1048,
      "됭": 1049,
      "됴": 1050,
      "됻": 1051,
      "두": 1052,
      "둑": 1053,
      "둔": 1054,
      "둗": 1055,
      "둘": 1056,
      "둠": 1057,
      "둡": 1058,
      "둣": 1059,
      "둥": 1060,
      "둦": 1061,
      "둬": 1062,
      "둿": 1063,
      "뒈": 1064,
      "뒌": 1065,
      "뒤": 1066,
      "뒬": 1067,
      "뒷": 1068,
      "뒹": 1069,
      "뒺": 1070,
      "듀": 1071,
      "듁": 1072,
      "듕": 1073,
      "드": 1074,
      "득": 1075,
      "든": 1076,
      "듣": 1077,
      "들": 1078,
      "듧": 1079,
      "듨": 1080,
      "듬": 1081,
      "듭": 1082,
      "듯": 1083,
      "등": 1084,
      "듲": 1085,
      "듴": 1086,
      "듵": 1087,
      "듷": 1088,
      "듸": 1089,
      "딍": 1090,
      "디": 1091,
      "딕": 1092,
      "딘": 1093,
      "딛": 1094,
      "딜": 1095,
      "딤": 1096,
      "딥": 1097,
      "딧": 1098,
      "딨": 1099,
      "딩": 1100,
      "딪": 1101,
      "딫": 1102,
      "딬": 1103,
      "딮": 1104,
      "따": 1105,
      "딱": 1106,
      "딲": 1107,
      "딴": 1108,
      "딷": 1109,
      "딸": 1110,
      "땀": 1111,
      "땁": 1112,
      "땃": 1113,
      "땅": 1114,
      "땈": 1115,
      "땋": 1116,
      "때": 1117,
      "땍": 1118,
      "땐": 1119,
      "땓": 1120,
      "땔": 1121,
      "땜": 1122,
      "땝": 1123,
      "땟": 1124,
      "땠": 1125,
      "땡": 1126,
      "땨": 1127,
      "땸": 1128,
      "떄": 1129,
      "떈": 1130,
      "떌": 1131,
      "떔": 1132,
      "떘": 1133,
      "떙": 1134,
      "떠": 1135,
      "떡": 1136,
      "떤": 1137,
      "떨": 1138,
      "떫": 1139,
      "떱": 1140,
      "떳": 1141,
      "떵": 1142,
      "떻": 1143,
      "떼": 1144,
      "떽": 1145,
      "뗄": 1146,
      "뗑": 1147,
      "뗬": 1148,
      "뗴": 1149,
      "뗵": 1150,
      "뗼": 1151,
      "또": 1152,
      "똑": 1153,
      "똔": 1154,
      "똗": 1155,
      "똘": 1156,
      "똠": 1157,
      "똥": 1158,
      "똭": 1159,
      "똴": 1160,
      "뙀": 1161,
      "뙁": 1162,
      "뙇": 1163,
      "뚜": 1164,
      "뚝": 1165,
      "뚠": 1166,
      "뚤": 1167,
      "뚫": 1168,
      "뚬": 1169,
      "뚯": 1170,
      "뚱": 1171,
      "뛰": 1172,
      "뛴": 1173,
      "뜌": 1174,
      "뜍": 1175,
      "뜨": 1176,
      "뜩": 1177,
      "뜬": 1178,
      "뜯": 1179,
      "뜰": 1180,
      "뜷": 1181,
      "뜸": 1182,
      "뜻": 1183,
      "뜽": 1184,
      "띀": 1185,
      "띁": 1186,
      "띄": 1187,
      "띈": 1188,
      "띠": 1189,
      "띡": 1190,
      "띤": 1191,
      "띨": 1192,
      "띰": 1193,
      "띱": 1194,
      "띵": 1195,
      "라": 1196,
      "락": 1197,
      "란": 1198,
      "랃": 1199,
      "랄": 1200,
      "람": 1201,
      "랍": 1202,
      "랏": 1203,
      "랐": 1204,
      "랑": 1205,
      "랒": 1206,
      "랔": 1207,
      "랖": 1208,
      "랗": 1209,
      "래": 1210,
      "랙": 1211,
      "랜": 1212,
      "랟": 1213,
      "랠": 1214,
      "램": 1215,
      "랩": 1216,
      "랫": 1217,
      "랬": 1218,
      "랭": 1219,
      "랰": 1220,
      "랴": 1221,
      "략": 1222,
      "랽": 1223,
      "럈": 1224,
      "량": 1225,
      "럐": 1226,
      "럔": 1227,
      "럤": 1228,
      "러": 1229,
      "럭": 1230,
      "런": 1231,
      "럴": 1232,
      "럼": 1233,
      "럽": 1234,
      "럾": 1235,
      "럿": 1236,
      "렀": 1237,
      "렁": 1238,
      "렄": 1239,
      "렇": 1240,
      "레": 1241,
      "렉": 1242,
      "렌": 1243,
      "렐": 1244,
      "렘": 1245,
      "렙": 1246,
      "렛": 1247,
      "렜": 1248,
      "렝": 1249,
      "렠": 1250,
      "려": 1251,
      "력": 1252,
      "련": 1253,
      "렬": 1254,
      "렴": 1255,
      "렵": 1256,
      "렷": 1257,
      "렸": 1258,
      "령": 1259,
      "렿": 1260,
      "례": 1261,
      "롁": 1262,
      "롄": 1263,
      "로": 1264,
      "록": 1265,
      "론": 1266,
      "롤": 1267,
      "롬": 1268,
      "롭": 1269,
      "롯": 1270,
      "롱": 1271,
      "롴": 1272,
      "롷": 1273,
      "롸": 1274,
      "롹": 1275,
      "뢀": 1276,
      "뢈": 1277,
      "뢉": 1278,
      "뢍": 1279,
      "뢔": 1280,
      "뢰": 1281,
      "뢱": 1282,
      "료": 1283,
      "룔": 1284,
      "룕": 1285,
      "룡": 1286,
      "루": 1287,
      "룩": 1288,
      "룬": 1289,
      "룯": 1290,
      "룰": 1291,
      "룸": 1292,
      "룹": 1293,
      "룻": 1294,
      "룽": 1295,
      "뤄": 1296,
      "뤌": 1297,
      "뤠": 1298,
      "뤡": 1299,
      "뤰": 1300,
      "뤼": 1301,
      "뤽": 1302,
      "륄": 1303,
      "륒": 1304,
      "류": 1305,
      "륙": 1306,
      "륜": 1307,
      "률": 1308,
      "륨": 1309,
      "륫": 1310,
      "륭": 1311,
      "륰": 1312,
      "르": 1313,
      "륵": 1314,
      "른": 1315,
      "륺": 1316,
      "를": 1317,
      "름": 1318,
      "릅": 1319,
      "릇": 1320,
      "릉": 1321,
      "릋": 1322,
      "릌": 1323,
      "릎": 1324,
      "릏": 1325,
      "릐": 1326,
      "릣": 1327,
      "리": 1328,
      "릭": 1329,
      "린": 1330,
      "릳": 1331,
      "릴": 1332,
      "림": 1333,
      "립": 1334,
      "릿": 1335,
      "맀": 1336,
      "링": 1337,
      "맂": 1338,
      "맄": 1339,
      "맆": 1340,
      "마": 1341,
      "막": 1342,
      "만": 1343,
      "맍": 1344,
      "많": 1345,
      "맏": 1346,
      "말": 1347,
      "맑": 1348,
      "맖": 1349,
      "맗": 1350,
      "맘": 1351,
      "맙": 1352,
      "맛": 1353,
      "맜": 1354,
      "망": 1355,
      "맞": 1356,
      "맟": 1357,
      "맠": 1358,
      "맡": 1359,
      "맣": 1360,
      "매": 1361,
      "맥": 1362,
      "맨": 1363,
      "맬": 1364,
      "맴": 1365,
      "맵": 1366,
      "맷": 1367,
      "맹": 1368,
      "맺": 1369,
      "맻": 1370,
      "먀": 1371,
      "먄": 1372,
      "먈": 1373,
      "먕": 1374,
      "먠": 1375,
      "머": 1376,
      "먹": 1377,
      "먼": 1378,
      "먾": 1379,
      "멀": 1380,
      "멈": 1381,
      "멉": 1382,
      "멋": 1383,
      "멌": 1384,
      "멍": 1385,
      "멎": 1386,
      "멐": 1387,
      "멓": 1388,
      "메": 1389,
      "멕": 1390,
      "멘": 1391,
      "멜": 1392,
      "멤": 1393,
      "멧": 1394,
      "멩": 1395,
      "멬": 1396,
      "며": 1397,
      "멱": 1398,
      "면": 1399,
      "멸": 1400,
      "몀": 1401,
      "몃": 1402,
      "몄": 1403,
      "명": 1404,
      "몆": 1405,
      "몇": 1406,
      "모": 1407,
      "목": 1408,
      "몫": 1409,
      "몬": 1410,
      "몰": 1411,
      "몸": 1412,
      "몹": 1413,
      "못": 1414,
      "몽": 1415,
      "몾": 1416,
      "뫀": 1417,
      "뫁": 1418,
      "뫃": 1419,
      "뫄": 1420,
      "뫘": 1421,
      "뫙": 1422,
      "뫼": 1423,
      "묘": 1424,
      "묠": 1425,
      "묨": 1426,
      "묭": 1427,
      "무": 1428,
      "묵": 1429,
      "묶": 1430,
      "문": 1431,
      "묻": 1432,
      "물": 1433,
      "묽": 1434,
      "뭄": 1435,
      "뭇": 1436,
      "뭉": 1437,
      "뭍": 1438,
      "뭏": 1439,
      "뭐": 1440,
      "뭔": 1441,
      "뭘": 1442,
      "뭡": 1443,
      "뭣": 1444,
      "뭥": 1445,
      "뭨": 1446,
      "뭬": 1447,
      "뮁": 1448,
      "뮈": 1449,
      "뮌": 1450,
      "뮐": 1451,
      "뮝": 1452,
      "뮤": 1453,
      "뮨": 1454,
      "뮬": 1455,
      "므": 1456,
      "믄": 1457,
      "믈": 1458,
      "믐": 1459,
      "믓": 1460,
      "믕": 1461,
      "믜": 1462,
      "미": 1463,
      "믹": 1464,
      "믺": 1465,
      "민": 1466,
      "믿": 1467,
      "밀": 1468,
      "밈": 1469,
      "밉": 1470,
      "밋": 1471,
      "밌": 1472,
      "밍": 1473,
      "밎": 1474,
      "및": 1475,
      "밐": 1476,
      "밑": 1477,
      "밓": 1478,
      "바": 1479,
      "박": 1480,
      "밖": 1481,
      "반": 1482,
      "받": 1483,
      "발": 1484,
      "밝": 1485,
      "밞": 1486,
      "밟": 1487,
      "밣": 1488,
      "밤": 1489,
      "밥": 1490,
      "밧": 1491,
      "밨": 1492,
      "방": 1493,
      "밫": 1494,
      "밬": 1495,
      "밭": 1496,
      "배": 1497,
      "백": 1498,
      "밴": 1499,
      "밷": 1500,
      "밸": 1501,
      "뱀": 1502,
      "뱁": 1503,
      "뱃": 1504,
      "뱅": 1505,
      "뱆": 1506,
      "뱉": 1507,
      "뱌": 1508,
      "뱍": 1509,
      "뱎": 1510,
      "뱐": 1511,
      "뱔": 1512,
      "버": 1513,
      "벅": 1514,
      "번": 1515,
      "벋": 1516,
      "벌": 1517,
      "범": 1518,
      "법": 1519,
      "벗": 1520,
      "벙": 1521,
      "벚": 1522,
      "벝": 1523,
      "베": 1524,
      "벡": 1525,
      "벤": 1526,
      "벨": 1527,
      "벳": 1528,
      "벵": 1529,
      "벸": 1530,
      "벹": 1531,
      "벼": 1532,
      "벽": 1533,
      "변": 1534,
      "별": 1535,
      "볌": 1536,
      "볍": 1537,
      "병": 1538,
      "볓": 1539,
      "볔": 1540,
      "볕": 1541,
      "볠": 1542,
      "보": 1543,
      "복": 1544,
      "볶": 1545,
      "본": 1546,
      "볹": 1547,
      "볻": 1548,
      "볼": 1549,
      "볽": 1550,
      "볾": 1551,
      "봄": 1552,
      "봅": 1553,
      "봇": 1554,
      "봈": 1555,
      "봉": 1556,
      "봊": 1557,
      "봏": 1558,
      "봐": 1559,
      "봑": 1560,
      "봔": 1561,
      "봗": 1562,
      "봘": 1563,
      "봙": 1564,
      "봣": 1565,
      "봤": 1566,
      "봨": 1567,
      "봫": 1568,
      "봬": 1569,
      "봭": 1570,
      "봴": 1571,
      "봵": 1572,
      "뵈": 1573,
      "뵐": 1574,
      "뵙": 1575,
      "뵛": 1576,
      "뵤": 1577,
      "뵨": 1578,
      "뵹": 1579,
      "부": 1580,
      "북": 1581,
      "분": 1582,
      "붅": 1583,
      "붆": 1584,
      "붇": 1585,
      "불": 1586,
      "붉": 1587,
      "붐": 1588,
      "붓": 1589,
      "붕": 1590,
      "붙": 1591,
      "붤": 1592,
      "붸": 1593,
      "붹": 1594,
      "뷁": 1595,
      "뷃": 1596,
      "뷐": 1597,
      "뷔": 1598,
      "뷰": 1599,
      "뷴": 1600,
      "뷸": 1601,
      "븅": 1602,
      "브": 1603,
      "븍": 1604,
      "븐": 1605,
      "블": 1606,
      "븜": 1607,
      "븟": 1608,
      "븡": 1609,
      "븨": 1610,
      "븬": 1611,
      "빂": 1612,
      "비": 1613,
      "빅": 1614,
      "빈": 1615,
      "빋": 1616,
      "빌": 1617,
      "빔": 1618,
      "빕": 1619,
      "빗": 1620,
      "빙": 1621,
      "빚": 1622,
      "빛": 1623,
      "빝": 1624,
      "빠": 1625,
      "빡": 1626,
      "빢": 1627,
      "빤": 1628,
      "빨": 1629,
      "빰": 1630,
      "빱": 1631,
      "빳": 1632,
      "빵": 1633,
      "빻": 1634,
      "빼": 1635,
      "빽": 1636,
      "뺏": 1637,
      "뺑": 1638,
      "뺒": 1639,
      "뺘": 1640,
      "뺠": 1641,
      "뺨": 1642,
      "뺴": 1643,
      "뺵": 1644,
      "뻈": 1645,
      "뻉": 1646,
      "뻐": 1647,
      "뻑": 1648,
      "뻔": 1649,
      "뻗": 1650,
      "뻘": 1651,
      "뻡": 1652,
      "뻣": 1653,
      "뻤": 1654,
      "뻥": 1655,
      "뻬": 1656,
      "뻭": 1657,
      "뻴": 1658,
      "뼈": 1659,
      "뼉": 1660,
      "뼘": 1661,
      "뼛": 1662,
      "뼜": 1663,
      "뽀": 1664,
      "뽁": 1665,
      "뽄": 1666,
      "뽈": 1667,
      "뽐": 1668,
      "뽑": 1669,
      "뽕": 1670,
      "뽜": 1671,
      "뽠": 1672,
      "뽯": 1673,
      "뽱": 1674,
      "뾰": 1675,
      "뿅": 1676,
      "뿌": 1677,
      "뿍": 1678,
      "뿐": 1679,
      "뿔": 1680,
      "뿜": 1681,
      "뿟": 1682,
      "뿡": 1683,
      "뿩": 1684,
      "뿰": 1685,
      "쀍": 1686,
      "쀠": 1687,
      "쀨": 1688,
      "쀼": 1689,
      "쁀": 1690,
      "쁘": 1691,
      "쁜": 1692,
      "쁠": 1693,
      "쁨": 1694,
      "쁩": 1695,
      "삐": 1696,
      "삑": 1697,
      "삔": 1698,
      "삘": 1699,
      "삤": 1700,
      "삥": 1701,
      "사": 1702,
      "삭": 1703,
      "산": 1704,
      "삳": 1705,
      "살": 1706,
      "삵": 1707,
      "삶": 1708,
      "삷": 1709,
      "삻": 1710,
      "삼": 1711,
      "삽": 1712,
      "삿": 1713,
      "샀": 1714,
      "상": 1715,
      "샅": 1716,
      "샆": 1717,
      "새": 1718,
      "색": 1719,
      "샊": 1720,
      "샌": 1721,
      "샐": 1722,
      "샘": 1723,
      "샛": 1724,
      "생": 1725,
      "샠": 1726,
      "샡": 1727,
      "샣": 1728,
      "샤": 1729,
      "샥": 1730,
      "샨": 1731,
      "샬": 1732,
      "샴": 1733,
      "샵": 1734,
      "샷": 1735,
      "샹": 1736,
      "샼": 1737,
      "샾": 1738,
      "섀": 1739,
      "섁": 1740,
      "서": 1741,
      "석": 1742,
      "섞": 1743,
      "선": 1744,
      "섣": 1745,
      "설": 1746,
      "섥": 1747,
      "섫": 1748,
      "섬": 1749,
      "섭": 1750,
      "섯": 1751,
      "섰": 1752,
      "성": 1753,
      "섲": 1754,
      "섳": 1755,
      "섴": 1756,
      "섵": 1757,
      "섶": 1758,
      "섷": 1759,
      "세": 1760,
      "섹": 1761,
      "섺": 1762,
      "섻": 1763,
      "센": 1764,
      "섿": 1765,
      "셀": 1766,
      "셈": 1767,
      "셉": 1768,
      "셋": 1769,
      "셍": 1770,
      "셐": 1771,
      "셑": 1772,
      "셔": 1773,
      "셕": 1774,
      "션": 1775,
      "셜": 1776,
      "셤": 1777,
      "셥": 1778,
      "셧": 1779,
      "셨": 1780,
      "셩": 1781,
      "셰": 1782,
      "셴": 1783,
      "셸": 1784,
      "솀": 1785,
      "소": 1786,
      "속": 1787,
      "솎": 1788,
      "손": 1789,
      "솓": 1790,
      "솔": 1791,
      "솜": 1792,
      "솝": 1793,
      "솟": 1794,
      "송": 1795,
      "솢": 1796,
      "솤": 1797,
      "솥": 1798,
      "솧": 1799,
      "솨": 1800,
      "솰": 1801,
      "쇄": 1802,
      "쇅": 1803,
      "쇠": 1804,
      "쇳": 1805,
      "쇼": 1806,
      "숀": 1807,
      "숄": 1808,
      "숍": 1809,
      "숏": 1810,
      "숑": 1811,
      "숖": 1812,
      "수": 1813,
      "숙": 1814,
      "순": 1815,
      "숟": 1816,
      "술": 1817,
      "숨": 1818,
      "숩": 1819,
      "숫": 1820,
      "숭": 1821,
      "숯": 1822,
      "숰": 1823,
      "숱": 1824,
      "숲": 1825,
      "숴": 1826,
      "숼": 1827,
      "쉅": 1828,
      "쉈": 1829,
      "쉐": 1830,
      "쉑": 1831,
      "쉒": 1832,
      "쉔": 1833,
      "쉘": 1834,
      "쉡": 1835,
      "쉣": 1836,
      "쉥": 1837,
      "쉩": 1838,
      "쉬": 1839,
      "쉭": 1840,
      "쉰": 1841,
      "쉴": 1842,
      "쉼": 1843,
      "쉽": 1844,
      "쉿": 1845,
      "슁": 1846,
      "슈": 1847,
      "슉": 1848,
      "슌": 1849,
      "슐": 1850,
      "슘": 1851,
      "슛": 1852,
      "슝": 1853,
      "슠": 1854,
      "스": 1855,
      "슥": 1856,
      "슨": 1857,
      "슫": 1858,
      "슬": 1859,
      "슭": 1860,
      "슲": 1861,
      "슴": 1862,
      "습": 1863,
      "슷": 1864,
      "승": 1865,
      "슺": 1866,
      "슼": 1867,
      "슽": 1868,
      "슾": 1869,
      "싀": 1870,
      "싄": 1871,
      "싐": 1872,
      "싑": 1873,
      "싖": 1874,
      "시": 1875,
      "식": 1876,
      "신": 1877,
      "싡": 1878,
      "싢": 1879,
      "싣": 1880,
      "실": 1881,
      "싫": 1882,
      "심": 1883,
      "십": 1884,
      "싯": 1885,
      "싰": 1886,
      "싱": 1887,
      "싲": 1888,
      "싴": 1889,
      "싶": 1890,
      "싷": 1891,
      "싸": 1892,
      "싹": 1893,
      "싼": 1894,
      "쌀": 1895,
      "쌂": 1896,
      "쌈": 1897,
      "쌉": 1898,
      "쌋": 1899,
      "쌍": 1900,
      "쌓": 1901,
      "쌔": 1902,
      "쌕": 1903,
      "쌘": 1904,
      "쌜": 1905,
      "쌤": 1906,
      "쌩": 1907,
      "쌰": 1908,
      "썀": 1909,
      "썁": 1910,
      "썅": 1911,
      "썌": 1912,
      "썜": 1913,
      "썡": 1914,
      "써": 1915,
      "썩": 1916,
      "썪": 1917,
      "썬": 1918,
      "썰": 1919,
      "썱": 1920,
      "썸": 1921,
      "썹": 1922,
      "썻": 1923,
      "썽": 1924,
      "쎀": 1925,
      "쎄": 1926,
      "쎅": 1927,
      "쎌": 1928,
      "쎗": 1929,
      "쎠": 1930,
      "쎤": 1931,
      "쎴": 1932,
      "쎼": 1933,
      "쎾": 1934,
      "쏔": 1935,
      "쏘": 1936,
      "쏙": 1937,
      "쏜": 1938,
      "쏟": 1939,
      "쏠": 1940,
      "쏫": 1941,
      "쏭": 1942,
      "쏱": 1943,
      "쏴": 1944,
      "쐉": 1945,
      "쐌": 1946,
      "쐐": 1947,
      "쐬": 1948,
      "쑈": 1949,
      "쑝": 1950,
      "쑤": 1951,
      "쑥": 1952,
      "쑨": 1953,
      "쑹": 1954,
      "쒕": 1955,
      "쒜": 1956,
      "쒯": 1957,
      "쒰": 1958,
      "쒸": 1959,
      "쓉": 1960,
      "쓔": 1961,
      "쓕": 1962,
      "쓰": 1963,
      "쓱": 1964,
      "쓴": 1965,
      "쓸": 1966,
      "쓹": 1967,
      "씀": 1968,
      "씁": 1969,
      "씅": 1970,
      "씌": 1971,
      "씐": 1972,
      "씝": 1973,
      "씨": 1974,
      "씩": 1975,
      "씪": 1976,
      "씬": 1977,
      "씰": 1978,
      "씸": 1979,
      "씹": 1980,
      "씻": 1981,
      "씼": 1982,
      "씽": 1983,
      "앀": 1984,
      "앁": 1985,
      "아": 1986,
      "악": 1987,
      "안": 1988,
      "앉": 1989,
      "않": 1990,
      "앋": 1991,
      "알": 1992,
      "앍": 1993,
      "앓": 1994,
      "암": 1995,
      "압": 1996,
      "앖": 1997,
      "앗": 1998,
      "았": 1999,
      "앙": 2000,
      "앚": 2001,
      "앜": 2002,
      "앞": 2003,
      "앟": 2004,
      "애": 2005,
      "액": 2006,
      "앤": 2007,
      "앨": 2008,
      "앰": 2009,
      "앱": 2010,
      "앳": 2011,
      "앵": 2012,
      "앸": 2013,
      "야": 2014,
      "약": 2015,
      "얀": 2016,
      "얄": 2017,
      "얇": 2018,
      "얌": 2019,
      "얍": 2020,
      "얏": 2021,
      "양": 2022,
      "얔": 2023,
      "얕": 2024,
      "얗": 2025,
      "얘": 2026,
      "얙": 2027,
      "얜": 2028,
      "어": 2029,
      "억": 2030,
      "얶": 2031,
      "얷": 2032,
      "언": 2033,
      "얹": 2034,
      "얺": 2035,
      "얻": 2036,
      "얼": 2037,
      "얽": 2038,
      "엃": 2039,
      "엄": 2040,
      "업": 2041,
      "없": 2042,
      "엇": 2043,
      "었": 2044,
      "엉": 2045,
      "엊": 2046,
      "엋": 2047,
      "엌": 2048,
      "엎": 2049,
      "엏": 2050,
      "에": 2051,
      "엑": 2052,
      "엓": 2053,
      "엔": 2054,
      "엘": 2055,
      "엠": 2056,
      "엡": 2057,
      "엢": 2058,
      "엣": 2059,
      "엤": 2060,
      "엥": 2061,
      "엨": 2062,
      "엪": 2063,
      "여": 2064,
      "역": 2065,
      "엮": 2066,
      "연": 2067,
      "엲": 2068,
      "엳": 2069,
      "열": 2070,
      "엷": 2071,
      "염": 2072,
      "엽": 2073,
      "엾": 2074,
      "엿": 2075,
      "였": 2076,
      "영": 2077,
      "옂": 2078,
      "옄": 2079,
      "옅": 2080,
      "옆": 2081,
      "옇": 2082,
      "예": 2083,
      "옌": 2084,
      "옐": 2085,
      "옘": 2086,
      "옙": 2087,
      "옛": 2088,
      "옜": 2089,
      "오": 2090,
      "옥": 2091,
      "온": 2092,
      "올": 2093,
      "옭": 2094,
      "옮": 2095,
      "옯": 2096,
      "옰": 2097,
      "옳": 2098,
      "옴": 2099,
      "옵": 2100,
      "옶": 2101,
      "옷": 2102,
      "옹": 2103,
      "옼": 2104,
      "옾": 2105,
      "옿": 2106,
      "와": 2107,
      "왁": 2108,
      "왃": 2109,
      "완": 2110,
      "왅": 2111,
      "왈": 2112,
      "왑": 2113,
      "왓": 2114,
      "왔": 2115,
      "왕": 2116,
      "왘": 2117,
      "왛": 2118,
      "왜": 2119,
      "왝": 2120,
      "왠": 2121,
      "왤": 2122,
      "왦": 2123,
      "외": 2124,
      "왹": 2125,
      "왼": 2126,
      "욀": 2127,
      "요": 2128,
      "욕": 2129,
      "욘": 2130,
      "욜": 2131,
      "욤": 2132,
      "욥": 2133,
      "욧": 2134,
      "용": 2135,
      "욬": 2136,
      "욯": 2137,
      "우": 2138,
      "욱": 2139,
      "욲": 2140,
      "운": 2141,
      "욷": 2142,
      "울": 2143,
      "욹": 2144,
      "움": 2145,
      "웁": 2146,
      "웃": 2147,
      "웄": 2148,
      "웅": 2149,
      "웈": 2150,
      "워": 2151,
      "웍": 2152,
      "원": 2153,
      "월": 2154,
      "웜": 2155,
      "웟": 2156,
      "웠": 2157,
      "웡": 2158,
      "웤": 2159,
      "웨": 2160,
      "웩": 2161,
      "웬": 2162,
      "웰": 2163,
      "웸": 2164,
      "웹": 2165,
      "웽": 2166,
      "윀": 2167,
      "위": 2168,
      "윅": 2169,
      "윈": 2170,
      "윌": 2171,
      "윔": 2172,
      "윕": 2173,
      "윖": 2174,
      "윗": 2175,
      "윘": 2176,
      "윙": 2177,
      "유": 2178,
      "육": 2179,
      "윤": 2180,
      "율": 2181,
      "윰": 2182,
      "윱": 2183,
      "윳": 2184,
      "융": 2185,
      "으": 2186,
      "윽": 2187,
      "은": 2188,
      "읃": 2189,
      "을": 2190,
      "읅": 2191,
      "읆": 2192,
      "읇": 2193,
      "읊": 2194,
      "음": 2195,
      "읍": 2196,
      "읎": 2197,
      "읏": 2198,
      "읐": 2199,
      "응": 2200,
      "읔": 2201,
      "읖": 2202,
      "의": 2203,
      "읭": 2204,
      "읮": 2205,
      "이": 2206,
      "익": 2207,
      "읶": 2208,
      "인": 2209,
      "읹": 2210,
      "읺": 2211,
      "읻": 2212,
      "일": 2213,
      "읽": 2214,
      "읿": 2215,
      "잃": 2216,
      "임": 2217,
      "입": 2218,
      "잇": 2219,
      "있": 2220,
      "잉": 2221,
      "잊": 2222,
      "잌": 2223,
      "잎": 2224,
      "잏": 2225,
      "자": 2226,
      "작": 2227,
      "잔": 2228,
      "잖": 2229,
      "잗": 2230,
      "잘": 2231,
      "잛": 2232,
      "잠": 2233,
      "잡": 2234,
      "잣": 2235,
      "잤": 2236,
      "장": 2237,
      "잦": 2238,
      "잫": 2239,
      "재": 2240,
      "잭": 2241,
      "잰": 2242,
      "잼": 2243,
      "잽": 2244,
      "잿": 2245,
      "쟁": 2246,
      "쟄": 2247,
      "쟈": 2248,
      "쟉": 2249,
      "쟌": 2250,
      "쟎": 2251,
      "쟘": 2252,
      "쟙": 2253,
      "쟝": 2254,
      "쟞": 2255,
      "쟤": 2256,
      "쟨": 2257,
      "쟾": 2258,
      "저": 2259,
      "적": 2260,
      "전": 2261,
      "젅": 2262,
      "젆": 2263,
      "젇": 2264,
      "절": 2265,
      "젊": 2266,
      "젋": 2267,
      "점": 2268,
      "접": 2269,
      "젓": 2270,
      "젔": 2271,
      "정": 2272,
      "젖": 2273,
      "젛": 2274,
      "제": 2275,
      "젝": 2276,
      "젠": 2277,
      "젤": 2278,
      "젧": 2279,
      "젬": 2280,
      "젭": 2281,
      "젯": 2282,
      "져": 2283,
      "젹": 2284,
      "젼": 2285,
      "졀": 2286,
      "졈": 2287,
      "졉": 2288,
      "졋": 2289,
      "졌": 2290,
      "졍": 2291,
      "졎": 2292,
      "졏": 2293,
      "졐": 2294,
      "졑": 2295,
      "졓": 2296,
      "졔": 2297,
      "조": 2298,
      "족": 2299,
      "존": 2300,
      "졷": 2301,
      "졸": 2302,
      "좀": 2303,
      "좁": 2304,
      "좃": 2305,
      "종": 2306,
      "좆": 2307,
      "좇": 2308,
      "좉": 2309,
      "좊": 2310,
      "좋": 2311,
      "좌": 2312,
      "좍": 2313,
      "좐": 2314,
      "좔": 2315,
      "좝": 2316,
      "좠": 2317,
      "좡": 2318,
      "좢": 2319,
      "죄": 2320,
      "죈": 2321,
      "죕": 2322,
      "죗": 2323,
      "죙": 2324,
      "죠": 2325,
      "죤": 2326,
      "죨": 2327,
      "죱": 2328,
      "죳": 2329,
      "죴": 2330,
      "죵": 2331,
      "죶": 2332,
      "죷": 2333,
      "죸": 2334,
      "죻": 2335,
      "주": 2336,
      "죽": 2337,
      "준": 2338,
      "줄": 2339,
      "줌": 2340,
      "줍": 2341,
      "줏": 2342,
      "중": 2343,
      "줔": 2344,
      "줗": 2345,
      "줘": 2346,
      "줜": 2347,
      "줠": 2348,
      "줫": 2349,
      "줬": 2350,
      "줭": 2351,
      "줮": 2352,
      "줸": 2353,
      "쥇": 2354,
      "쥐": 2355,
      "쥑": 2356,
      "쥘": 2357,
      "쥣": 2358,
      "쥤": 2359,
      "쥬": 2360,
      "쥭": 2361,
      "쥰": 2362,
      "쥴": 2363,
      "쥼": 2364,
      "즁": 2365,
      "즈": 2366,
      "즉": 2367,
      "즌": 2368,
      "즐": 2369,
      "즑": 2370,
      "즘": 2371,
      "즙": 2372,
      "즛": 2373,
      "증": 2374,
      "즞": 2375,
      "즤": 2376,
      "지": 2377,
      "직": 2378,
      "짂": 2379,
      "진": 2380,
      "짅": 2381,
      "짇": 2382,
      "질": 2383,
      "짊": 2384,
      "짋": 2385,
      "짏": 2386,
      "짐": 2387,
      "집": 2388,
      "짓": 2389,
      "징": 2390,
      "짖": 2391,
      "짘": 2392,
      "짙": 2393,
      "짚": 2394,
      "짛": 2395,
      "짜": 2396,
      "짝": 2397,
      "짞": 2398,
      "짠": 2399,
      "짢": 2400,
      "짤": 2401,
      "짦": 2402,
      "짧": 2403,
      "짫": 2404,
      "짬": 2405,
      "짭": 2406,
      "짯": 2407,
      "짱": 2408,
      "짲": 2409,
      "짴": 2410,
      "째": 2411,
      "쨉": 2412,
      "쨋": 2413,
      "쨌": 2414,
      "쨍": 2415,
      "쨓": 2416,
      "쨔": 2417,
      "쨘": 2418,
      "쨩": 2419,
      "쨰": 2420,
      "쨱": 2421,
      "쩁": 2422,
      "쩃": 2423,
      "쩄": 2424,
      "쩌": 2425,
      "쩍": 2426,
      "쩐": 2427,
      "쩔": 2428,
      "쩖": 2429,
      "쩜": 2430,
      "쩝": 2431,
      "쩡": 2432,
      "쩧": 2433,
      "쩨": 2434,
      "쪄": 2435,
      "쪈": 2436,
      "쪘": 2437,
      "쪙": 2438,
      "쪠": 2439,
      "쪼": 2440,
      "쪽": 2441,
      "쪾": 2442,
      "쫀": 2443,
      "쫄": 2444,
      "쫌": 2445,
      "쫏": 2446,
      "쫑": 2447,
      "쫒": 2448,
      "쫓": 2449,
      "쫗": 2450,
      "쫘": 2451,
      "쫙": 2452,
      "쫭": 2453,
      "쬐": 2454,
      "쬬": 2455,
      "쭁": 2456,
      "쭈": 2457,
      "쭉": 2458,
      "쭊": 2459,
      "쭌": 2460,
      "쭐": 2461,
      "쭘": 2462,
      "쭙": 2463,
      "쭛": 2464,
      "쭝": 2465,
      "쮜": 2466,
      "쮯": 2467,
      "쮸": 2468,
      "쯔": 2469,
      "쯗": 2470,
      "쯤": 2471,
      "쯥": 2472,
      "쯧": 2473,
      "쯩": 2474,
      "쯪": 2475,
      "찌": 2476,
      "찍": 2477,
      "찎": 2478,
      "찐": 2479,
      "찔": 2480,
      "찜": 2481,
      "찝": 2482,
      "찟": 2483,
      "찡": 2484,
      "찢": 2485,
      "차": 2486,
      "착": 2487,
      "찬": 2488,
      "찮": 2489,
      "찯": 2490,
      "찰": 2491,
      "찱": 2492,
      "참": 2493,
      "찹": 2494,
      "찻": 2495,
      "찼": 2496,
      "창": 2497,
      "찾": 2498,
      "찿": 2499,
      "챃": 2500,
      "채": 2501,
      "책": 2502,
      "챈": 2503,
      "챔": 2504,
      "챗": 2505,
      "챙": 2506,
      "챠": 2507,
      "챡": 2508,
      "챤": 2509,
      "챦": 2510,
      "챨": 2511,
      "챰": 2512,
      "챵": 2513,
      "처": 2514,
      "척": 2515,
      "천": 2516,
      "철": 2517,
      "첨": 2518,
      "첩": 2519,
      "첫": 2520,
      "첬": 2521,
      "청": 2522,
      "첮": 2523,
      "체": 2524,
      "첵": 2525,
      "첸": 2526,
      "첼": 2527,
      "쳅": 2528,
      "쳇": 2529,
      "쳉": 2530,
      "쳐": 2531,
      "쳔": 2532,
      "쳣": 2533,
      "쳤": 2534,
      "쳥": 2535,
      "쳫": 2536,
      "쳬": 2537,
      "초": 2538,
      "촉": 2539,
      "촌": 2540,
      "촏": 2541,
      "촐": 2542,
      "촘": 2543,
      "촛": 2544,
      "총": 2545,
      "촟": 2546,
      "촣": 2547,
      "촤": 2548,
      "촥": 2549,
      "촬": 2550,
      "촹": 2551,
      "쵁": 2552,
      "최": 2553,
      "쵝": 2554,
      "쵴": 2555,
      "쵸": 2556,
      "쵼": 2557,
      "춋": 2558,
      "춌": 2559,
      "추": 2560,
      "축": 2561,
      "춘": 2562,
      "출": 2563,
      "춤": 2564,
      "춥": 2565,
      "춧": 2566,
      "충": 2567,
      "춫": 2568,
      "춬": 2569,
      "춰": 2570,
      "춴": 2571,
      "춸": 2572,
      "췃": 2573,
      "췌": 2574,
      "췟": 2575,
      "취": 2576,
      "췬": 2577,
      "츄": 2578,
      "츈": 2579,
      "츔": 2580,
      "츙": 2581,
      "츠": 2582,
      "측": 2583,
      "츤": 2584,
      "츨": 2585,
      "츰": 2586,
      "츳": 2587,
      "층": 2588,
      "츼": 2589,
      "츽": 2590,
      "칀": 2591,
      "치": 2592,
      "칙": 2593,
      "친": 2594,
      "칝": 2595,
      "칠": 2596,
      "침": 2597,
      "칩": 2598,
      "칫": 2599,
      "칭": 2600,
      "칰": 2601,
      "카": 2602,
      "칵": 2603,
      "칸": 2604,
      "칻": 2605,
      "칼": 2606,
      "캄": 2607,
      "캅": 2608,
      "캇": 2609,
      "캉": 2610,
      "캌": 2611,
      "캍": 2612,
      "캐": 2613,
      "캔": 2614,
      "캘": 2615,
      "캠": 2616,
      "캡": 2617,
      "캢": 2618,
      "캣": 2619,
      "캥": 2620,
      "캬": 2621,
      "캭": 2622,
      "캴": 2623,
      "컁": 2624,
      "컄": 2625,
      "커": 2626,
      "컥": 2627,
      "컨": 2628,
      "컬": 2629,
      "컴": 2630,
      "컵": 2631,
      "컷": 2632,
      "컹": 2633,
      "컼": 2634,
      "컾": 2635,
      "케": 2636,
      "켁": 2637,
      "켄": 2638,
      "켈": 2639,
      "켐": 2640,
      "켓": 2641,
      "켕": 2642,
      "켘": 2643,
      "켜": 2644,
      "켠": 2645,
      "켤": 2646,
      "켯": 2647,
      "코": 2648,
      "콕": 2649,
      "콘": 2650,
      "콜": 2651,
      "콤": 2652,
      "콥": 2653,
      "콧": 2654,
      "콩": 2655,
      "콬": 2656,
      "콮": 2657,
      "콯": 2658,
      "콰": 2659,
      "콱": 2660,
      "콴": 2661,
      "콸": 2662,
      "쾅": 2663,
      "쾌": 2664,
      "쾡": 2665,
      "쾨": 2666,
      "쿄": 2667,
      "쿈": 2668,
      "쿠": 2669,
      "쿡": 2670,
      "쿤": 2671,
      "쿨": 2672,
      "쿰": 2673,
      "쿳": 2674,
      "쿵": 2675,
      "쿸": 2676,
      "쿼": 2677,
      "퀀": 2678,
      "퀄": 2679,
      "퀘": 2680,
      "퀜": 2681,
      "퀭": 2682,
      "퀴": 2683,
      "퀵": 2684,
      "퀸": 2685,
      "퀼": 2686,
      "큐": 2687,
      "큔": 2688,
      "큘": 2689,
      "크": 2690,
      "큭": 2691,
      "큰": 2692,
      "클": 2693,
      "큼": 2694,
      "킁": 2695,
      "킄": 2696,
      "킈": 2697,
      "킌": 2698,
      "키": 2699,
      "킥": 2700,
      "킨": 2701,
      "킬": 2702,
      "킴": 2703,
      "킵": 2704,
      "킷": 2705,
      "킹": 2706,
      "킼": 2707,
      "타": 2708,
      "탁": 2709,
      "탄": 2710,
      "탆": 2711,
      "탈": 2712,
      "탉": 2713,
      "탐": 2714,
      "탑": 2715,
      "탓": 2716,
      "탕": 2717,
      "탗": 2718,
      "태": 2719,
      "택": 2720,
      "탠": 2721,
      "탤": 2722,
      "탬": 2723,
      "탭": 2724,
      "탯": 2725,
      "탰": 2726,
      "탱": 2727,
      "탸": 2728,
      "턀": 2729,
      "터": 2730,
      "턱": 2731,
      "턴": 2732,
      "털": 2733,
      "텀": 2734,
      "텁": 2735,
      "텃": 2736,
      "텅": 2737,
      "텈": 2738,
      "텉": 2739,
      "테": 2740,
      "텍": 2741,
      "텐": 2742,
      "텔": 2743,
      "템": 2744,
      "텝": 2745,
      "텟": 2746,
      "텡": 2747,
      "텨": 2748,
      "토": 2749,
      "톡": 2750,
      "톤": 2751,
      "톨": 2752,
      "톰": 2753,
      "톱": 2754,
      "통": 2755,
      "톼": 2756,
      "퇄": 2757,
      "퇘": 2758,
      "퇴": 2759,
      "툇": 2760,
      "툥": 2761,
      "투": 2762,
      "툭": 2763,
      "툰": 2764,
      "툴": 2765,
      "툼": 2766,
      "툿": 2767,
      "퉁": 2768,
      "퉤": 2769,
      "퉷": 2770,
      "퉽": 2771,
      "튀": 2772,
      "튕": 2773,
      "튜": 2774,
      "튠": 2775,
      "튤": 2776,
      "튬": 2777,
      "튭": 2778,
      "트": 2779,
      "특": 2780,
      "튼": 2781,
      "튿": 2782,
      "틀": 2783,
      "틈": 2784,
      "틋": 2785,
      "틍": 2786,
      "틐": 2787,
      "틑": 2788,
      "틔": 2789,
      "티": 2790,
      "틱": 2791,
      "틴": 2792,
      "틸": 2793,
      "팀": 2794,
      "팁": 2795,
      "팅": 2796,
      "파": 2797,
      "팍": 2798,
      "팎": 2799,
      "판": 2800,
      "팔": 2801,
      "팜": 2802,
      "팝": 2803,
      "팟": 2804,
      "팡": 2805,
      "팥": 2806,
      "패": 2807,
      "팩": 2808,
      "팬": 2809,
      "팰": 2810,
      "팸": 2811,
      "팻": 2812,
      "팼": 2813,
      "팽": 2814,
      "팾": 2815,
      "퍄": 2816,
      "퍠": 2817,
      "퍼": 2818,
      "퍽": 2819,
      "펀": 2820,
      "펄": 2821,
      "펌": 2822,
      "펏": 2823,
      "펑": 2824,
      "펔": 2825,
      "페": 2826,
      "펙": 2827,
      "펜": 2828,
      "펠": 2829,
      "펩": 2830,
      "펫": 2831,
      "펭": 2832,
      "펴": 2833,
      "편": 2834,
      "펼": 2835,
      "폄": 2836,
      "폇": 2837,
      "평": 2838,
      "폐": 2839,
      "포": 2840,
      "폭": 2841,
      "폰": 2842,
      "폴": 2843,
      "폼": 2844,
      "폽": 2845,
      "폿": 2846,
      "퐁": 2847,
      "퐈": 2848,
      "퐉": 2849,
      "퐌": 2850,
      "퐛": 2851,
      "퐝": 2852,
      "퐠": 2853,
      "푀": 2854,
      "표": 2855,
      "푱": 2856,
      "푸": 2857,
      "푹": 2858,
      "푼": 2859,
      "풀": 2860,
      "품": 2861,
      "풋": 2862,
      "풍": 2863,
      "풓": 2864,
      "풕": 2865,
      "풰": 2866,
      "퓌": 2867,
      "퓨": 2868,
      "퓬": 2869,
      "퓰": 2870,
      "퓽": 2871,
      "프": 2872,
      "픈": 2873,
      "플": 2874,
      "픔": 2875,
      "픕": 2876,
      "피": 2877,
      "픽": 2878,
      "핀": 2879,
      "필": 2880,
      "핍": 2881,
      "핏": 2882,
      "핑": 2883,
      "핓": 2884,
      "핕": 2885,
      "하": 2886,
      "학": 2887,
      "핛": 2888,
      "한": 2889,
      "핟": 2890,
      "할": 2891,
      "핡": 2892,
      "핣": 2893,
      "핥": 2894,
      "핦": 2895,
      "핧": 2896,
      "함": 2897,
      "합": 2898,
      "핫": 2899,
      "핬": 2900,
      "항": 2901,
      "핮": 2902,
      "핯": 2903,
      "핰": 2904,
      "핱": 2905,
      "핳": 2906,
      "해": 2907,
      "핵": 2908,
      "핶": 2909,
      "핸": 2910,
      "핻": 2911,
      "핼": 2912,
      "햄": 2913,
      "햅": 2914,
      "햇": 2915,
      "했": 2916,
      "행": 2917,
      "햌": 2918,
      "햏": 2919,
      "햐": 2920,
      "햔": 2921,
      "햣": 2922,
      "햤": 2923,
      "향": 2924,
      "햫": 2925,
      "헀": 2926,
      "허": 2927,
      "헉": 2928,
      "헌": 2929,
      "헏": 2930,
      "헐": 2931,
      "헑": 2932,
      "험": 2933,
      "헛": 2934,
      "헝": 2935,
      "헠": 2936,
      "헣": 2937,
      "헤": 2938,
      "헥": 2939,
      "헨": 2940,
      "헬": 2941,
      "헴": 2942,
      "헵": 2943,
      "헷": 2944,
      "헸": 2945,
      "헹": 2946,
      "헿": 2947,
      "혀": 2948,
      "혁": 2949,
      "현": 2950,
      "혈": 2951,
      "혐": 2952,
      "협": 2953,
      "혓": 2954,
      "혔": 2955,
      "형": 2956,
      "혖": 2957,
      "혜": 2958,
      "호": 2959,
      "혹": 2960,
      "혼": 2961,
      "홀": 2962,
      "홈": 2963,
      "홉": 2964,
      "홋": 2965,
      "홍": 2966,
      "홐": 2967,
      "홓": 2968,
      "화": 2969,
      "확": 2970,
      "환": 2971,
      "홙": 2972,
      "활": 2973,
      "홥": 2974,
      "홧": 2975,
      "홨": 2976,
      "황": 2977,
      "홪": 2978,
      "홫": 2979,
      "홬": 2980,
      "홯": 2981,
      "홱": 2982,
      "회": 2983,
      "획": 2984,
      "횐": 2985,
      "횔": 2986,
      "횟": 2987,
      "횡": 2988,
      "횤": 2989,
      "효": 2990,
      "횬": 2991,
      "횽": 2992,
      "훃": 2993,
      "후": 2994,
      "훅": 2995,
      "훈": 2996,
      "훋": 2997,
      "훌": 2998,
      "훑": 2999,
      "훓": 3000,
      "훔": 3001,
      "훕": 3002,
      "훗": 3003,
      "훙": 3004,
      "훜": 3005,
      "훟": 3006,
      "훠": 3007,
      "훡": 3008,
      "훤": 3009,
      "훨": 3010,
      "훵": 3011,
      "훸": 3012,
      "훻": 3013,
      "훼": 3014,
      "휏": 3015,
      "휑": 3016,
      "휘": 3017,
      "휙": 3018,
      "휠": 3019,
      "휨": 3020,
      "휩": 3021,
      "휴": 3022,
      "휸": 3023,
      "휼": 3024,
      "흉": 3025,
      "흌": 3026,
      "흏": 3027,
      "흐": 3028,
      "흑": 3029,
      "흔": 3030,
      "흘": 3031,
      "흙": 3032,
      "흝": 3033,
      "흠": 3034,
      "흡": 3035,
      "흣": 3036,
      "흥": 3037,
      "흦": 3038,
      "흨": 3039,
      "흩": 3040,
      "흫": 3041,
      "희": 3042,
      "흰": 3043,
      "흳": 3044,
      "히": 3045,
      "힉": 3046,
      "힌": 3047,
      "힐": 3048,
      "힘": 3049,
      "힙": 3050,
      "힛": 3051,
      "힝": 3052,
      "힞": 3053,
      "힣": 3054,
      "盧": 3055,
      "老": 3056,
      "綠": 3057,
      "不": 3058,
      "禮": 3059,
      "龍": 3060,
      "流": 3061,
      "紐": 3062,
      "律": 3063,
      "慄": 3064,
      "！": 3065,
      "＋": 3066,
      "，": 3067,
      "？": 3068,
      "＼": 3069,
      "＾": 3070,
      "｀": 3071,
      "ｘ": 3072,
      "～": 3073,
      "￣": 3074,
      "##2": 3075,
      "##0": 3076,
      "##만": 3077,
      "##死": 3078,
      "##구": 3079,
      "##얼": 3080,
      "##타": 3081,
      "##임": 3082,
      "##틀": 3083,
      "##집": 3084,
      "##다": 3085,
      "##허": 3086,
      "##겨": 3087,
      "##둘": 3088,
      "##껄": 3089,
      "##의": 3090,
      "##기": 3091,
      "##민": 3092,
      "##s": 3093,
      "##o": 3094,
      "##n": 3095,
      "##e": 3096,
      "##ㅒ": 3097,
      "##명": 3098,
      "##쓰": 3099,
      "##작": 3100,
      "##어": 3101,
      "##내": 3102,
      "##리": 3103,
      "##콜": 3104,
      "##렛": 3105,
      "##을": 3106,
      "##각": 3107,
      "##현": 3108,
      "##나": 3109,
      "##미": 3110,
      "##승": 3111,
      "##욱": 3112,
      "##수": 3113,
      "##브": 3114,
      "##장": 3115,
      "##면": 3116,
      "##까": 3117,
      "##버": 3118,
      "##죽": 3119,
      "##긋": 3120,
      "##a": 3121,
      "##r": 3122,
      "##l": 3123,
      "##월": 3124,
      "##체": 3125,
      "##뜰": 3126,
      "##쥬": 3127,
      "##앙": 3128,
      "##움": 3129,
      "##말": 3130,
      "##맨": 3131,
      "##츠": 3132,
      "##피": 3133,
      "##해": 3134,
      "##영": 3135,
      "##복": 3136,
      "##쿠": 3137,
      "##k": 3138,
      "##속": 3139,
      "##3": 3140,
      "##심": 3141,
      "##랑": 3142,
      "##스": 3143,
      "##군": 3144,
      "##주": 3145,
      "##류": 3146,
      "##★": 3147,
      "##엑": 3148,
      "##딘": 3149,
      "##모": 3150,
      "##마": 3151,
      "##아": 3152,
      "##즈": 3153,
      "##곤": 3154,
      "##운": 3155,
      "##레": 3156,
      "##잌": 3157,
      "##자": 3158,
      "##르": 3159,
      "##되": 3160,
      "##넼": 3161,
      "##프": 3162,
      "##드": 3163,
      "##래": 3164,
      "##그": 3165,
      "##투": 3166,
      "##헬": 3167,
      "##통": 3168,
      "##딱": 3169,
      "##지": 3170,
      "##t": 3171,
      "##h": 3172,
      "##i": 3173,
      "##g": 3174,
      "##유": 3175,
      "##렁": 3176,
      "##쇠": 3177,
      "##티": 3178,
      "##u": 3179,
      "##몀": 3180,
      "##비": 3181,
      "##사": 3182,
      "##백": 3183,
      "##동": 3184,
      "##보": 3185,
      "##발": 3186,
      "##산": 3187,
      "##라": 3188,
      "##인": 3189,
      "##부": 3190,
      "##네": 3191,
      "##총": 3192,
      "##ㄷ": 3193,
      "##치": 3194,
      "##냉": 3195,
      "##캇": 3196,
      "##키": 3197,
      "##역": 3198,
      "##ㅂ": 3199,
      "##ㄱ": 3200,
      "##니": 3201,
      "##카": 3202,
      "##빈": 3203,
      "##과": 3204,
      "##슈": 3205,
      "##퍼": 3206,
      "##밴": 3207,
      "##커": 3208,
      "##멓": 3209,
      "##었": 3210,
      "##량": 3211,
      "##특": 3212,
      "##토": 3213,
      "##하": 3214,
      "##일": 3215,
      "##록": 3216,
      "##원": 3217,
      "##도": 3218,
      "##로": 3219,
      "##시": 3220,
      "##귀": 3221,
      "##빡": 3222,
      "##이": 3223,
      "##침": 3224,
      "##에": 3225,
      "##요": 3226,
      "##상": 3227,
      "##훈": 3228,
      "##띵": 3229,
      "##게": 3230,
      "##뮈": 3231,
      "##베": 3232,
      "##전": 3233,
      "##방": 3234,
      "##력": 3235,
      "##중": 3236,
      "##간": 3237,
      "##ㄴ": 3238,
      "##ㅉ": 3239,
      "##혜": 3240,
      "##듬": 3241,
      "##화": 3242,
      "##신": 3243,
      "##천": 3244,
      "##소": 3245,
      "##개": 3246,
      "##겼": 3247,
      "##증": 3248,
      "##럽": 3249,
      "##느": 3250,
      "##석": 3251,
      "##규": 3252,
      "##안": 3253,
      "##툼": 3254,
      "##당": 3255,
      "##폭": 3256,
      "##송": 3257,
      "##희": 3258,
      "##차": 3259,
      "##룩": 3260,
      "##직": 3261,
      "##햇": 3262,
      "##청": 3263,
      "##웃": 3264,
      "##엇": 3265,
      "##음": 3266,
      "##짓": 3267,
      "##택": 3268,
      "##후": 3269,
      "##우": 3270,
      "##빠": 3271,
      "##삐": 3272,
      "##관": 3273,
      "##포": 3274,
      "##대": 3275,
      "##성": 3276,
      "##은": 3277,
      "##빵": 3278,
      "##y": 3279,
      "##흥": 3280,
      "##판": 3281,
      "##륵": 3282,
      "##극": 3283,
      "##깅": 3284,
      "##난": 3285,
      "##초": 3286,
      "##깐": 3287,
      "##붕": 3288,
      "##돈": 3289,
      "##폐": 3290,
      "##윤": 3291,
      "##양": 3292,
      "##꿍": 3293,
      "##바": 3294,
      "##무": 3295,
      "##잼": 3296,
      "##슴": 3297,
      "##템": 3298,
      "##딨": 3299,
      "##단": 3300,
      "##봣": 3301,
      "##9": 3302,
      "##8": 3303,
      "##년": 3304,
      "##서": 3305,
      "##데": 3306,
      "##칠": 3307,
      "##디": 3308,
      "##젖": 3309,
      "##칭": 3310,
      "##벨": 3311,
      "##설": 3312,
      "##박": 3313,
      "##또": 3314,
      "##덤": 3315,
      "##윌": 3316,
      "##헌": 3317,
      "##팅": 3318,
      "##쩐": 3319,
      "##테": 3320,
      "##짤": 3321,
      "##때": 3322,
      "##곧": 3323,
      "##논": 3324,
      "##숙": 3325,
      "##배": 3326,
      "##더": 3327,
      "##댄": 3328,
      "##응": 3329,
      "##두": 3330,
      "##멀": 3331,
      "##오": 3332,
      "##메": 3333,
      "##져": 3334,
      "##롤": 3335,
      "##루": 3336,
      "##생": 3337,
      "##뎐": 3338,
      "##본": 3339,
      "##막": 3340,
      "##충": 3341,
      "##불": 3342,
      "##권": 3343,
      "##름": 3344,
      "##제": 3345,
      "##재": 3346,
      "##d": 3347,
      "##진": 3348,
      "##실": 3349,
      "##쟁": 3350,
      "##ㅋ": 3351,
      "##ㅌ": 3352,
      "##온": 3353,
      "##걸": 3354,
      "##짝": 3355,
      "##문": 3356,
      "##공": 3357,
      "##웨": 3358,
      "##p": 3359,
      "##국": 3360,
      "##너": 3361,
      "##랙": 3362,
      "##위": 3363,
      "##큰": 3364,
      "##는": 3365,
      "##채": 3366,
      "##롭": 3367,
      "##f": 3368,
      "##조": 3369,
      "##건": 3370,
      "##핡": 3371,
      "##출": 3372,
      "##았": 3373,
      "##꿎": 3374,
      "##트": 3375,
      "##있": 3376,
      "##날": 3377,
      "##뽁": 3378,
      "##밥": 3379,
      "##릇": 3380,
      "##범": 3381,
      "##축": 3382,
      "##태": 3383,
      "##곰": 3384,
      "##엄": 3385,
      "##코": 3386,
      "##호": 3387,
      "##등": 3388,
      "##턴": 3389,
      "##믹": 3390,
      "##려": 3391,
      "##효": 3392,
      "##갈": 3393,
      "##먼": 3394,
      "##글": 3395,
      "##텔": 3396,
      "##뉘": 3397,
      "##정": 3398,
      "##세": 3399,
      "##싱": 3400,
      "##밋": 3401,
      "##남": 3402,
      "##플": 3403,
      "##언": 3404,
      "##경": 3405,
      "##람": 3406,
      "##녀": 3407,
      "##취": 3408,
      "##식": 3409,
      "##겐": 3410,
      "##톡": 3411,
      "##튼": 3412,
      "##w": 3413,
      "##적": 3414,
      "##슫": 3415,
      "##계": 3416,
      "##꾸": 3417,
      "##똥": 3418,
      "##놀": 3419,
      "##c": 3420,
      "##술": 3421,
      "##꼬": 3422,
      "##밸": 3423,
      "##거": 3424,
      "##럼": 3425,
      "##밌": 3426,
      "##크": 3427,
      "##욯": 3428,
      "##끌": 3429,
      "##한": 3430,
      "##씨": 3431,
      "##몽": 3432,
      "##쇼": 3433,
      "##린": 3434,
      "##담": 3435,
      "##덕": 3436,
      "##빨": 3437,
      "##선": 3438,
      "##탕": 3439,
      "##m": 3440,
      "##야": 3441,
      "##7": 3442,
      "##저": 3443,
      "##학": 3444,
      "##히": 3445,
      "##가": 3446,
      "##촌": 3447,
      "##터": 3448,
      "##셔": 3449,
      "##널": 3450,
      "##독": 3451,
      "##고": 3452,
      "##릿": 3453,
      "##랄": 3454,
      "##찌": 3455,
      "##뷔": 3456,
      "##ㄹ": 3457,
      "##ㅇ": 3458,
      "##용": 3459,
      "##처": 3460,
      "##뜨": 3461,
      "##매": 3462,
      "##길": 3463,
      "##질": 3464,
      "##듲": 3465,
      "##듯": 3466,
      "##켓": 3467,
      "##줌": 3468,
      "##행": 3469,
      "##잔": 3470,
      "##끼": 3471,
      "##으": 3472,
      "##먹": 3473,
      "##넢": 3474,
      "##밍": 3475,
      "##따": 3476,
      "##컬": 3477,
      "##칸": 3478,
      "##션": 3479,
      "##엣": 3480,
      "##샷": 3481,
      "##던": 3482,
      "##틈": 3483,
      "##별": 3484,
      "##맞": 3485,
      "##형": 3486,
      "##추": 3487,
      "##금": 3488,
      "##준": 3489,
      "##케": 3490,
      "##윈": 3491,
      "##습": 3492,
      "##퀄": 3493,
      "##쩌": 3494,
      "##할": 3495,
      "##삼": 3496,
      "##색": 3497,
      "##변": 3498,
      "##돌": 3499,
      "##북": 3500,
      "##봤": 3501,
      "##긔": 3502,
      "##노": 3503,
      "##핑": 3504,
      "##연": 3505,
      "##누": 3506,
      "##링": 3507,
      "##악": 3508,
      "##올": 3509,
      "##잉": 3510,
      "##없": 3511,
      "##왕": 3512,
      "##팡": 3513,
      "##격": 3514,
      "##6": 3515,
      "##찰": 3516,
      "##득": 3517,
      "##썻": 3518,
      "##머": 3519,
      "##엠": 3520,
      "##블": 3521,
      "##애": 3522,
      "##평": 3523,
      "##절": 3524,
      "##햄": 3525,
      "##슨": 3526,
      "##달": 3527,
      "##햐": 3528,
      "##들": 3529,
      "##것": 3530,
      "##뻔": 3531,
      "##닝": 3532,
      "##살": 3533,
      "##약": 3534,
      "##랭": 3535,
      "##씬": 3536,
      "##넷": 3537,
      "##큼": 3538,
      "##입": 3539,
      "##묵": 3540,
      "##랜": 3541,
      "##뷰": 3542,
      "##홈": 3543,
      "##캉": 3544,
      "##새": 3545,
      "##5": 3546,
      "##분": 3547,
      "##폴": 3548,
      "##봉": 3549,
      "##반": 3550,
      "##께": 3551,
      "##눌": 3552,
      "##병": 3553,
      "##썸": 3554,
      "##얄": 3555,
      "##풍": 3556,
      "##옥": 3557,
      "##존": 3558,
      "##뚱": 3559,
      "##1": 3560,
      "##닏": 3561,
      "##페": 3562,
      "##혈": 3563,
      "##클": 3564,
      "##셋": 3565,
      "##겟": 3566,
      "##겔": 3567,
      "##짱": 3568,
      "##겄": 3569,
      "##퉁": 3570,
      "##같": 3571,
      "##업": 3572,
      "##렇": 3573,
      "##찐": 3574,
      "##4": 3575,
      "##감": 3576,
      "##를": 3577,
      "##좀": 3578,
      "##죄": 3579,
      "##표": 3580,
      "##털": 3581,
      "##파": 3582,
      "##떄": 3583,
      "##싸": 3584,
      "##란": 3585,
      "##텝": 3586,
      "##헤": 3587,
      "##물": 3588,
      "##탈": 3589,
      "##뿟": 3590,
      "##억": 3591,
      "##ㅅ": 3592,
      "##궁": 3593,
      "##읏": 3594,
      "##족": 3595,
      "##럭": 3596,
      "##종": 3597,
      "##펀": 3598,
      "##쎄": 3599,
      "##뻑": 3600,
      "##필": 3601,
      "##쇄": 3602,
      "##울": 3603,
      "##앨": 3604,
      "##섁": 3605,
      "##쯩": 3606,
      "##낫": 3607,
      "##낮": 3608,
      "##탑": 3609,
      "##팀": 3610,
      "##룡": 3611,
      "##강": 3612,
      "##떻": 3613,
      "##환": 3614,
      "##롸": 3615,
      "##v": 3616,
      "##렷": 3617,
      "##런": 3618,
      "##닼": 3619,
      "##패": 3620,
      "##교": 3621,
      "##쯔": 3622,
      "##봄": 3623,
      "##엘": 3624,
      "##놈": 3625,
      "##숨": 3626,
      "##셕": 3627,
      "##징": 3628,
      "##뜻": 3629,
      "##둑": 3630,
      "##춤": 3631,
      "##회": 3632,
      "##잡": 3633,
      "##ㅠ": 3634,
      "##ㅡ": 3635,
      "##탄": 3636,
      "##흘": 3637,
      "##볕": 3638,
      "##러": 3639,
      "##b": 3640,
      "##ㅎ": 3641,
      "##삘": 3642,
      "##렬": 3643,
      "##겅": 3644,
      "##론": 3645,
      "##펑": 3646,
      "##휘": 3647,
      "##액": 3648,
      "##슬": 3649,
      "##삤": 3650,
      "##망": 3651,
      "##봙": 3652,
      "##앤": 3653,
      "##렴": 3654,
      "##풋": 3655,
      "##탁": 3656,
      "##옹": 3657,
      "##멘": 3658,
      "##험": 3659,
      "##예": 3660,
      "##끈": 3661,
      "##림": 3662,
      "##딩": 3663,
      "##혁": 3664,
      "##깨": 3665,
      "##령": 3666,
      "##↑": 3667,
      "##튀": 3668,
      "##뎅": 3669,
      "##챔": 3670,
      "##랏": 3671,
      "##뽀": 3672,
      "##쟈": 3673,
      "##넹": 3674,
      "##━": 3675,
      "##혼": 3676,
      "##와": 3677,
      "##슾": 3678,
      "##멜": 3679,
      "##륙": 3680,
      "##렐": 3681,
      "##했": 3682,
      "##꿉": 3683,
      "##덴": 3684,
      "##폰": 3685,
      "##즘": 3686,
      "##닌": 3687,
      "##닥": 3688,
      "##엿": 3689,
      "##픽": 3690,
      "##꿈": 3691,
      "##귄": 3692,
      "##빅": 3693,
      "##든": 3694,
      "##줄": 3695,
      "##알": 3696,
      "##육": 3697,
      "##뉴": 3698,
      "##잘": 3699,
      "##함": 3700,
      "##겠": 3701,
      "##찜": 3702,
      "##랍": 3703,
      "##x": 3704,
      "##여": 3705,
      "##힌": 3706,
      "##ㅏ": 3707,
      "##뭐": 3708,
      "##얌": 3709,
      "##엮": 3710,
      "##낙": 3711,
      "##늡": 3712,
      "##품": 3713,
      "##뱌": 3714,
      "##♥": 3715,
      "##♡": 3716,
      "##휼": 3717,
      "##밀": 3718,
      "##톤": 3719,
      "##락": 3720,
      "##활": 3721,
      "##못": 3722,
      "##냥": 3723,
      "##견": 3724,
      "##긴": 3725,
      "##합": 3726,
      "##워": 3727,
      "##펙": 3728,
      "##롱": 3729,
      "##홍": 3730,
      "##깈": 3731,
      "##엔": 3732,
      "##씀": 3733,
      "##읍": 3734,
      "##센": 3735,
      "##첨": 3736,
      "##칼": 3737,
      "##립": 3738,
      "##델": 3739,
      "##쿤": 3740,
      "##협": 3741,
      "##렸": 3742,
      "##벽": 3743,
      "##항": 3744,
      "##떡": 3745,
      "##욬": 3746,
      "##낚": 3747,
      "##외": 3748,
      "##쓔": 3749,
      "##황": 3750,
      "##뒤": 3751,
      "##욤": 3752,
      "##텐": 3753,
      "##암": 3754,
      "##낌": 3755,
      "##갑": 3756,
      "##퀴": 3757,
      "##벌": 3758,
      "##봑": 3759,
      "##철": 3760,
      "##번": 3761,
      "##켄": 3762,
      "##맖": 3763,
      "##갯": 3764,
      "##굿": 3765,
      "##밟": 3766,
      "##솔": 3767,
      "##쟝": 3768,
      "##친": 3769,
      "##잇": 3770,
      "##♬": 3771,
      "##핵": 3772,
      "##꿀": 3773,
      "##님": 3774,
      "##÷": 3775,
      "##쉐": 3776,
      "##人": 3777,
      "##옼": 3778,
      "##휴": 3779,
      "##끄": 3780,
      "##딴": 3781,
      "##섬": 3782,
      "##셀": 3783,
      "##쨓": 3784,
      "##ㅜ": 3785,
      "##뮤": 3786,
      "##났": 3787,
      "##닐": 3788,
      "##헹": 3789,
      "##컷": 3790,
      "##창": 3791,
      "##점": 3792,
      "##왜": 3793,
      "##덩": 3794,
      "##앉": 3795,
      "##뎈": 3796,
      "##잠": 3797,
      "##좋": 3798,
      "##많": 3799,
      "##맠": 3800,
      "##흡": 3801,
      "##꺼": 3802,
      "##럿": 3803,
      "##뇌": 3804,
      "##쫘": 3805,
      "##홥": 3806,
      "##맆": 3807,
      "##된": 3808,
      "##흐": 3809,
      "##열": 3810,
      "##척": 3811,
      "##롯": 3812,
      "##ㅃ": 3813,
      "##쉅": 3814,
      "##쁜": 3815,
      "##됫": 3816,
      "##넨": 3817,
      "##능": 3818,
      "##콕": 3819,
      "##릅": 3820,
      "##낱": 3821,
      "##졸": 3822,
      "##뇽": 3823,
      "##푼": 3824,
      "##빔": 3825,
      "##젤": 3826,
      "##땀": 3827,
      "##검": 3828,
      "##엽": 3829,
      "##흑": 3830,
      "##꽝": 3831,
      "##늑": 3832,
      "##늘": 3833,
      "##썜": 3834,
      "##깤": 3835,
      "##맹": 3836,
      "##받": 3837,
      "##뽕": 3838,
      "##슷": 3839,
      "##않": 3840,
      "##탓": 3841,
      "##j": 3842,
      "##뿡": 3843,
      "##ㅐ": 3844,
      "##깔": 3845,
      "##눈": 3846,
      "##큐": 3847,
      "##ㅈ": 3848,
      "##쏭": 3849,
      "##릴": 3850,
      "##셧": 3851,
      "##홀": 3852,
      "##벼": 3853,
      "##퉤": 3854,
      "##젠": 3855,
      "##늦": 3856,
      "##손": 3857,
      "##뇾": 3858,
      "##멸": 3859,
      "##틸": 3860,
      "##놓": 3861,
      "##ㄳ": 3862,
      "##균": 3863,
      "##믐": 3864,
      "##볼": 3865,
      "##맘": 3866,
      "##넛": 3867,
      "##킥": 3868,
      "##풀": 3869,
      "##뜩": 3870,
      "##깜": 3871,
      "##농": 3872,
      "##향": 3873,
      "##완": 3874,
      "##략": 3875,
      "##넣": 3876,
      "##찡": 3877,
      "##료": 3878,
      "##랴": 3879,
      "##숑": 3880,
      "##팬": 3881,
      "##틴": 3882,
      "##익": 3883,
      "##q": 3884,
      "##골": 3885,
      "##넒": 3886,
      "##덜": 3887,
      "##닛": 3888,
      "##낼": 3889,
      "##샘": 3890,
      "##둥": 3891,
      "##꽂": 3892,
      "##땜": 3893,
      "##순": 3894,
      "##쳬": 3895,
      "##찬": 3896,
      "##숭": 3897,
      "##쫌": 3898,
      "##굼": 3899,
      "##근": 3900,
      "##맙": 3901,
      "##끔": 3902,
      "##결": 3903,
      "##쟞": 3904,
      "##쉽": 3905,
      "##였": 3906,
      "##퇴": 3907,
      "##딛": 3908,
      "##넬": 3909,
      "##틱": 3910,
      "##뼈": 3911,
      "##깝": 3912,
      "##닉": 3913,
      "##끗": 3914,
      "##탰": 3915,
      "##잭": 3916,
      "##껍": 3917,
      "##릭": 3918,
      "##즌": 3919,
      "##맛": 3920,
      "##톱": 3921,
      "##쳣": 3922,
      "##쯤": 3923,
      "##졋": 3924,
      "##랠": 3925,
      "##욘": 3926,
      "##헀": 3927,
      "##답": 3928,
      "##춘": 3929,
      "##싑": 3930,
      "##펴": 3931,
      "##츄": 3932,
      "##웹": 3933,
      "##툰": 3934,
      "##흙": 3935,
      "##갤": 3936,
      "##쿵": 3937,
      "##광": 3938,
      "##댜": 3939,
      "##핀": 3940,
      "##엉": 3941,
      "##쨋": 3942,
      "##괴": 3943,
      "##퀸": 3944,
      "##要": 3945,
      "##ㅗ": 3946,
      "##싹": 3947,
      "##랬": 3948,
      "##쿨": 3949,
      "##텀": 3950,
      "##맥": 3951,
      "##뤌": 3952,
      "##꿐": 3953,
      "##쌍": 3954,
      "##싶": 3955,
      "##궈": 3956,
      "##른": 3957,
      "##혹": 3958,
      "##z": 3959,
      "##렌": 3960,
      "##뢰": 3961,
      "##삭": 3962,
      "##먀": 3963,
      "##뚤": 3964,
      "##법": 3965,
      "##뎃": 3966,
      "##ㅓ": 3967,
      "##컥": 3968,
      "##롬": 3969,
      "##곡": 3970,
      "##앗": 3971,
      "##쪽": 3972,
      "##둔": 3973,
      "##せ": 3974,
      "##だ": 3975,
      "##よ": 3976,
      "##꽃": 3977,
      "##럴": 3978,
      "##욕": 3979,
      "##뿐": 3980,
      "##꼭": 3981,
      "##솟": 3982,
      "##쾅": 3983,
      "##쥐": 3984,
      "##탐": 3985,
      "##찮": 3986,
      "##졍": 3987,
      "##념": 3988,
      "##염": 3989,
      "##씁": 3990,
      "##례": 3991,
      "##웅": 3992,
      "##곱": 3993,
      "##톨": 3994,
      "##쁘": 3995,
      "##뚜": 3996,
      "##쉴": 3997,
      "##녕": 3998,
      "##졉": 3999,
      "##ㅣ": 4000,
      "##낄": 4001,
      "##쩜": 4002,
      "##책": 4003,
      "##녜": 4004,
      "##쨰": 4005,
      "##킬": 4006,
      "##텅": 4007,
      "##률": 4008,
      "##찍": 4009,
      "##럤": 4010,
      "##므": 4011,
      "##캅": 4012,
      "##꾼": 4013,
      "##젧": 4014,
      "##킹": 4015,
      "##캡": 4016,
      "##펏": 4017,
      "##닭": 4018,
      "##곀": 4019,
      "##륭": 4020,
      "##슘": 4021,
      "##옌": 4022,
      "##넙": 4023,
      "##탭": 4024,
      "##삳": 4025,
      "##봐": 4026,
      "##긱": 4027,
      "##끠": 4028,
      "##쳐": 4029,
      "##컴": 4030,
      "##퓨": 4031,
      "##ㄲ": 4032,
      "##ㅑ": 4033,
      "##참": 4034,
      "##덯": 4035,
      "##끝": 4036,
      "##껀": 4037,
      "##며": 4038,
      "##쩍": 4039,
      "##쑤": 4040,
      "##녁": 4041,
      "##쉬": 4042,
      "##좡": 4043,
      "##넴": 4044,
      "##言": 4045,
      "##깟": 4046,
      "##콩": 4047,
      "##냔": 4048,
      "##샤": 4049,
      "##괄": 4050,
      "##벙": 4051,
      "##잖": 4052,
      "##갔": 4053,
      "##캐": 4054,
      "##륨": 4055,
      "##탯": 4056,
      "##급": 4057,
      "##女": 4058,
      "##も": 4059,
      "##か": 4060,
      "##わ": 4061,
      "##い": 4062,
      "##し": 4063,
      "##쬬": 4064,
      "##렵": 4065,
      "##냨": 4066,
      "##ㅁ": 4067,
      "##넌": 4068,
      "##챈": 4069,
      "##굽": 4070,
      "##빌": 4071,
      "##쩔": 4072,
      "##죠": 4073,
      "##빙": 4074,
      "##김": 4075,
      "##갗": 4076,
      "##몬": 4077,
      "##젼": 4078,
      "##엌": 4079,
      "##켐": 4080,
      "##컨": 4081,
      "##랫": 4082,
      "##괭": 4083,
      "##냄": 4084,
      "##탱": 4085,
      "##벳": 4086,
      "##껴": 4087,
      "##확": 4088,
      "##탠": 4089,
      "##쭐": 4090,
      "##엡": 4091,
      "##퀘": 4092,
      "##쩡": 4093,
      "##편": 4094,
      "##껏": 4095,
      "##롴": 4096,
      "##뇨": 4097,
      "##촐": 4098,
      "##섹": 4099,
      "##넥": 4100,
      "##쾌": 4101,
      "##늠": 4102,
      "##앟": 4103,
      "##탬": 4104,
      "##낏": 4105,
      "##팔": 4106,
      "##킨": 4107,
      "##렉": 4108,
      "##깡": 4109,
      "##딧": 4110,
      "##램": 4111,
      "##몰": 4112,
      "##웠": 4113,
      "##앞": 4114,
      "##짐": 4115,
      "##띨": 4116,
      "##틍": 4117,
      "##꼇": 4118,
      "##십": 4119,
      "##얶": 4120,
      "##낑": 4121,
      "##쥰": 4122,
      "##굴": 4123,
      "##땅": 4124,
      "##뿔": 4125,
      "##째": 4126,
      "##쌔": 4127,
      "##듭": 4128,
      "##뱀": 4129,
      "##뚝": 4130,
      "##룰": 4131,
      "##몸": 4132,
      "##삽": 4133,
      "##넓": 4134,
      "##빼": 4135,
      "##팟": 4136,
      "##겹": 4137,
      "##쐌": 4138,
      "##쏘": 4139,
      "##착": 4140,
      "##왓": 4141,
      "##칫": 4142,
      "##本": 4143,
      "##映": 4144,
      "##○": 4145,
      "##꽤": 4146,
      "##쵝": 4147,
      "##슐": 4148,
      "##릉": 4149,
      "##꼴": 4150,
      "##콤": 4151,
      "##쪙": 4152,
      "##찔": 4153,
      "##¨": 4154,
      "##흔": 4155,
      "##떨": 4156,
      "##쌀": 4157,
      "##셉": 4158,
      "##목": 4159,
      "##됨": 4160,
      "##섯": 4161,
      "##객": 4162,
      "##궐": 4163,
      "##최": 4164,
      "##뱅": 4165,
      "##ㅔ": 4166,
      "##下": 4167,
      "##촉": 4168,
      "##홉": 4169,
      "##겝": 4170,
      "##놨": 4171,
      "##됬": 4172,
      "##컹": 4173,
      "##뤼": 4174,
      "##흳": 4175,
      "##댐": 4176,
      "##곘": 4177,
      "##련": 4178,
      "##렜": 4179,
      "##펠": 4180,
      "##쭉": 4181,
      "##믓": 4182,
      "##턀": 4183,
      "##돤": 4184,
      "##♪": 4185,
      "##듀": 4186,
      "##섭": 4187,
      "##몃": 4188,
      "##돠": 4189,
      "##즐": 4190,
      "##옴": 4191,
      "##싰": 4192,
      "##ㅍ": 4193,
      "##뻬": 4194,
      "##납": 4195,
      "##곅": 4196,
      "##헝": 4197,
      "##픈": 4198,
      "##쮜": 4199,
      "##빛": 4200,
      "##떠": 4201,
      "##힘": 4202,
      "##둣": 4203,
      "##됐": 4204,
      "##냌": 4205,
      "##떵": 4206,
      "##흉": 4207,
      "##맬": 4208,
      "##옇": 4209,
      "##밖": 4210,
      "##뮨": 4211,
      "##맺": 4212,
      "##큘": 4213,
      "##쉈": 4214,
      "##빗": 4215,
      "##뱉": 4216,
      "##겤": 4217,
      "##뇰": 4218,
      "##엎": 4219,
      "##켜": 4220,
      "##왤": 4221,
      "##접": 4222,
      "##헨": 4223,
      "##멋": 4224,
      "##댁": 4225,
      "##욜": 4226,
      "##킷": 4227,
      "##딸": 4228,
      "##귤": 4229,
      "##믄": 4230,
      "##퉷": 4231,
      "##귝": 4232,
      "##겻": 4233,
      "##땟": 4234,
      "##촬": 4235,
      "##깍": 4236,
      "##木": 4237,
      "##慶": 4238,
      "##一": 4239,
      "##층": 4240,
      "##뛰": 4241,
      "##흣": 4242,
      "##뿌": 4243,
      "##왔": 4244,
      "##쫄": 4245,
      "##렝": 4246,
      "##벅": 4247,
      "##젬": 4248,
      "##퍽": 4249,
      "##핧": 4250,
      "##힐": 4251,
      "##꽈": 4252,
      "##값": 4253,
      "##ㅊ": 4254,
      "##넘": 4255,
      "##葉": 4256,
      "##飛": 4257,
      "##刀": 4258,
      "##·": 4259,
      "##콘": 4260,
      "##뿅": 4261,
      "##둿": 4262,
      "##젯": 4263,
      "##밤": 4264,
      "##컵": 4265,
      "##셈": 4266,
      "##겁": 4267,
      "##流": 4268,
      "##作": 4269,
      "##펜": 4270,
      "##렘": 4271,
      "##캠": 4272,
      "##옷": 4273,
      "##뀌": 4274,
      "##껑": 4275,
      "##ㄸ": 4276,
      "##륜": 4277,
      "##킴": 4278,
      "##빻": 4279,
      "##옮": 4280,
      "##샥": 4281,
      "##줫": 4282,
      "##悲": 4283,
      "##現": 4284,
      "##뤠": 4285,
      "##율": 4286,
      "##괜": 4287,
      "##냐": 4288,
      "##헛": 4289,
      "##젓": 4290,
      "##얘": 4291,
      "##벤": 4292,
      "##쳔": 4293,
      "##낰": 4294,
      "##멍": 4295,
      "##앜": 4296,
      "##뻣": 4297,
      "##☆": 4298,
      "##◐": 4299,
      "##◑": 4300,
      "##※": 4301,
      "##錢": 4302,
      "##有": 4303,
      "##罪": 4304,
      "##쪼": 4305,
      "##띤": 4306,
      "##팝": 4307,
      "##쿡": 4308,
      "##쑥": 4309,
      "##혀": 4310,
      "##ㅕ": 4311,
      "##싯": 4312,
      "##뿍": 4313,
      "##깊": 4314,
      "##땁": 4315,
      "##윙": 4316,
      "##똔": 4317,
      "##삿": 4318,
      "##갱": 4319,
      "##측": 4320,
      "##쓸": 4321,
      "##톰": 4322,
      "##멧": 4323,
      "##썌": 4324,
      "##펌": 4325,
      "##カ": 4326,
      "##ン": 4327,
      "##ピ": 4328,
      "##땡": 4329,
      "##쳇": 4330,
      "##숀": 4331,
      "##멈": 4332,
      "##슝": 4333,
      "##色": 4334,
      "##無": 4335,
      "##臭": 4336,
      "##됏": 4337,
      "##峽": 4338,
      "##꺽": 4339,
      "##밭": 4340,
      "##遠": 4341,
      "##に": 4342,
      "##탉": 4343,
      "##짧": 4344,
      "##돼": 4345,
      "##졌": 4346,
      "##쥘": 4347,
      "##띠": 4348,
      "##횽": 4349,
      "##짞": 4350,
      "##썁": 4351,
      "##솜": 4352,
      "##귯": 4353,
      "##붙": 4354,
      "##傑": 4355,
      "##侖": 4356,
      "##늉": 4357,
      "##닠": 4358,
      "##윅": 4359,
      "##뭇": 4360,
      "##셰": 4361,
      "##쉿": 4362,
      "##맄": 4363,
      "##좌": 4364,
      "##샵": 4365,
      "##뻐": 4366,
      "##랒": 4367,
      "##핮": 4368,
      "##떽": 4369,
      "##칩": 4370,
      "##짜": 4371,
      "##웟": 4372,
      "##릎": 4373,
      "##팍": 4374,
      "##븅": 4375,
      "##믈": 4376,
      "##혓": 4377,
      "##⊙": 4378,
      "##랗": 4379,
      "##쉰": 4380,
      "##뜬": 4381,
      "##쪈": 4382,
      "##쪄": 4383,
      "##웽": 4384,
      "##둗": 4385,
      "##첬": 4386,
      "##푸": 4387,
      "##옵": 4388,
      "##훗": 4389,
      "##튜": 4390,
      "##섀": 4391,
      "##꺄": 4392,
      "##헸": 4393,
      "##퍠": 4394,
      "##￣": 4395,
      "##☜": 4396,
      "##윗": 4397,
      "##획": 4398,
      "##챦": 4399,
      "##곸": 4400,
      "##욷": 4401,
      "##뇬": 4402,
      "##깃": 4403,
      "##쫑": 4404,
      "##븐": 4405,
      "##●": 4406,
      "##콧": 4407,
      "##씽": 4408,
      "##！": 4409,
      "##홋": 4410,
      "##쿼": 4411,
      "##윔": 4412,
      "##썬": 4413,
      "##탤": 4414,
      "##퇘": 4415,
      "##쬐": 4416,
      "##닫": 4417,
      "##웍": 4418,
      "##썅": 4419,
      "##꼽": 4420,
      "##툭": 4421,
      "##텍": 4422,
      "##빰": 4423,
      "##줘": 4424,
      "##♩": 4425,
      "##☞": 4426,
      "##왈": 4427,
      "##벵": 4428,
      "##썽": 4429,
      "##섺": 4430,
      "##높": 4431,
      "##웰": 4432,
      "##얔": 4433,
      "##잰": 4434,
      "##썹": 4435,
      "##압": 4436,
      "##떙": 4437,
      "##냅": 4438,
      "##킼": 4439,
      "##흫": 4440,
      "##훟": 4441,
      "##몹": 4442,
      "##앰": 4443,
      "##랔": 4444,
      "##흠": 4445,
      "##딪": 4446,
      "##ら": 4447,
      "##け": 4448,
      "##칙": 4449,
      "##쿄": 4450,
      "##됴": 4451,
      "##‥": 4452,
      "##잫": 4453,
      "##火": 4454,
      "##긍": 4455,
      "##쏙": 4456,
      "##롹": 4457,
      "##랩": 4458,
      "##걀": 4459,
      "##얀": 4460,
      "##좃": 4461,
      "##곻": 4462,
      "##껰": 4463,
      "##잎": 4464,
      "##맷": 4465,
      "##뼜": 4466,
      "##뭉": 4467,
      "##똑": 4468,
      "##룻": 4469,
      "##솨": 4470,
      "##닷": 4471,
      "##놧": 4472,
      "##쑈": 4473,
      "##캬": 4474,
      "##갸": 4475,
      "##끆": 4476,
      "##딜": 4477,
      "##쒸": 4478,
      "##닊": 4479,
      "##룸": 4480,
      "##냣": 4481,
      "##큭": 4482,
      "##샹": 4483,
      "##릐": 4484,
      "##팩": 4485,
      "##줬": 4486,
      "##샛": 4487,
      "##쭘": 4488,
      "##밧": 4489,
      "##핏": 4490,
      "##겈": 4491,
      "##찾": 4492,
      "##떼": 4493,
      "##캄": 4494,
      "##뎌": 4495,
      "##딕": 4496,
      "##늬": 4497,
      "##헠": 4498,
      "##튬": 4499,
      "##넉": 4500,
      "##폼": 4501,
      "##똠": 4502,
      "##쩨": 4503,
      "##湖": 4504,
      "##뎀": 4505,
      "##잣": 4506,
      "##씩": 4507,
      "##궜": 4508,
      "##줍": 4509,
      "##첩": 4510,
      "##훼": 4511,
      "##렿": 4512,
      "##꾿": 4513,
      "##웩": 4514,
      "##끽": 4515,
      "##끅": 4516,
      "##낭": 4517,
      "##쉘": 4518,
      "##몇": 4519,
      "##뗑": 4520,
      "##멬": 4521,
      "##뷸": 4522,
      "##꽁": 4523,
      "##혐": 4524,
      "##턱": 4525,
      "##벹": 4526,
      "##곳": 4527,
      "##셜": 4528,
      "##맣": 4529,
      "##日": 4530,
      "##쌈": 4531,
      "##펄": 4532,
      "##쌤": 4533,
      "##돕": 4534,
      "##뿜": 4535,
      "##댕": 4536,
      "##쨔": 4537,
      "##뱔": 4538,
      "##젝": 4539,
      "##낀": 4540,
      "##꿇": 4541,
      "##ⓞ": 4542,
      "##ⓛ": 4543,
      "##랐": 4544,
      "##엲": 4545,
      "##쨌": 4546,
      "##땃": 4547,
      "##튭": 4548,
      "##グ": 4549,
      "##ワ": 4550,
      "##ヨ": 4551,
      "##ル": 4552,
      "##シ": 4553,
      "##ム": 4554,
      "##ヒ": 4555,
      "##ま": 4556,
      "##す": 4557,
      "##윽": 4558,
      "##ッ": 4559,
      "##ク": 4560,
      "##ス": 4561,
      "##た": 4562,
      "##の": 4563,
      "##セ": 4564,
      "##で": 4565,
      "##き": 4566,
      "##な": 4567,
      "##챠": 4568,
      "##핫": 4569,
      "##짘": 4570,
      "##듴": 4571,
      "##좝": 4572,
      "##됀": 4573,
      "##촘": 4574,
      "##껐": 4575,
      "##쭈": 4576,
      "##콥": 4577,
      "##냊": 4578,
      "##봗": 4579,
      "##뜸": 4580,
      "##떈": 4581,
      "##녹": 4582,
      "##앵": 4583,
      "##껃": 4584,
      "##햌": 4585,
      "##융": 4586,
      "##킵": 4587,
      "##윀": 4588,
      "##뜯": 4589,
      "##캌": 4590,
      "##쉣": 4591,
      "##캔": 4592,
      "##쓉": 4593,
      "##뚠": 4594,
      "##핍": 4595,
      "##칵": 4596,
      "##高": 4597,
      "##덱": 4598,
      "##밷": 4599,
      "##뵹": 4600,
      "##넝": 4601,
      "##샬": 4602,
      "##졐": 4603,
      "##픔": 4604,
      "##師": 4605,
      "##…": 4606,
      "##잏": 4607,
      "##룽": 4608,
      "##面": 4609,
      "##的": 4610,
      "##歌": 4611,
      "##曲": 4612,
      "##都": 4613,
      "##훨": 4614,
      "##짚": 4615,
      "##써": 4616,
      "##끓": 4617,
      "##뤰": 4618,
      "##쨍": 4619,
      "##샅": 4620,
      "##룬": 4621,
      "##얗": 4622,
      "##왁": 4623,
      "##딍": 4624,
      "##숏": 4625,
      "##훔": 4626,
      "##쵸": 4627,
      "##텡": 4628,
      "##밑": 4629,
      "##ダ": 4630,
      "##見": 4631,
      "##ね": 4632,
      "##졎": 4633,
      "##춸": 4634,
      "##쭙": 4635,
      "##땔": 4636,
      "##쪘": 4637,
      "##춋": 4638,
      "##훃": 4639,
      "##샴": 4640,
      "##母": 4641,
      "##늣": 4642,
      "##슉": 4643,
      "##틋": 4644,
      "##뽄": 4645,
      "##깽": 4646,
      "##땐": 4647,
      "##툴": 4648,
      "##묘": 4649,
      "##웁": 4650,
      "##볔": 4651,
      "##댓": 4652,
      "##밉": 4653,
      "##덥": 4654,
      "##웬": 4655,
      "##숴": 4656,
      "##霆": 4657,
      "##鋒": 4658,
      "##쉡": 4659,
      "##헐": 4660,
      "##믿": 4661,
      "##겸": 4662,
      "##ㄻ": 4663,
      "##끙": 4664,
      "##땝": 4665,
      "##­": 4666,
      "##죵": 4667,
      "##궤": 4668,
      "##샠": 4669,
      "##뻘": 4670,
      "##껜": 4671,
      "##춬": 4672,
      "##힛": 4673,
      "##꼼": 4674,
      "##핱": 4675,
      "##慄": 4676,
      "##슭": 4677,
      "##렙": 4678,
      "##헷": 4679,
      "##뷁": 4680,
      "##뚯": 4681,
      "##봅": 4682,
      "##걱": 4683,
      "##볍": 4684,
      "##自": 4685,
      "##慰": 4686,
      "##を": 4687,
      "##て": 4688,
      "##衛": 4689,
      "##る": 4690,
      "##こ": 4691,
      "##と": 4692,
      "##り": 4693,
      "##が": 4694,
      "##묻": 4695,
      "##感": 4696,
      "##퐁": 4697,
      "##녓": 4698,
      "##뤄": 4699,
      "##줏": 4700,
      "##찝": 4701,
      "##될": 4702,
      "##콬": 4703,
      "##밓": 4704,
      "##뮌": 4705,
      "##뎁": 4706,
      "##뭡": 4707,
      "##え": 4708,
      "##様": 4709,
      "##뮬": 4710,
      "##눕": 4711,
      "##쎌": 4712,
      "##췌": 4713,
      "##멱": 4714,
      "##水": 4715,
      "##펭": 4716,
      "##곽": 4717,
      "##첸": 4718,
      "##롄": 4719,
      "##셩": 4720,
      "##펫": 4721,
      "##츔": 4722,
      "##돵": 4723,
      "##밎": 4724,
      "##넿": 4725,
      "##믺": 4726,
      "##눠": 4727,
      "##갓": 4728,
      "##빳": 4729,
      "##섴": 4730,
      "##→": 4731,
      "##웡": 4732,
      "##뺑": 4733,
      "##찟": 4734,
      "##꼿": 4735,
      "##붐": 4736,
      "##쎤": 4737,
      "##츰": 4738,
      "##얏": 4739,
      "##갉": 4740,
      "##겋": 4741,
      "##츈": 4742,
      "##갰": 4743,
      "##꿧": 4744,
      "##헉": 4745,
      "##韓": 4746,
      "##派": 4747,
      "##앚": 4748,
      "##う": 4749,
      "##졈": 4750,
      "##귘": 4751,
      "##ㅀ": 4752,
      "##깁": 4753,
      "##林": 4754,
      "##놃": 4755,
      "##갇": 4756,
      "##믜": 4757,
      "##ㄶ": 4758,
      "##핦": 4759,
      "##뱃": 4760,
      "##쟎": 4761,
      "##쎀": 4762,
      "##홬": 4763,
      "##떳": 4764,
      "##샌": 4765,
      "##◆": 4766,
      "##は": 4767,
      "##춧": 4768,
      "##삑": 4769,
      "##돔": 4770,
      "##눔": 4771,
      "##숖": 4772,
      "##싖": 4773,
      "##엾": 4774,
      "##꾀": 4775,
      "##벗": 4776,
      "##욥": 4777,
      "##굷": 4778,
      "##쓱": 4779,
      "##얍": 4780,
      "##톼": 4781,
      "##렀": 4782,
      "##녔": 4783,
      "##졓": 4784,
      "##삥": 4785,
      "##팽": 4786,
      "##켈": 4787,
      "##첼": 4788,
      "##緣": 4789,
      "##싲": 4790,
      "##똘": 4791,
      "##젆": 4792,
      "##맀": 4793,
      "##냇": 4794,
      "##숩": 4795,
      "##겉": 4796,
      "##ん": 4797,
      "##白": 4798,
      "##っ": 4799,
      "##、": 4800,
      "##챙": 4801,
      "##ミ": 4802,
      "##低": 4803,
      "##力": 4804,
      "##랖": 4805,
      "##뚫": 4806,
      "##갹": 4807,
      "##랰": 4808,
      "##찹": 4809,
      "##앋": 4810,
      "##낯": 4811,
      "##춰": 4812,
      "##↓": 4813,
      "##쫙": 4814,
      "##슌": 4815,
      "##붓": 4816,
      "##렠": 4817,
      "##캣": 4818,
      "##팥": 4819,
      "##씌": 4820,
      "##깄": 4821,
      "##셸": 4822,
      "##山": 4823,
      "##뽈": 4824,
      "##苦": 4825,
      "##꼅": 4826,
      "##헣": 4827,
      "##듣": 4828,
      "##봇": 4829,
      "##앍": 4830,
      "##뺴": 4831,
      "##햏": 4832,
      "##폿": 4833,
      "##쁩": 4834,
      "##썩": 4835,
      "##먄": 4836,
      "##륄": 4837,
      "##짢": 4838,
      "##뀩": 4839,
      "##뀨": 4840,
      "##핸": 4841,
      "##뫄": 4842,
      "##害": 4843,
      "##益": 4844,
      "##윘": 4845,
      "##캴": 4846,
      "##룹": 4847,
      "##쏠": 4848,
      "##돋": 4849,
      "##덛": 4850,
      "##벡": 4851,
      "##腸": 4852,
      "##武": 4853,
      "##첵": 4854,
      "##놬": 4855,
      "##쳥": 4856,
      "##힞": 4857,
      "##읐": 4858,
      "##댖": 4859,
      "##憎": 4860,
      "##췃": 4861,
      "##샨": 4862,
      "##휙": 4863,
      "##깥": 4864,
      "##찿": 4865,
      "##왘": 4866,
      "##섳": 4867,
      "##됑": 4868,
      "##볓": 4869,
      "##家": 4870,
      "##킈": 4871,
      "##部": 4872,
      "##냠": 4873,
      "##꺠": 4874,
      "##칰": 4875,
      "##횡": 4876,
      "##챃": 4877,
      "##잊": 4878,
      "##뎄": 4879,
      "##看": 4880,
      "##뫀": 4881,
      "##팸": 4882,
      "##꿬": 4883,
      "##앸": 4884,
      "##쮸": 4885,
      "##셨": 4886,
      "##ㅆ": 4887,
      "##냘": 4888,
      "##뻥": 4889,
      "##갬": 4890,
      "##땠": 4891,
      "##짲": 4892,
      "##핯": 4893,
      "##훌": 4894,
      "##れ": 4895,
      "##美": 4896,
      "##껒": 4897,
      "##꺅": 4898,
      "##뢔": 4899,
      "##엨": 4900,
      "##ㆍ": 4901,
      "##讐": 4902,
      "##情": 4903,
      "##¤": 4904,
      "##《": 4905,
      "##■": 4906,
      "##》": 4907,
      "##¡": 4908,
      "##¿": 4909,
      "##혔": 4910,
      "##슥": 4911,
      "##쌕": 4912,
      "##젊": 4913,
      "##갠": 4914,
      "##뭄": 4915,
      "##빽": 4916,
      "##品": 4917,
      "##뵤": 4918,
      "##텁": 4919,
      "##넀": 4920,
      "##─": 4921,
      "##꾜": 4922,
      "##好": 4923,
      "##춌": 4924,
      "##뷴": 4925,
      "##퇄": 4926,
      "##間": 4927,
      "##道": 4928,
      "##멕": 4929,
      "##웜": 4930,
      "##頭": 4931,
      "##蛇": 4932,
      "##尾": 4933,
      "##엪": 4934,
      "##흌": 4935,
      "##\\": 4936,
      "##뢈": 4937,
      "##팰": 4938,
      "##～": 4939,
      "##죤": 4940,
      "##∇": 4941,
      "##썰": 4942,
      "##놔": 4943,
      "##핟": 4944,
      "##튠": 4945,
      "##뽜": 4946,
      "##祖": 4947,
      "##빱": 4948,
      "##つ": 4949,
      "##頑": 4950,
      "##張": 4951,
      "##ゃ": 4952,
      "##쒜": 4953,
      "##낲": 4954,
      "##훅": 4955,
      "##덧": 4956,
      "##둠": 4957,
      "##멤": 4958,
      "##쩝": 4959,
      "##惡": 4960,
      "##곃": 4961,
      "##햫": 4962,
      "##쩧": 4963,
      "##읃": 4964,
      "##。": 4965,
      "##밐": 4966,
      "##좔": 4967,
      "##ト": 4968,
      "##ロ": 4969,
      "##빤": 4970,
      "##덨": 4971,
      "##훙": 4972,
      "##돗": 4973,
      "##車": 4974,
      "##男": 4975,
      "##メ": 4976,
      "##イ": 4977,
      "##テ": 4978,
      "##뜷": 4979,
      "##숫": 4980,
      "##쁨": 4981,
      "##궂": 4982,
      "##∀": 4983,
      "##≤": 4984,
      "##홪": 4985,
      "##댈": 4986,
      "##굳": 4987,
      "##긛": 4988,
      "##릳": 4989,
      "##귿": 4990,
      "##읽": 4991,
      "##갛": 4992,
      "##핰": 4993,
      "##쌓": 4994,
      "##땨": 4995,
      "##컄": 4996,
      "##淇": 4997,
      "##닮": 4998,
      "##씹": 4999,
      "##붇": 5000,
      "##빋": 5001,
      "##힝": 5002,
      "##쫭": 5003,
      "##봨": 5004,
      "##껭": 5005,
      "##셍": 5006,
      "##꿋": 5007,
      "##붆": 5008,
      "##멩": 5009,
      "##킁": 5010,
      "##쏴": 5011,
      "##꾹": 5012,
      "##手": 5013,
      "##몫": 5014,
      "##죈": 5015,
      "##괘": 5016,
      "##겧": 5017,
      "##퀀": 5018,
      "##쎼": 5019,
      "##솝": 5020,
      "##律": 5021,
      "##밨": 5022,
      "##봊": 5023,
      "##솢": 5024,
      "##뵐": 5025,
      "##횤": 5026,
      "##쭊": 5027,
      "##탆": 5028,
      "##윱": 5029,
      "##챤": 5030,
      "##겜": 5031,
      "##먠": 5032,
      "##훤": 5033,
      "##켠": 5034,
      "##릋": 5035,
      "##줜": 5036,
      "##댇": 5037,
      "##쉒": 5038,
      "##왑": 5039,
      "##ⅱ": 5040,
      "##ⅲ": 5041,
      "##앳": 5042,
      "##性": 5043,
      "##生": 5044,
      "##殖": 5045,
      "##器": 5046,
      "##私": 5047,
      "##朴": 5048,
      "##熱": 5049,
      "##く": 5050,
      "##좠": 5051,
      "##갖": 5052,
      "##팻": 5053,
      "##왛": 5054,
      "##숍": 5055,
      "##칀": 5056,
      "##잤": 5057,
      "##쌩": 5058,
      "##뼉": 5059,
      "##읅": 5060,
      "##냑": 5061,
      "##옆": 5062,
      "##돟": 5063,
      "##쎠": 5064,
      "##좆": 5065,
      "##ㅄ": 5066,
      "##튕": 5067,
      "##됄": 5068,
      "##븟": 5069,
      "##ㅘ": 5070,
      "##짴": 5071,
      "##쨩": 5072,
      "##릣": 5073,
      "##힙": 5074,
      "##젹": 5075,
      "##씻": 5076,
      "##삶": 5077,
      "##삔": 5078,
      "##눅": 5079,
      "##味": 5080,
      "##돜": 5081,
      "##껌": 5082,
      "##옙": 5083,
      "##욧": 5084,
      "##핛": 5085,
      "##◎": 5086,
      "##▷": 5087,
      "##◁": 5088,
      "##▽": 5089,
      "##△": 5090,
      "##□": 5091,
      "##】": 5092,
      "##【": 5093,
      "##귓": 5094,
      "##켯": 5095,
      "##럔": 5096,
      "##좍": 5097,
      "##옄": 5098,
      "##빝": 5099,
      "##솤": 5100,
      "##畵": 5101,
      "##슛": 5102,
      "##낸": 5103,
      "##岡": 5104,
      "##蒼": 5105,
      "##佑": 5106,
      "##츤": 5107,
      "##닿": 5108,
      "##얻": 5109,
      "##봘": 5110,
      "##큔": 5111,
      "##ㅢ": 5112,
      "##田": 5113,
      "##彩": 5114,
      "##也": 5115,
      "##香": 5116,
      "##씸": 5117,
      "##待": 5118,
      "##흏": 5119,
      "##츨": 5120,
      "##꾱": 5121,
      "##랽": 5122,
      "##룕": 5123,
      "##싴": 5124,
      "##쑨": 5125,
      "##놕": 5126,
      "##쓹": 5127,
      "##땋": 5128,
      "##젅": 5129,
      "##쩄": 5130,
      "##꽉": 5131,
      "##뢍": 5132,
      "##윳": 5133,
      "##듵": 5134,
      "##뫘": 5135,
      "##귬": 5136,
      "##猶": 5137,
      "##不": 5138,
      "##及": 5139,
      "##子": 5140,
      "##헴": 5141,
      "##횬": 5142,
      "##띈": 5143,
      "##읭": 5144,
      "##엏": 5145,
      "##헑": 5146,
      "##셤": 5147,
      "##륒": 5148,
      "##딤": 5149,
      "##숲": 5150,
      "##쯧": 5151,
      "##典": 5152,
      "##꽥": 5153,
      "##뢀": 5154,
      "##뿰": 5155,
      "##롷": 5156,
      "##녈": 5157,
      "##떤": 5158,
      "##싼": 5159,
      "##둡": 5160,
      "##쎗": 5161,
      "##善": 5162,
      "##者": 5163,
      "##혖": 5164,
      "##뗵": 5165,
      "##꼐": 5166,
      "##컁": 5167,
      "##퐉": 5168,
      "##젛": 5169,
      "##셴": 5170,
      "##븡": 5171,
      "##및": 5172,
      "##쏔": 5173,
      "##묨": 5174,
      "##닺": 5175,
      "##｀": 5176,
      "##햅": 5177,
      "##굣": 5178,
      "##心": 5179,
      "##쌘": 5180,
      "##꿔": 5181,
      "##퓽": 5182,
      "##♨": 5183,
      "##쟘": 5184,
      "##쾨": 5185,
      "##챡": 5186,
      "##딷": 5187,
      "##밫": 5188,
      "##릏": 5189,
      "##륺": 5190,
      "##켁": 5191,
      "##ㅛ": 5192,
      "##名": 5193,
      "##뎜": 5194,
      "##밈": 5195,
      "##읔": 5196,
      "##넜": 5197,
      "##앓": 5198,
      "##ㅞ": 5199,
      "##젔": 5200,
      "##딫": 5201,
      "##썪": 5202,
      "##룔": 5203,
      "##常": 5204,
      "##紅": 5205,
      "##塵": 5206,
      "##맴": 5207,
      "##홓": 5208,
      "##뎍": 5209,
      "##ㄺ": 5210,
      "##末": 5211,
      "##덟": 5212,
      "##닟": 5213,
      "##탗": 5214,
      "##놉": 5215,
      "##훓": 5216,
      "##겓": 5217,
      "##됻": 5218,
      "##짖": 5219,
      "##읎": 5220,
      "##쿰": 5221,
      "##헿": 5222,
      "##퓰": 5223,
      "##＾": 5224,
      "##뭨": 5225,
      "##ㅖ": 5226,
      "##슼": 5227,
      "##듷": 5228,
      "##型": 5229,
      "##チ": 5230,
      "##ョ": 5231,
      "##パ": 5232,
      "##リ": 5233,
      "##エ": 5234,
      "##画": 5235,
      "##걍": 5236,
      "##맜": 5237,
      "##텨": 5238,
      "##쫀": 5239,
      "##윕": 5240,
      "##뵛": 5241,
      "##헥": 5242,
      "##쳤": 5243,
      "##짯": 5244,
      "##웤": 5245,
      "##먈": 5246,
      "##륰": 5247,
      "##옂": 5248,
      "##졀": 5249,
      "##記": 5250,
      "##쯗": 5251,
      "##庭": 5252,
      "##話": 5253,
      "##뫙": 5254,
      "##뻤": 5255,
      "##홱": 5256,
      "##셥": 5257,
      "##ⁿ": 5258,
      "##結": 5259,
      "##論": 5260,
      "##出": 5261,
      "##小": 5262,
      "##棒": 5263,
      "##大": 5264,
      "##듸": 5265,
      "##쳫": 5266,
      "##演": 5267,
      "##峰": 5268,
      "##샣": 5269,
      "##뼛": 5270,
      "##띄": 5271,
      "##즉": 5272,
      "##氣": 5273,
      "##쒯": 5274,
      "##定": 5275,
      "##離": 5276,
      "##낔": 5277,
      "##엋": 5278,
      "##쩃": 5279,
      "##쥼": 5280,
      "##즙": 5281,
      "##킄": 5282,
      "##겡": 5283,
      "##늰": 5284,
      "##빢": 5285,
      "##럈": 5286,
      "##콰": 5287,
      "##륫": 5288,
      "##툿": 5289,
      "##볶": 5290,
      "##義": 5291,
      "##뚬": 5292,
      "##짇": 5293,
      "##켕": 5294,
      "##옰": 5295,
      "##싀": 5296,
      "##史": 5297,
      "##곁": 5298,
      "##法": 5299,
      "##넫": 5300,
      "##婦": 5301,
      "##街": 5302,
      "##ノ": 5303,
      "##ビ": 5304,
      "##걑": 5305,
      "##섶": 5306,
      "##」": 5307,
      "##랃": 5308,
      "##찢": 5309,
      "##줠": 5310,
      "##앱": 5311,
      "##뛴": 5312,
      "##늄": 5313,
      "##짬": 5314,
      "##껬": 5315,
      "##끕": 5316,
      "##섰": 5317,
      "##立": 5318,
      "##냬": 5319,
      "##칻": 5320,
      "##팁": 5321,
      "##훡": 5322,
      "##뎡": 5323,
      "##땍": 5324,
      "##◀": 5325,
      "##찼": 5326,
      "##쾡": 5327,
      "##눼": 5328,
      "##볾": 5329,
      "##췬": 5330,
      "##씰": 5331,
      "##씪": 5332,
      "##뫃": 5333,
      "##눙": 5334,
      "##괸": 5335,
      "##쥴": 5336,
      "##＼": 5337,
      "##▼": 5338,
      "##퀼": 5339,
      "##꼮": 5340,
      "##紙": 5341,
      "##떘": 5342,
      "##솧": 5343,
      "##콸": 5344,
      "##흨": 5345,
      "##즁": 5346,
      "##갘": 5347,
      "##뤽": 5348,
      "##뽑": 5349,
      "##꽄": 5350,
      "##봬": 5351,
      "##싫": 5352,
      "##슺": 5353,
      "##뭘": 5354,
      "##넵": 5355,
      "##붸": 5356,
      "##짦": 5357,
      "##띰": 5358,
      "##싄": 5359,
      "##쥣": 5360,
      "##끾": 5361,
      "##텉": 5362,
      "##떔": 5363,
      "##푀": 5364,
      "##옿": 5365,
      "##⌒": 5366,
      "##깻": 5367,
      "##쌰": 5368,
      "##렄": 5369,
      "##ㅚ": 5370,
      "##ベ": 5371,
      "##뀰": 5372,
      "##댬": 5373,
      "##慧": 5374,
      "##꿘": 5375,
      "##좐": 5376,
      "##뗴": 5377,
      "##졔": 5378,
      "##샆": 5379,
      "##롁": 5380,
      "##쩖": 5381,
      "##쀼": 5382,
      "##죻": 5383,
      "##봔": 5384,
      "##궄": 5385,
      "##멐": 5386,
      "##쉭": 5387,
      "##쌋": 5388,
      "##휸": 5389,
      "##랟": 5390,
      "##컾": 5391,
      "##줔": 5392,
      "##푹": 5393,
      "##늗": 5394,
      "##뺏": 5395,
      "##팜": 5396,
      "##뎨": 5397,
      "##萬": 5398,
      "##졷": 5399,
      "##ひ": 5400,
      "##ぽ": 5401,
      "##ろ": 5402,
      "##홧": 5403,
      "##？": 5404,
      "##望": 5405,
      "##₂": 5406,
      "##§": 5407,
      "영화": 5408,
      "##하다": 5409,
      "보다": 5410,
      "하다": 5411,
      "없다": 5412,
      "##ㅋㅋ": 5413,
      "이다": 5414,
      "있다": 5415,
      "너무": 5416,
      "좋다": 5417,
      "재미": 5418,
      "##리다": 5419,
      "정말": 5420,
      "##지다": 5421,
      "재밌": 5422,
      "재밌다": 5423,
      "으로": 5424,
      "되다": 5425,
      "진짜": 5426,
      "##니다": 5427,
      "같다": 5428,
      "##렇다": 5429,
      "에서": 5430,
      "##들다": 5431,
      "##르다": 5432,
      "아니다": 5433,
      "연기": 5434,
      "않다": 5435,
      "##오다": 5436,
      "##나다": 5437,
      "최고": 5438,
      "만들다": 5439,
      "나오다": 5440,
      "평점": 5441,
      "생각": 5442,
      "##토리": 5443,
      "##없다": 5444,
      "스토리": 5445,
      "##라마": 5446,
      "##깝다": 5447,
      "드라마": 5448,
      "사람": 5449,
      "감동": 5450,
      "배우": 5451,
      "##있다": 5452,
      "보고": 5453,
      "ㅋㅋㅋ": 5454,
      "이렇다": 5455,
      "##영화": 5456,
      "아깝다": 5457,
      "지루": 5458,
      "ㅋㅋ": 5459,
      "##기다": 5460,
      "까지": 5461,
      "감독": 5462,
      "10": 5463,
      "그냥": 5464,
      "재미있다": 5465,
      "내용": 5466,
      "##이다": 5467,
      "##주다": 5468,
      "주다": 5469,
      "하고": 5470,
      "재미없다": 5471,
      "자다": 5472,
      "##레기": 5473,
      "지루하다": 5474,
      "##치다": 5475,
      "쓰레기": 5476,
      "시간": 5477,
      "##럽다": 5478,
      "가다": 5479,
      "사랑": 5480,
      "이라": 5481,
      "그렇다": 5482,
      "들다": 5483,
      "하나": 5484,
      "모르다": 5485,
      "다시": 5486,
      "##렇게": 5487,
      "싶다": 5488,
      "작품": 5489,
      "##ㅋㅋㅋㅋ": 5490,
      "알다": 5491,
      "ㅠㅠ": 5492,
      "##프다": 5493,
      "이야": 5494,
      "##지막": 5495,
      "마지막": 5496,
      "액션": 5497,
      "이건": 5498,
      "완전": 5499,
      "##되다": 5500,
      "오다": 5501,
      "정도": 5502,
      "##쁘다": 5503,
      "##가다": 5504,
      "많다": 5505,
      "처음": 5506,
      "주인": 5507,
      "장면": 5508,
      "주인공": 5509,
      "이렇게": 5510,
      "차다": 5511,
      "나다": 5512,
      "안되다": 5513,
      "최악": 5514,
      "한국": 5515,
      "지금": 5516,
      "기대": 5517,
      "좋아": 5518,
      "이야기": 5519,
      "별로": 5520,
      "연출": 5521,
      "##어지다": 5522,
      "느낌": 5523,
      "이상": 5524,
      "넘다": 5525,
      "그리": 5526,
      "좋아하다": 5527,
      "이해": 5528,
      "ㅎㅎ": 5529,
      "명작": 5530,
      "인데": 5531,
      "역시": 5532,
      "##보다": 5533,
      "그리고": 5534,
      "여자": 5535,
      "아이": 5536,
      "에게": 5537,
      "받다": 5538,
      "우리": 5539,
      "많이": 5540,
      "ㅡㅡ": 5541,
      "남다": 5542,
      "##찮다": 5543,
      "##지만": 5544,
      "라고": 5545,
      "부터": 5546,
      "##끼다": 5547,
      "기억": 5548,
      "괜찮다": 5549,
      "이영화": 5550,
      "이나": 5551,
      "이런": 5552,
      "그래": 5553,
      "느끼다": 5554,
      "버리다": 5555,
      "때문": 5556,
      "아름": 5557,
      "##답다": 5558,
      "아름답다": 5559,
      "해주다": 5560,
      "먹다": 5561,
      "공포": 5562,
      "마음": 5563,
      "보기": 5564,
      "oo": 5565,
      "이고": 5566,
      "무슨": 5567,
      "인생": 5568,
      "유치": 5569,
      "어떻": 5570,
      "결말": 5571,
      "##여주다": 5572,
      "아무": 5573,
      "짜증": 5574,
      "보여주다": 5575,
      "뻔하다": 5576,
      "어떻다": 5577,
      "##쉽다": 5578,
      "아쉽다": 5579,
      "끄다": 5580,
      "남자": 5581,
      "전개": 5582,
      "소재": 5583,
      "수준": 5584,
      "애니": 5585,
      "어리다": 5586,
      "무섭": 5587,
      "무섭다": 5588,
      "없이": 5589,
      "##대로": 5590,
      "재다": 5591,
      "맞다": 5592,
      "몰입": 5593,
      "현실": 5594,
      "스릴": 5595,
      "한번": 5596,
      "눈물": 5597,
      "반전": 5598,
      "필요": 5599,
      "##라다": 5600,
      "가슴": 5601,
      "##어다": 5602,
      "웃기다": 5603,
      "20": 5604,
      "매력": 5605,
      "라는": 5606,
      "되어다": 5607,
      "##스럽다": 5608,
      "끝나다": 5609,
      "가장": 5610,
      "##키다": 5611,
      "말다": 5612,
      "슬프다": 5613,
      "낮다": 5614,
      "대한": 5615,
      "인간": 5616,
      "다른": 5617,
      "높다": 5618,
      "##우다": 5619,
      "멋지다": 5620,
      "죽다": 5621,
      "##직하다": 5622,
      "음악": 5623,
      "늘다": 5624,
      "인가": 5625,
      "유치하다": 5626,
      "인지": 5627,
      "크다": 5628,
      "하지만": 5629,
      "쓰다": 5630,
      "일본": 5631,
      "##미디": 5632,
      "솔직하다": 5633,
      "추천": 5634,
      "원작": 5635,
      "실망": 5636,
      "살다": 5637,
      "아직": 5638,
      "모든": 5639,
      "##롭다": 5640,
      "자체": 5641,
      "##내다": 5642,
      "내다": 5643,
      "극장": 5644,
      "캐릭": 5645,
      "야하다": 5646,
      "재밋": 5647,
      "허다": 5648,
      "지만": 5649,
      "이제": 5650,
      "대박": 5651,
      "찍다": 5652,
      "코미디": 5653,
      "##추다": 5654,
      "캐릭터": 5655,
      "모두": 5656,
      "처럼": 5657,
      "개봉": 5658,
      "ㅋㅋㅋㅋ": 5659,
      "가족": 5660,
      "건지다": 5661,
      "뭔가": 5662,
      "지다": 5663,
      "보이다": 5664,
      "연기력": 5665,
      "엄청": 5666,
      "짜증나다": 5667,
      "억지": 5668,
      "돼다": 5669,
      "이쁘다": 5670,
      "그래도": 5671,
      "시리": 5672,
      "기대하다": 5673,
      "모습": 5674,
      "여운": 5675,
      "전혀": 5676,
      "아주": 5677,
      "미치다": 5678,
      "이네": 5679,
      "ㅜㅜ": 5680,
      "중간": 5681,
      "시리즈": 5682,
      "계속": 5683,
      "긴장": 5684,
      "표현": 5685,
      "공감": 5686,
      "근데": 5687,
      "##ㅋㅋㅋㅋㅋㅋㅋㅋ": 5688,
      "##당하다": 5689,
      "영상": 5690,
      "부분": 5691,
      "에는": 5692,
      "##0년": 5693,
      "기다": 5694,
      "치다": 5695,
      "##단하다": 5696,
      "##스터": 5697,
      "이랑": 5698,
      "시키다": 5699,
      "제목": 5700,
      "진심": 5701,
      "밖에": 5702,
      "내내": 5703,
      "보지": 5704,
      "##잔하다": 5705,
      "##ㅠㅠ": 5706,
      "귀엽": 5707,
      "기분": 5708,
      "대사": 5709,
      "귀엽다": 5710,
      "어이": 5711,
      "대단하다": 5712,
      "믿다": 5713,
      "흥미": 5714,
      "스릴러": 5715,
      "작가": 5716,
      "어디": 5717,
      "막장": 5718,
      "##히다": 5719,
      "잔잔하다": 5720,
      "떨어지다": 5721,
      "이지": 5722,
      "이라는": 5723,
      "정신": 5724,
      "요즘": 5725,
      "##쾌하다": 5726,
      "조금": 5727,
      "알바": 5728,
      "점도": 5729,
      "부족": 5730,
      "##메이": 5731,
      "##어나다": 5732,
      "웃다": 5733,
      "빠지다": 5734,
      "##겁다": 5735,
      "긴장감": 5736,
      "개인": 5737,
      "짜다": 5738,
      "##스트": 5739,
      "노래": 5740,
      "이유": 5741,
      "##나라": 5742,
      "특히": 5743,
      "오랜": 5744,
      "이상하다": 5745,
      "울다": 5746,
      "한테": 5747,
      "노잼": 5748,
      "깊다": 5749,
      "나름": 5750,
      "시작": 5751,
      "##라리": 5752,
      "제대로": 5753,
      "이란": 5754,
      "점수": 5755,
      "잇다": 5756,
      "미국": 5757,
      "차라리": 5758,
      "예쁘다": 5759,
      "##뜻하다": 5760,
      "친구": 5761,
      "느껴": 5762,
      "느껴지다": 5763,
      "에도": 5764,
      "제일": 5765,
      "의미": 5766,
      "따뜻하다": 5767,
      "당시": 5768,
      "해보다": 5769,
      "출연": 5770,
      "어설": 5771,
      "이라고": 5772,
      "영화로": 5773,
      "어설프다": 5774,
      "훌륭": 5775,
      "##리오": 5776,
      "빼다": 5777,
      "만화": 5778,
      "##만하다": 5779,
      "로맨": 5780,
      "같이": 5781,
      "스타": 5782,
      "세상": 5783,
      "절대": 5784,
      "훌륭하다": 5785,
      "cg": 5786,
      "공포영화": 5787,
      "아직도": 5788,
      "너무나": 5789,
      "웃음": 5790,
      "찾다": 5791,
      "감정": 5792,
      "위해": 5793,
      "답답": 5794,
      "##oo": 5795,
      "대다": 5796,
      "무엇": 5797,
      "시청": 5798,
      "도대": 5799,
      "도대체": 5800,
      "장난": 5801,
      "마다": 5802,
      "생각나다": 5803,
      "##분하다": 5804,
      "우리나라": 5805,
      "써다": 5806,
      "##선하다": 5807,
      "설정": 5808,
      "관객": 5809,
      "그리다": 5810,
      "다르다": 5811,
      "얼마": 5812,
      "행복": 5813,
      "그런": 5814,
      "##st": 5815,
      "제작": 5816,
      "tv": 5817,
      "들어": 5818,
      "시나": 5819,
      "##00": 5820,
      "##리스": 5821,
      "배경": 5822,
      "다큐": 5823,
      "초반": 5824,
      "수작": 5825,
      "전쟁": 5826,
      "싫다": 5827,
      "##으로": 5828,
      "시나리오": 5829,
      "엔딩": 5830,
      "어색": 5831,
      "놓다": 5832,
      "만큼": 5833,
      "시대": 5834,
      "아프다": 5835,
      "힘들다": 5836,
      "죽이다": 5837,
      "자신": 5838,
      "필요없다": 5839,
      "사실": 5840,
      "소름": 5841,
      "따다": 5842,
      "신선하다": 5843,
      "가지": 5844,
      "##위기": 5845,
      "##거리": 5846,
      "한국영": 5847,
      "답답하다": 5848,
      "오늘": 5849,
      "ooo": 5850,
      "분위기": 5851,
      "추억": 5852,
      "##스팅": 5853,
      "소리": 5854,
      "킬링": 5855,
      "##타임": 5856,
      "나쁘다": 5857,
      "멋있다": 5858,
      "최고다": 5859,
      "졸작": 5860,
      "지루함": 5861,
      "언제": 5862,
      "결국": 5863,
      "더럽다": 5864,
      "역사": 5865,
      "이딴": 5866,
      "##겹다": 5867,
      "안타": 5868,
      "##아가다": 5869,
      "문제": 5870,
      "스럽다": 5871,
      "제발": 5872,
      "부족하다": 5873,
      "인상": 5874,
      "프로": 5875,
      "완벽": 5876,
      "영화관": 5877,
      "어이없다": 5878,
      "안타깝다": 5879,
      "엄마": 5880,
      "더빙": 5881,
      "라면": 5882,
      "이지만": 5883,
      "평가": 5884,
      "잊다": 5885,
      "니까": 5886,
      "후회": 5887,
      "서다": 5888,
      "코믹": 5889,
      "아무리": 5890,
      "포스터": 5891,
      "##부하다": 5892,
      "##배우": 5893,
      "멀다": 5894,
      "##같다": 5895,
      "구성": 5896,
      "예술": 5897,
      "##서다": 5898,
      "그저": 5899,
      "어색하다": 5900,
      "대해": 5901,
      "캐스팅": 5902,
      "애니메이": 5903,
      "함께": 5904,
      "낫다": 5905,
      "애니메이션": 5906,
      "갈수": 5907,
      "얼마나": 5908,
      "그렇게": 5909,
      "킬링타임": 5910,
      "진정": 5911,
      "배우다": 5912,
      "강추": 5913,
      "적다": 5914,
      "나가다": 5915,
      "##디오": 5916,
      "##실하다": 5917,
      "망하다": 5918,
      "##장하다": 5919,
      "오래": 5920,
      "머리": 5921,
      "개연": 5922,
      "살리다": 5923,
      "티비": 5924,
      "쓸다": 5925,
      "충격": 5926,
      "진부하다": 5927,
      "ㅉㅉ": 5928,
      "두다": 5929,
      "갈수록": 5930,
      "어울": 5931,
      "얘기": 5932,
      "이름": 5933,
      "몰입도": 5934,
      "비다": 5935,
      "옛날": 5936,
      "##아보다": 5937,
      "##소리": 5938,
      "완벽하다": 5939,
      "여기": 5940,
      "여러": 5941,
      "놀라다": 5942,
      "##연기": 5943,
      "얼굴": 5944,
      "다운": 5945,
      "##심하다": 5946,
      "건가": 5947,
      "주제": 5948,
      "유쾌하다": 5949,
      "궁금": 5950,
      "기도": 5951,
      "보단": 5952,
      "영화인": 5953,
      "불쌍": 5954,
      "##시간": 5955,
      "행복하다": 5956,
      "잔인": 5957,
      "낭비": 5958,
      "어느": 5959,
      "어울리다": 5960,
      "읽다": 5961,
      "중국": 5962,
      "후반": 5963,
      "그나": 5964,
      "장르": 5965,
      "그만": 5966,
      "이후": 5967,
      "웃기": 5968,
      "즐겁다": 5969,
      "##렵다": 5970,
      "그래서": 5971,
      "매우": 5972,
      "집중": 5973,
      "주연": 5974,
      "비슷": 5975,
      "상황": 5976,
      "들이다": 5977,
      "이리": 5978,
      "ost": 5979,
      "순수": 5980,
      "방송": 5981,
      "ㅎㅎㅎ": 5982,
      "누구": 5983,
      "새롭다": 5984,
      "상상": 5985,
      "19": 5986,
      "충분하다": 5987,
      "그것": 5988,
      "그러": 5989,
      "나이": 5990,
      "##버지": 5991,
      "걸작": 5992,
      "존나": 5993,
      "시즌": 5994,
      "자기": 5995,
      "감사": 5996,
      "##이버": 5997,
      "동안": 5998,
      "다음": 5999,
      "밉다": 6000,
      "분들": 6001,
      "말고": 6002,
      "대체": 6003,
      "만들": 6004,
      "비디오": 6005,
      "심하다": 6006,
      "불쌍하다": 6007,
      "만으로": 6008,
      "해도": 6009,
      "생기다": 6010,
      "한마": 6011,
      "##거리다": 6012,
      "로맨스": 6013,
      "실화": 6014,
      "약간": 6015,
      "궁금하다": 6016,
      "인물": 6017,
      "한마디": 6018,
      "##루다": 6019,
      "그나마": 6020,
      "ㅋㅋㅋㅋㅋ": 6021,
      "훨씬": 6022,
      "예전": 6023,
      "누가": 6024,
      "시절": 6025,
      "비슷하다": 6026,
      "사회": 6027,
      "전체": 6028,
      "그대로": 6029,
      "비교": 6030,
      "아들": 6031,
      "어렵다": 6032,
      "##꾸다": 6033,
      "드리다": 6034,
      "만점": 6035,
      "초딩": 6036,
      "발연기": 6037,
      "쉬다": 6038,
      "필요하다": 6039,
      "네이버": 6040,
      "##타지": 6041,
      "상당하다": 6042,
      "소설": 6043,
      "순수하다": 6044,
      "굳다": 6045,
      "만나다": 6046,
      "감성": 6047,
      "남기다": 6048,
      "간만": 6049,
      "굉장하다": 6050,
      "떠나다": 6051,
      "라도": 6052,
      "마이": 6053,
      "따르다": 6054,
      "잔인하다": 6055,
      "다가": 6056,
      "바로": 6057,
      "타다": 6058,
      "혼자": 6059,
      "ㄷㄷ": 6060,
      "거지": 6061,
      "단순": 6062,
      "200": 6063,
      "이미": 6064,
      "편이": 6065,
      "##자기": 6066,
      "여배우": 6067,
      "나라": 6068,
      "세계": 6069,
      "##0분": 6070,
      "이르다": 6071,
      "여주": 6072,
      "당하다": 6073,
      "##레이": 6074,
      "돌리다": 6075,
      "화려": 6076,
      "##절하다": 6077,
      "등장": 6078,
      "치고": 6079,
      "성룡": 6080,
      "오글": 6081,
      "##ood": 6082,
      "케이": 6083,
      "개그": 6084,
      "에요": 6085,
      "보다는": 6086,
      "목소리": 6087,
      "삼류": 6088,
      "멜로": 6089,
      "사랑스럽다": 6090,
      "화려하다": 6091,
      "돋다": 6092,
      "빨리": 6093,
      "라이": 6094,
      "평론": 6095,
      "터지다": 6096,
      "##안하다": 6097,
      "이하": 6098,
      "엄청나다": 6099,
      "교훈": 6100,
      "판타지": 6101,
      "이라도": 6102,
      "당신": 6103,
      "잡다": 6104,
      "순간": 6105,
      "사이": 6106,
      "감사하다": 6107,
      "바라다": 6108,
      "지나": 6109,
      "허무": 6110,
      "##등학": 6111,
      "풀다": 6112,
      "##원하다": 6113,
      "존재": 6114,
      "안보": 6115,
      "독특": 6116,
      "good": 6117,
      "가치": 6118,
      "진정하다": 6119,
      "##상하다": 6120,
      "거의": 6121,
      "질질": 6122,
      "각본": 6123,
      "몇번": 6124,
      "##er": 6125,
      "##잡하다": 6126,
      "100": 6127,
      "보이": 6128,
      "라니": 6129,
      "전부": 6130,
      "가볍": 6131,
      "더욱": 6132,
      "지나다": 6133,
      "가볍다": 6134,
      "독특하다": 6135,
      "점주": 6136,
      "좀비": 6137,
      "담다": 6138,
      "아버지": 6139,
      "어른": 6140,
      "살인": 6141,
      "##드다": 6142,
      "성하다": 6143,
      "##머니": 6144,
      "실제": 6145,
      "줄거리": 6146,
      "맞추다": 6147,
      "만하": 6148,
      "망치다": 6149,
      "화이": 6150,
      "평론가": 6151,
      "201": 6152,
      "sf": 6153,
      "에선": 6154,
      "##는데": 6155,
      "시청률": 6156,
      "관람": 6157,
      "상영": 6158,
      "힘드다": 6159,
      "##요하다": 6160,
      "흥미롭다": 6161,
      "뜨다": 6162,
      "ㅋㅋㅋㅋㅋㅋㅋㅋㅋㅋㅋ": 6163,
      "기다리다": 6164,
      "그러나": 6165,
      "이번": 6166,
      "저런": 6167,
      "어쩌": 6168,
      "으로도": 6169,
      "넘치다": 6170,
      "복수": 6171,
      "##명하다": 6172,
      "대로": 6173,
      "우연": 6174,
      "의도": 6175,
      "갑자기": 6176,
      "넣다": 6177,
      "극장판": 6178,
      "ㅋㅋㅋㅋㅋㅋㅋ": 6179,
      "자연": 6180,
      "10년": 6181,
      "##♥♥": 6182,
      "바꾸다": 6183,
      "##없이": 6184,
      "간다": 6185,
      "달다": 6186,
      "화면": 6187,
      "오글거리다": 6188,
      "이기다": 6189,
      "보내다": 6190,
      "주기": 6191,
      "##끄럽다": 6192,
      "어린": 6193,
      "그녀": 6194,
      "볼때": 6195,
      "한편": 6196,
      "너무하다": 6197,
      "그때": 6198,
      "성우": 6199,
      "항상": 6200,
      "요소": 6201,
      "프랑": 6202,
      "에서도": 6203,
      "만들어지다": 6204,
      "선택": 6205,
      "예고": 6206,
      "라서": 6207,
      "단순하다": 6208,
      "아빠": 6209,
      "에로": 6210,
      "흥행": 6211,
      "스타일": 6212,
      "불편": 6213,
      "탄탄": 6214,
      "평범": 6215,
      "댓글": 6216,
      "들어가다": 6217,
      "가능": 6218,
      "##대하다": 6219,
      "올리다": 6220,
      "이래": 6221,
      "진행": 6222,
      "##먹다": 6223,
      "에서는": 6224,
      "갖다": 6225,
      "거기": 6226,
      "만족": 6227,
      "꿀잼": 6228,
      "일단": 6229,
      "크리스": 6230,
      "##보이다": 6231,
      "##전하다": 6232,
      "끼다": 6233,
      "부르다": 6234,
      "참고": 6235,
      "##울하다": 6236,
      "듣다": 6237,
      "스럽": 6238,
      "이에": 6239,
      "이에요": 6240,
      "점점": 6241,
      "프랑스": 6242,
      "확실하다": 6243,
      "흐르다": 6244,
      "또한": 6245,
      "ㅠㅠㅠ": 6246,
      "억지스럽다": 6247,
      "어디서": 6248,
      "역대": 6249,
      "불편하다": 6250,
      "리얼": 6251,
      "인거": 6252,
      "이기": 6253,
      "걸리다": 6254,
      "이냐": 6255,
      "##중하다": 6256,
      "범죄": 6257,
      "즐기다": 6258,
      "편집": 6259,
      "완성": 6260,
      "잃다": 6261,
      "상미": 6262,
      "예상": 6263,
      "##라지다": 6264,
      "물론": 6265,
      "사건": 6266,
      "수가": 6267,
      "가보다": 6268,
      "그림": 6269,
      "메다": 6270,
      "탄탄하다": 6271,
      "##가지": 6272,
      "##혀지다": 6273,
      "##ㅠㅠㅠㅠ": 6274,
      "똑같다": 6275,
      "조차": 6276,
      "돋보이다": 6277,
      "병맛": 6278,
      "카메": 6279,
      "에겐": 6280,
      "화이팅": 6281,
      "관계": 6282,
      "여서": 6283,
      "학교": 6284,
      "감상": 6285,
      "때리다": 6286,
      "엉망": 6287,
      "중요하다": 6288,
      "평범하다": 6289,
      "짧다": 6290,
      "만이": 6291,
      "만에": 6292,
      "어쩔": 6293,
      "자꾸": 6294,
      "결혼": 6295,
      "뛰어나다": 6296,
      "전형": 6297,
      "찾아보다": 6298,
      "타임": 6299,
      "걸다": 6300,
      "허무하다": 6301,
      "홍콩": 6302,
      "훈훈": 6303,
      "그게": 6304,
      "화보": 6305,
      "미화": 6306,
      "심리": 6307,
      "자극": 6308,
      "중반": 6309,
      "지겹다": 6310,
      "바람": 6311,
      "영웅": 6312,
      "원래": 6313,
      "적당하다": 6314,
      "##지하다": 6315,
      "가지다": 6316,
      "빠져": 6317,
      "싸우다": 6318,
      "##라이": 6319,
      "헐리": 6320,
      "마르다": 6321,
      "새끼": 6322,
      "죽음": 6323,
      "그래픽": 6324,
      "갈다": 6325,
      "무조": 6326,
      "뭐라다": 6327,
      "식상하다": 6328,
      "주의": 6329,
      "불륜": 6330,
      "비추다": 6331,
      "일이": 6332,
      "바보": 6333,
      "잘만": 6334,
      "취향": 6335,
      "헐다": 6336,
      "12": 6337,
      "액션영화": 6338,
      "과거": 6339,
      "노력": 6340,
      "##무리": 6341,
      "연기자": 6342,
      "예고편": 6343,
      "훈훈하다": 6344,
      "게임": 6345,
      "##진진": 6346,
      "흥미진진": 6347,
      "괜히": 6348,
      "참신": 6349,
      "##리티": 6350,
      "이라니": 6351,
      "천재": 6352,
      "나르다": 6353,
      "화가": 6354,
      "##민국": 6355,
      "나서다": 6356,
      "불가": 6357,
      "거리": 6358,
      "경찰": 6359,
      "마무리": 6360,
      "설명": 6361,
      "독립": 6362,
      "대한민국": 6363,
      "만으로도": 6364,
      "무조건": 6365,
      "다루다": 6366,
      "닿다": 6367,
      "##다가": 6368,
      "속편": 6369,
      "도저": 6370,
      "소중하다": 6371,
      "도저히": 6372,
      "역겹다": 6373,
      "##시하다": 6374,
      "멍청": 6375,
      "전달": 6376,
      "##라가다": 6377,
      "강하다": 6378,
      "소녀": 6379,
      "왠만하다": 6380,
      "한다": 6381,
      "##히려": 6382,
      "th": 6383,
      "오히려": 6384,
      "90년": 6385,
      "한심하다": 6386,
      "로맨틱": 6387,
      "동화": 6388,
      "아저": 6389,
      "전설": 6390,
      "짱짱": 6391,
      "촬영": 6392,
      "대작": 6393,
      "아저씨": 6394,
      "유머": 6395,
      "전편": 6396,
      "억지로": 6397,
      "길다": 6398,
      "노출": 6399,
      "우연히": 6400,
      "영환": 6401,
      "하하": 6402,
      "희망": 6403,
      "귀신": 6404,
      "미안하다": 6405,
      "표정": 6406,
      "한다는": 6407,
      "최근": 6408,
      "환상": 6409,
      "##세지": 6410,
      "신기": 6411,
      "오빠": 6412,
      "15": 6413,
      "레이": 6414,
      "불다": 6415,
      "기억나다": 6416,
      "개다": 6417,
      "그닥": 6418,
      "다니다": 6419,
      "부모": 6420,
      "##bs": 6421,
      "메세지": 6422,
      "잊혀지다": 6423,
      "아오": 6424,
      "##in": 6425,
      "참신하다": 6426,
      "다행": 6427,
      "돌아가다": 6428,
      "잘생": 6429,
      "진지하다": 6430,
      "##우드": 6431,
      "무비": 6432,
      "흘리다": 6433,
      "##아오다": 6434,
      "이정": 6435,
      "실망하다": 6436,
      "스케": 6437,
      "행동": 6438,
      "##파이": 6439,
      "아마": 6440,
      "진실": 6441,
      "관심": 6442,
      "먼저": 6443,
      "청춘": 6444,
      "현재": 6445,
      "전작": 6446,
      "여전하다": 6447,
      "인정": 6448,
      "프로그": 6449,
      "2시간": 6450,
      "아쉬": 6451,
      "빠져들다": 6452,
      "프로그램": 6453,
      "드럽다": 6454,
      "만의": 6455,
      "묘사": 6456,
      "초등학": 6457,
      "예요": 6458,
      "뜬금": 6459,
      "실패": 6460,
      "ㅇㅇ": 6461,
      "조연": 6462,
      "효과": 6463,
      "리메이": 6464,
      "잘생기다": 6465,
      "가득": 6466,
      "설레": 6467,
      "스러": 6468,
      "통해": 6469,
      "아쉬움": 6470,
      "리메이크": 6471,
      "망작": 6472,
      "서로": 6473,
      "스러운": 6474,
      "이따": 6475,
      "해피": 6476,
      "넘어": 6477,
      "80년": 6478,
      "영원하다": 6479,
      "작다": 6480,
      "덥다": 6481,
      "역할": 6482,
      "그런데": 6483,
      "끌다": 6484,
      "나중": 6485,
      "예산": 6486,
      "##오르다": 6487,
      "##연하다": 6488,
      "사다": 6489,
      "사라지다": 6490,
      "자유": 6491,
      "졸라": 6492,
      "지난": 6493,
      "철학": 6494,
      "겁나다": 6495,
      "마치": 6496,
      "틀다": 6497,
      "마저": 6498,
      "이며": 6499,
      "쩔다": 6500,
      "흔하다": 6501,
      "제작비": 6502,
      "카메라": 6503,
      "멍청하다": 6504,
      "능력": 6505,
      "약하다": 6506,
      "이니": 6507,
      "채널": 6508,
      "##놓다": 6509,
      "안나": 6510,
      "가능하다": 6511,
      "미래": 6512,
      "반개": 6513,
      "착하다": 6514,
      "특유": 6515,
      "가끔": 6516,
      "러브": 6517,
      "여성": 6518,
      "살아가다": 6519,
      "과정": 6520,
      "깊이": 6521,
      "누군": 6522,
      "빌리다": 6523,
      "선생": 6524,
      "쏘다": 6525,
      "호러": 6526,
      "어찌": 6527,
      "피해": 6528,
      "##시절": 6529,
      "##터리": 6530,
      "바뀌": 6531,
      "이연": 6532,
      "인하다": 6533,
      "##시다": 6534,
      "바뀌다": 6535,
      "ㅅㅂ": 6536,
      "게이": 6537,
      "나머": 6538,
      "외국": 6539,
      "전문": 6540,
      "##다르다": 6541,
      "너무나도": 6542,
      "정치": 6543,
      "다시다": 6544,
      "케이블": 6545,
      "독립영화": 6546,
      "다만": 6547,
      "범인": 6548,
      "형님": 6549,
      "지나치다": 6550,
      "런가": 6551,
      "졸리다": 6552,
      "황당하다": 6553,
      "묻다": 6554,
      "미소": 6555,
      "싸이": 6556,
      "메이": 6557,
      "성공": 6558,
      "태어나다": 6559,
      "기세": 6560,
      "왠지": 6561,
      "##세하다": 6562,
      "어린이": 6563,
      "군대": 6564,
      "데이": 6565,
      "스케일": 6566,
      "이면": 6567,
      "굿굿": 6568,
      "생애": 6569,
      "성인": 6570,
      "하루": 6571,
      "신기하다": 6572,
      "고생": 6573,
      "다소": 6574,
      "메시": 6575,
      "스트": 6576,
      "용도": 6577,
      "잘못": 6578,
      "젊다": 6579,
      "##일하다": 6580,
      "##쓸하다": 6581,
      "깔다": 6582,
      "대안": 6583,
      "문화": 6584,
      "위대하다": 6585,
      "상상력": 6586,
      "대부": 6587,
      "로는": 6588,
      "설레다": 6589,
      "겠다": 6590,
      "산만하다": 6591,
      "##좋다": 6592,
      "되게": 6593,
      "##디어": 6594,
      "##ㅜㅜ": 6595,
      "평생": 6596,
      "##ㄷㄷ": 6597,
      "##4년": 6598,
      "별루": 6599,
      "지도": 6600,
      "안다": 6601,
      "연애": 6602,
      "자막": 6603,
      "졸다": 6604,
      "찌다": 6605,
      "##소하다": 6606,
      "괴물": 6607,
      "미스": 6608,
      "감탄": 6609,
      "고민": 6610,
      "늙다": 6611,
      "대의": 6612,
      "원하다": 6613,
      "메시지": 6614,
      "고맙": 6615,
      "대가": 6616,
      "시도": 6617,
      "얻다": 6618,
      "고맙다": 6619,
      "리뷰": 6620,
      "박수": 6621,
      "결론": 6622,
      "차이": 6623,
      "수도": 6624,
      "종교": 6625,
      "추다": 6626,
      "커플": 6627,
      "##vd": 6628,
      "dvd": 6629,
      "광고": 6630,
      "던지다": 6631,
      "의외": 6632,
      "지키다": 6633,
      "##or": 6634,
      "##아지다": 6635,
      "변하다": 6636,
      "의리": 6637,
      "포장": 6638,
      "##동안": 6639,
      "손발": 6640,
      "일상": 6641,
      "굳이": 6642,
      "사극": 6643,
      "슬픔": 6644,
      "시사": 6645,
      "아침": 6646,
      "뮤지": 6647,
      "인기": 6648,
      "으로는": 6649,
      "11": 6650,
      "발견": 6651,
      "보시": 6652,
      "##나오다": 6653,
      "대충": 6654,
      "로서": 6655,
      "오락": 6656,
      "과연": 6657,
      "국민": 6658,
      "동물": 6659,
      "빠르다": 6660,
      "슈퍼": 6661,
      "용이": 6662,
      "조폭": 6663,
      "##련하다": 6664,
      "끝내": 6665,
      "는걸": 6666,
      "저렇게": 6667,
      "한계": 6668,
      "흐름": 6669,
      "##레스": 6670,
      "동생": 6671,
      "보라": 6672,
      "스포": 6673,
      "폭력": 6674,
      "언니": 6675,
      "연예": 6676,
      "홍보": 6677,
      "##리아": 6678,
      "남아": 6679,
      "떠오르다": 6680,
      "살짝": 6681,
      "쩐다": 6682,
      "참다": 6683,
      "눈물나다": 6684,
      "개판": 6685,
      "글쎄": 6686,
      "상처": 6687,
      "시청자": 6688,
      "에이": 6689,
      "낚였": 6690,
      "성도": 6691,
      "정서": 6692,
      "특별": 6693,
      "흘러": 6694,
      "희다": 6695,
      "ㅠㅠㅠㅠ": 6696,
      "싸이코": 6697,
      "개도": 6698,
      "무협": 6699,
      "심심하다": 6700,
      "용서": 6701,
      "유명하다": 6702,
      "결과": 6703,
      "몸매": 6704,
      "볼거리": 6705,
      "분노": 6706,
      "섹스": 6707,
      "우울하다": 6708,
      "열심": 6709,
      "챙기다": 6710,
      "평이": 6711,
      "뮤지컬": 6712,
      "끼리": 6713,
      "뛰다": 6714,
      "이구": 6715,
      "그럭": 6716,
      "나타": 6717,
      "덕분": 6718,
      "사기": 6719,
      "어떤": 6720,
      "오그": 6721,
      "모자": 6722,
      "블랙": 6723,
      "싫어": 6724,
      "유일하다": 6725,
      "일어나다": 6726,
      "지르다": 6727,
      "표절": 6728,
      "힐링": 6729,
      "##갑다": 6730,
      "싫어하다": 6731,
      "30분": 6732,
      "시선": 6733,
      "울리다": 6734,
      "##엔딩": 6735,
      "##드라마": 6736,
      "##저럭": 6737,
      "##끔하다": 6738,
      "스럽게": 6739,
      "그럭저럭": 6740,
      "이자": 6741,
      "##렬하다": 6742,
      "열심히": 6743,
      "30": 6744,
      "거짓": 6745,
      "눈빛": 6746,
      "##물다": 6747,
      "노답": 6748,
      "우정": 6749,
      "포기": 6750,
      "##소년": 6751,
      "##같이": 6752,
      "정말로": 6753,
      "소름끼": 6754,
      "the": 6755,
      "그다": 6756,
      "남녀": 6757,
      "리즈": 6758,
      "무시": 6759,
      "퀄리티": 6760,
      "20년": 6761,
      "소름끼치다": 6762,
      "깔끔하다": 6763,
      "벗다": 6764,
      "비극": 6765,
      "실감": 6766,
      "접다": 6767,
      "##ㅎㅎ": 6768,
      "반성": 6769,
      "어제": 6770,
      "##인물": 6771,
      "기대다": 6772,
      "난해": 6773,
      "안좋다": 6774,
      "오버": 6775,
      "코드": 6776,
      "담기다": 6777,
      "에서의": 6778,
      "10분": 6779,
      "등장인물": 6780,
      "해피엔딩": 6781,
      "쓰래": 6782,
      "와는": 6783,
      "자식": 6784,
      "크게": 6785,
      "테러": 6786,
      "##니아": 6787,
      "남편": 6788,
      "내리다": 6789,
      "더하다": 6790,
      "북한": 6791,
      "혹시": 6792,
      "당연하다": 6793,
      "싸다": 6794,
      "짓다": 6795,
      "##닫다": 6796,
      "감다": 6797,
      "막판": 6798,
      "말로": 6799,
      "의심": 6800,
      "펑펑": 6801,
      "##ou": 6802,
      "##와르": 6803,
      "보다도": 6804,
      "나머지": 6805,
      "공부": 6806,
      "드림": 6807,
      "무겁다": 6808,
      "끝내다": 6809,
      "보아": 6810,
      "이어지다": 6811,
      "희생": 6812,
      "그린": 6813,
      "라지": 6814,
      "부끄럽다": 6815,
      "색다르다": 6816,
      "쓸데": 6817,
      "지구": 6818,
      "##an": 6819,
      "##시아": 6820,
      "이연걸": 6821,
      "##즈니": 6822,
      "##려지다": 6823,
      "특별하다": 6824,
      "18": 6825,
      "심각": 6826,
      "##이스": 6827,
      "가면": 6828,
      "느리다": 6829,
      "악역": 6830,
      "악당": 6831,
      "인터": 6832,
      "##구려": 6833,
      "##러지다": 6834,
      "##ㅋㅋㅋㅋㅋㅋㅋㅋㅋㅋㅋㅋㅋㅋㅋㅋ": 6835,
      "들어오다": 6836,
      "난해하다": 6837,
      "감명": 6838,
      "느와르": 6839,
      "아련하다": 6840,
      "제로": 6841,
      "형편": 6842,
      "##멘터리": 6843,
      "게다가": 6844,
      "몰다": 6845,
      "스티": 6846,
      "재난": 6847,
      "##5년": 6848,
      "벌써": 6849,
      "비주": 6850,
      "암튼": 6851,
      "으론": 6852,
      "입장": 6853,
      "전투": 6854,
      "##성애": 6855,
      "까지는": 6856,
      "다큐멘터리": 6857,
      "기술": 6858,
      "바라": 6859,
      "세다": 6860,
      "의문": 6861,
      "청소년": 6862,
      "으로서": 6863,
      "에게는": 6864,
      "그걸": 6865,
      "누나": 6866,
      "세기": 6867,
      "떼다": 6868,
      "발전": 6869,
      "불구": 6870,
      "새벽": 6871,
      "에만": 6872,
      "우주": 6873,
      "하이": 6874,
      "고전": 6875,
      "기본": 6876,
      "김기": 6877,
      "날다": 6878,
      "디즈니": 6879,
      "소장": 6880,
      "여행": 6881,
      "투자": 6882,
      "이라서": 6883,
      "기적": 6884,
      "달라": 6885,
      "싸움": 6886,
      "올해": 6887,
      "적절하다": 6888,
      "##어로": 6889,
      "아이돌": 6890,
      "그다지": 6891,
      "까진": 6892,
      "니콜": 6893,
      "본방": 6894,
      "싸구려": 6895,
      "오랫": 6896,
      "일부": 6897,
      "##라스": 6898,
      "라인": 6899,
      "왜케": 6900,
      "채우다": 6901,
      "편의": 6902,
      "##라들다": 6903,
      "인가요": 6904,
      "따위": 6905,
      "빛나다": 6906,
      "외계": 6907,
      "좀더": 6908,
      "완전하다": 6909,
      "연예인": 6910,
      "♥♥♥": 6911,
      "반복": 6912,
      "스크": 6913,
      "그렇다고": 6914,
      "러닝": 6915,
      "연결": 6916,
      "열정": 6917,
      "중학": 6918,
      "오그라들다": 6919,
      "딱하다": 6920,
      "방식": 6921,
      "베스트": 6922,
      "시각": 6923,
      "찡하다": 6924,
      "촌스럽다": 6925,
      "풋풋": 6926,
      "##묘하다": 6927,
      "시사회": 6928,
      "과는": 6929,
      "대화": 6930,
      "불쾌하다": 6931,
      "소소하다": 6932,
      "에피": 6933,
      "연속": 6934,
      "##마스": 6935,
      "##사랑": 6936,
      "언제나": 6937,
      "헐리우드": 6938,
      "선생님": 6939,
      "00": 6940,
      "놓치다": 6941,
      "미드": 6942,
      "빡치다": 6943,
      "성장": 6944,
      "아줌": 6945,
      "##망하다": 6946,
      "까지도": 6947,
      "흘러가다": 6948,
      "아줌마": 6949,
      "강렬하다": 6950,
      "맡다": 6951,
      "##너스": 6952,
      "이제야": 6953,
      "맨날": 6954,
      "실력": 6955,
      "어머니": 6956,
      "화나다": 6957,
      "풋풋하다": 6958,
      "돌다": 6959,
      "로그": 6960,
      "##차다": 6961,
      "본인": 6962,
      "아기": 6963,
      "아픔": 6964,
      "이루다": 6965,
      "특수": 6966,
      "##약하다": 6967,
      "전문가": 6968,
      "검색": 6969,
      "깨닫다": 6970,
      "닮다": 6971,
      "씁쓸하다": 6972,
      "으리": 6973,
      "제이": 6974,
      "##주의": 6975,
      "##란하다": 6976,
      "재밋다": 6977,
      "ㅋㅋㅋㅋㅋㅋ": 6978,
      "견자": 6979,
      "기르다": 6980,
      "무언": 6981,
      "방금": 6982,
      "시트": 6983,
      "심장": 6984,
      "외모": 6985,
      "존경": 6986,
      "##인트": 6987,
      "##이터": 6988,
      "주기도": 6989,
      "심각하다": 6990,
      "13": 6991,
      "과의": 6992,
      "깨다": 6993,
      "최소": 6994,
      "필름": 6995,
      "한국인": 6996,
      "1시간": 6997,
      "고등학": 6998,
      "뭉클": 6999,
      "어휴": 7000,
      "조절": 7001,
      "죄다": 7002,
      "주변": 7003,
      "학생": 7004,
      "대표": 7005,
      "방법": 7006,
      "아역": 7007,
      "이든": 7008,
      "쵝오": 7009,
      "통쾌하다": 7010,
      "해석": 7011,
      "##ad": 7012,
      "갈등": 7013,
      "단지": 7014,
      "섬세하다": 7015,
      "애기": 7016,
      "입다": 7017,
      "진리": 7018,
      "질리": 7019,
      "캐리": 7020,
      "이미지": 7021,
      "누군가": 7022,
      "견자단": 7023,
      "낳다": 7024,
      "드러": 7025,
      "때우다": 7026,
      "스스": 7027,
      "짝퉁": 7028,
      "최강": 7029,
      "해내다": 7030,
      "형사": 7031,
      "히어로": 7032,
      "##on": 7033,
      "오래되다": 7034,
      "시트콤": 7035,
      "늦다": 7036,
      "뛰어": 7037,
      "비판": 7038,
      "이어": 7039,
      "인도": 7040,
      "해리": 7041,
      "고통": 7042,
      "극치": 7043,
      "꾸다": 7044,
      "로만": 7045,
      "무지": 7046,
      "뽑다": 7047,
      "상업": 7048,
      "신경": 7049,
      "조잡하다": 7050,
      "짠하다": 7051,
      "##구니": 7052,
      "##불다": 7053,
      "##독교": 7054,
      "돌아오다": 7055,
      "밋밋": 7056,
      "양심": 7057,
      "이보": 7058,
      "점준": 7059,
      "허세": 7060,
      "##소드": 7061,
      "##려오다": 7062,
      "김기덕": 7063,
      "그거": 7064,
      "대학": 7065,
      "로봇": 7066,
      "세월": 7067,
      "유발": 7068,
      "##쓰다": 7069,
      "##끌다": 7070,
      "막히다": 7071,
      "명품": 7072,
      "지는": 7073,
      "##이하다": 7074,
      "##숙하다": 7075,
      "에피소드": 7076,
      "스스로": 7077,
      "거슬": 7078,
      "겨울": 7079,
      "국내": 7080,
      "따라가다": 7081,
      "로버": 7082,
      "생활": 7083,
      "후속": 7084,
      "##ar": 7085,
      "##at": 7086,
      "##아먹다": 7087,
      "대부분": 7088,
      "21": 7089,
      "다양": 7090,
      "조합": 7091,
      "##가락": 7092,
      "##잡다": 7093,
      "좋아지다": 7094,
      "재밋어": 7095,
      "다가오다": 7096,
      "가요": 7097,
      "경험": 7098,
      "신나다": 7099,
      "주말": 7100,
      "편하다": 7101,
      "##라도": 7102,
      "피해자": 7103,
      "be": 7104,
      "개념": 7105,
      "다이": 7106,
      "더불다": 7107,
      "생생": 7108,
      "영어": 7109,
      "은근": 7110,
      "자리": 7111,
      "전개도": 7112,
      "스럽지": 7113,
      "가깝다": 7114,
      "과장": 7115,
      "날리다": 7116,
      "분명": 7117,
      "신분": 7118,
      "이끌다": 7119,
      "일반": 7120,
      "자살": 7121,
      "조선": 7122,
      "##스타": 7123,
      "개성": 7124,
      "겁니다": 7125,
      "고양": 7126,
      "대중": 7127,
      "없어지다": 7128,
      "와우": 7129,
      "줍다": 7130,
      "코난": 7131,
      "타이": 7132,
      "##자다": 7133,
      "##확하다": 7134,
      "##ㅋㅋㅋ": 7135,
      "199": 7136,
      "기자": 7137,
      "기독교": 7138,
      "도안": 7139,
      "설마": 7140,
      "어처": 7141,
      "##박하다": 7142,
      "마이클": 7143,
      "개뿔": 7144,
      "국가": 7145,
      "단연": 7146,
      "명성": 7147,
      "미모": 7148,
      "봣는데": 7149,
      "숨다": 7150,
      "우와": 7151,
      "이여": 7152,
      "전에": 7153,
      "조용": 7154,
      "편견": 7155,
      "무리": 7156,
      "무척": 7157,
      "번째": 7158,
      "시원하다": 7159,
      "어우": 7160,
      "한데": 7161,
      "헐리웃": 7162,
      "바라보다": 7163,
      "무언가": 7164,
      "어처구니": 7165,
      "교육": 7166,
      "오브": 7167,
      "전반": 7168,
      "정의": 7169,
      "찝찝": 7170,
      "풍경": 7171,
      "##르노": 7172,
      "##려주다": 7173,
      "정신병": 7174,
      "의외로": 7175,
      "외계인": 7176,
      "007": 7177,
      "찝찝하다": 7178,
      "이용": 7179,
      "인내": 7180,
      "직접": 7181,
      "할머니": 7182,
      "##음악": 7183,
      "레알": 7184,
      "민망하다": 7185,
      "상관": 7186,
      "신파": 7187,
      "한참": 7188,
      "##요일": 7189,
      "##7년": 7190,
      "가득하다": 7191,
      "거슬리다": 7192,
      "섹시하다": 7193,
      "스파이": 7194,
      "페이": 7195,
      "영국": 7196,
      "올라가다": 7197,
      "##2년": 7198,
      "##사람": 7199,
      "돌아보다": 7200,
      "신다": 7201,
      "움직": 7202,
      "의식": 7203,
      "##버리다": 7204,
      "낭비하다": 7205,
      "마이너스": 7206,
      "초등학생": 7207,
      "밋밋하다": 7208,
      "고양이": 7209,
      "도전": 7210,
      "아내": 7211,
      "##현실": 7212,
      "##말로": 7213,
      "##래다": 7214,
      "##지원": 7215,
      "##ie": 7216,
      "이따위": 7217,
      "개막": 7218,
      "달달": 7219,
      "마리": 7220,
      "이도": 7221,
      "치밀": 7222,
      "##ov": 7223,
      "##하나": 7224,
      "##코미디": 7225,
      "##악하다": 7226,
      "으로만": 7227,
      "♥♥": 7228,
      "가수": 7229,
      "깎다": 7230,
      "깜짝": 7231,
      "바다": 7232,
      "신고": 7233,
      "영혼": 7234,
      "##나이": 7235,
      "##운드": 7236,
      "하나로": 7237,
      "##ing": 7238,
      "뭉클하다": 7239,
      "아아": 7240,
      "오르다": 7241,
      "응원": 7242,
      "장애": 7243,
      "포르노": 7244,
      "##아나다": 7245,
      "막장드라마": 7246,
      "박진": 7247,
      "변화": 7248,
      "빨다": 7249,
      "악마": 7250,
      "야동": 7251,
      "카리스": 7252,
      "##ll": 7253,
      "조용하다": 7254,
      "카리스마": 7255,
      "레전": 7256,
      "복잡하다": 7257,
      "학년": 7258,
      "##타인": 7259,
      "으로써": 7260,
      "만들기": 7261,
      "생생하다": 7262,
      "감히": 7263,
      "끌리다": 7264,
      "로써": 7265,
      "비현실": 7266,
      "시시하다": 7267,
      "주성": 7268,
      "추하다": 7269,
      "자연스럽다": 7270,
      "비현실적": 7271,
      "주성치": 7272,
      "겨우": 7273,
      "기만": 7274,
      "사수": 7275,
      "압권": 7276,
      "패러": 7277,
      "스트레스": 7278,
      "레전드": 7279,
      "기준": 7280,
      "면서": 7281,
      "분명하다": 7282,
      "블록": 7283,
      "성격": 7284,
      "에나": 7285,
      "잠깐": 7286,
      "파이": 7287,
      "ㅉㅉㅉ": 7288,
      "성공하다": 7289,
      "스크린": 7290,
      "강력": 7291,
      "내면": 7292,
      "따로": 7293,
      "롭고": 7294,
      "세번": 7295,
      "아동": 7296,
      "어지": 7297,
      "지우다": 7298,
      "##시대": 7299,
      "##혹하다": 7300,
      "홍콩영화": 7301,
      "관점": 7302,
      "등등": 7303,
      "만해": 7304,
      "뿐이다": 7305,
      "이민": 7306,
      "줄다": 7307,
      "편도": 7308,
      "형제": 7309,
      "##친구": 7310,
      "니깐": 7311,
      "드물다": 7312,
      "사진": 7313,
      "프리": 7314,
      "이상은": 7315,
      "다양하다": 7316,
      "낚시": 7317,
      "변태": 7318,
      "살아나다": 7319,
      "욕망": 7320,
      "잠들다": 7321,
      "참으로": 7322,
      "포인트": 7323,
      "한지": 7324,
      "##찍하다": 7325,
      "어린시절": 7326,
      "기회": 7327,
      "모으": 7328,
      "운명": 7329,
      "위로": 7330,
      "최대": 7331,
      "현대": 7332,
      "##루스": 7333,
      "만족하다": 7334,
      "모으다": 7335,
      "김민": 7336,
      "동시": 7337,
      "또다": 7338,
      "방영": 7339,
      "벗어나다": 7340,
      "유지": 7341,
      "젠장": 7342,
      "특이하다": 7343,
      "##3년": 7344,
      "##드리다": 7345,
      "전쟁영화": 7346,
      "크리스마스": 7347,
      "가정": 7348,
      "김수": 7349,
      "비밀": 7350,
      "시기": 7351,
      "예능": 7352,
      "우려": 7353,
      "인들": 7354,
      "정체": 7355,
      "##발하다": 7356,
      "로그인": 7357,
      "ㅠㅜ": 7358,
      "고르다": 7359,
      "부럽다": 7360,
      "사고": 7361,
      "색감": 7362,
      "숨기다": 7363,
      "여태": 7364,
      "##8년": 7365,
      "만큼은": 7366,
      "넘어가다": 7367,
      "달리": 7368,
      "멈추다": 7369,
      "아예": 7370,
      "여름": 7371,
      "일품": 7372,
      "적임": 7373,
      "조작": 7374,
      "흉내": 7375,
      "흑인": 7376,
      "아무렇다": 7377,
      "무술": 7378,
      "반하다": 7379,
      "보통": 7380,
      "선물": 7381,
      "신의": 7382,
      "이소": 7383,
      "잖다": 7384,
      "짜임": 7385,
      "##랍다": 7386,
      "이어서": 7387,
      "놀랍다": 7388,
      "달리다": 7389,
      "몇몇": 7390,
      "부부": 7391,
      "수고": 7392,
      "진하다": 7393,
      "테이": 7394,
      "하늘": 7395,
      "확인": 7396,
      "거지같다": 7397,
      "에로영화": 7398,
      "초등학교": 7399,
      "놀다": 7400,
      "놀래다": 7401,
      "대본": 7402,
      "말아먹다": 7403,
      "배역": 7404,
      "소년": 7405,
      "안습": 7406,
      "주지": 7407,
      "클레": 7408,
      "타고": 7409,
      "##om": 7410,
      "##대다": 7411,
      "갖추다": 7412,
      "냄새": 7413,
      "디테": 7414,
      "명화": 7415,
      "설득": 7416,
      "야구": 7417,
      "어쩜": 7418,
      "이러": 7419,
      "자주": 7420,
      "풍자": 7421,
      "해결": 7422,
      "##해지다": 7423,
      "##빠지다": 7424,
      "부모님": 7425,
      "감안": 7426,
      "결정": 7427,
      "내생": 7428,
      "데리": 7429,
      "동성애": 7430,
      "류승": 7431,
      "세련": 7432,
      "심오": 7433,
      "웬만하다": 7434,
      "장가": 7435,
      "##성기": 7436,
      "##러다": 7437,
      "공포물": 7438,
      "이래서": 7439,
      "나타나다": 7440,
      "모자라다": 7441,
      "공짜": 7442,
      "관련": 7443,
      "그건": 7444,
      "근래": 7445,
      "만남": 7446,
      "미가": 7447,
      "심지": 7448,
      "자르다": 7449,
      "최초": 7450,
      "추리": 7451,
      "키우다": 7452,
      "##아버지": 7453,
      "보고오다": 7454,
      "##0000": 7455,
      "끝내주다": 7456,
      "거짓말": 7457,
      "감흥": 7458,
      "기발하다": 7459,
      "꼬마": 7460,
      "미스터": 7461,
      "부자": 7462,
      "성은": 7463,
      "시점": 7464,
      "썩다": 7465,
      "오로": 7466,
      "화끈": 7467,
      "##9년": 7468,
      "낮추다": 7469,
      "다섯": 7470,
      "런닝": 7471,
      "의하다": 7472,
      "제시": 7473,
      "##이라": 7474,
      "##이션": 7475,
      "패러디": 7476,
      "40": 7477,
      "5분": 7478,
      "거나": 7479,
      "뜨겁다": 7480,
      "아래": 7481,
      "용기": 7482,
      "재방": 7483,
      "저러다": 7484,
      "케릭": 7485,
      "틀어": 7486,
      "할리": 7487,
      "##트맨": 7488,
      "ㄷㄷㄷ": 7489,
      "70년": 7490,
      "단어": 7491,
      "두번": 7492,
      "둘째": 7493,
      "붙이다": 7494,
      "빵점": 7495,
      "요리": 7496,
      "조니": 7497,
      "조화": 7498,
      "첫사랑": 7499,
      "##버스터": 7500,
      "##담하다": 7501,
      "##넘다": 7502,
      "영화계": 7503,
      "여러가지": 7504,
      "심오하다": 7505,
      "만을": 7506,
      "모험": 7507,
      "번은": 7508,
      "본적": 7509,
      "브루스": 7510,
      "선동": 7511,
      "신비": 7512,
      "전율": 7513,
      "키스": 7514,
      "##ㅇㅇ": 7515,
      "##들이다": 7516,
      "여러분": 7517,
      "ebs": 7518,
      "감각": 7519,
      "깨우다": 7520,
      "단편": 7521,
      "던데": 7522,
      "목적": 7523,
      "물이": 7524,
      "베드": 7525,
      "상태": 7526,
      "넘어서다": 7527,
      "뛰어넘다": 7528,
      "과학": 7529,
      "도망": 7530,
      "라기": 7531,
      "만은": 7532,
      "무서": 7533,
      "비행": 7534,
      "사투": 7535,
      "사상": 7536,
      "연인": 7537,
      "와의": 7538,
      "20분": 7539,
      "모양": 7540,
      "바이": 7541,
      "부탁": 7542,
      "잔뜩": 7543,
      "##으키다": 7544,
      "영화제": 7545,
      "가족영화": 7546,
      "두번째": 7547,
      "to": 7548,
      "매니아": 7549,
      "스런": 7550,
      "씹다": 7551,
      "최민": 7552,
      "탄생": 7553,
      "하자": 7554,
      "##레딧": 7555,
      "##우성": 7556,
      "##받다": 7557,
      "라이언": 7558,
      "심지어": 7559,
      "50": 7560,
      "no": 7561,
      "기법": 7562,
      "명의": 7563,
      "사운드": 7564,
      "삭제": 7565,
      "새다": 7566,
      "승리": 7567,
      "작위": 7568,
      "점줌": 7569,
      "##bb": 7570,
      "하나같이": 7571,
      "you": 7572,
      "결코": 7573,
      "넘기다": 7574,
      "려고": 7575,
      "빵빵": 7576,
      "앉다": 7577,
      "집착": 7578,
      "폐지": 7579,
      "##es": 7580,
      "##en": 7581,
      "##bc": 7582,
      "그립": 7583,
      "반대": 7584,
      "스텝": 7585,
      "시끄럽다": 7586,
      "신세": 7587,
      "프레": 7588,
      "한숨": 7589,
      "힘내다": 7590,
      "##피스": 7591,
      "##포터": 7592,
      "##바이": 7593,
      "##두다": 7594,
      "##러스": 7595,
      "들어서다": 7596,
      "짜임새": 7597,
      "그립다": 7598,
      "매다": 7599,
      "애가": 7600,
      "애쓰다": 7601,
      "에드": 7602,
      "유아": 7603,
      "책임": 7604,
      "충실하다": 7605,
      "할아버지": 7606,
      "##거지": 7607,
      "화끈하다": 7608,
      "겪다": 7609,
      "꿈꾸다": 7610,
      "욕심": 7611,
      "제외": 7612,
      "종영": 7613,
      "##꿀잼": 7614,
      "지나가다": 7615,
      "##ㅠㅠㅠㅠㅠㅠㅠㅠ": 7616,
      "금보": 7617,
      "다크": 7618,
      "로드": 7619,
      "목숨": 7620,
      "무한": 7621,
      "무료": 7622,
      "열연": 7623,
      "울컥": 7624,
      "중독": 7625,
      "화장": 7626,
      "##ut": 7627,
      "##이입": 7628,
      "##뜨리다": 7629,
      "##쩡하다": 7630,
      "감정이입": 7631,
      "말고는": 7632,
      "후속작": 7633,
      "정보": 7634,
      "짜지다": 7635,
      "파워": 7636,
      "포스": 7637,
      "##99": 7638,
      "##덕화": 7639,
      "##감독": 7640,
      "##놓고": 7641,
      "오래전": 7642,
      "무서움": 7643,
      "거부": 7644,
      "구리": 7645,
      "담배": 7646,
      "여기다": 7647,
      "제임": 7648,
      "피다": 7649,
      "##어리": 7650,
      "##6년": 7651,
      "그만큼": 7652,
      "ㅎㅎㅎㅎ": 7653,
      "스티븐": 7654,
      "재난영화": 7655,
      "대놓고": 7656,
      "베이": 7657,
      "빈약하다": 7658,
      "업다": 7659,
      "이만": 7660,
      "자동": 7661,
      "장국": 7662,
      "정작": 7663,
      "팔이": 7664,
      "한개": 7665,
      "##아이": 7666,
      "##려가다": 7667,
      "아이디어": 7668,
      "구나": 7669,
      "난리": 7670,
      "내놓다": 7671,
      "물다": 7672,
      "스페": 7673,
      "자고": 7674,
      "혹은": 7675,
      "낚였다": 7676,
      "블록버스터": 7677,
      "세련되다": 7678,
      "늘어지다": 7679,
      "도에": 7680,
      "만드": 7681,
      "버전": 7682,
      "사무": 7683,
      "수많": 7684,
      "재능": 7685,
      "찾기": 7686,
      "주제가": 7687,
      "제임스": 7688,
      "수많다": 7689,
      "44": 7690,
      "부작": 7691,
      "어째": 7692,
      "와이": 7693,
      "짜리": 7694,
      "헤어지다": 7695,
      "##팩트": 7696,
      "##000": 7697,
      "움직이다": 7698,
      "치밀하다": 7699,
      "장국영": 7700,
      "걱정": 7701,
      "끔찍하다": 7702,
      "돼지": 7703,
      "따라": 7704,
      "떨다": 7705,
      "베리": 7706,
      "보구": 7707,
      "생명": 7708,
      "어둡": 7709,
      "예수": 7710,
      "음식": 7711,
      "조카": 7712,
      "케빈": 7713,
      "터미": 7714,
      "호구": 7715,
      "##백하다": 7716,
      "##정하다": 7717,
      "##패스": 7718,
      "##멘타인": 7719,
      "##능하다": 7720,
      "배경음악": 7721,
      "##파이어": 7722,
      "클레멘타인": 7723,
      "어둡다": 7724,
      "공간": 7725,
      "그지": 7726,
      "딱이다": 7727,
      "로코": 7728,
      "린다": 7729,
      "탈출": 7730,
      "하아": 7731,
      "##어도": 7732,
      "##통령": 7733,
      "##로우": 7734,
      "##상수": 7735,
      "##대사": 7736,
      "##누다": 7737,
      "##1년": 7738,
      "ㅋㅋㅋㅋㅋㅋㅋㅋ": 7739,
      "로버트": 7740,
      "그지같다": 7741,
      "22": 7742,
      "거북": 7743,
      "러시아": 7744,
      "아우": 7745,
      "의사": 7746,
      "인형": 7747,
      "자본": 7748,
      "지경": 7749,
      "참나": 7750,
      "코메": 7751,
      "폭풍": 7752,
      "간지": 7753,
      "대통령": 7754,
      "독일": 7755,
      "막다": 7756,
      "뭥미": 7757,
      "벌다": 7758,
      "영향": 7759,
      "우뢰": 7760,
      "이병": 7761,
      "인디": 7762,
      "자랑": 7763,
      "저리": 7764,
      "절정": 7765,
      "정상": 7766,
      "정확하다": 7767,
      "제니": 7768,
      "중심": 7769,
      "틀리다": 7770,
      "파괴": 7771,
      "플롯": 7772,
      "##싸다": 7773,
      "재밋음": 7774,
      "보이지": 7775,
      "가르": 7776,
      "그야": 7777,
      "대신": 7778,
      "매일": 7779,
      "심형": 7780,
      "앞뒤": 7781,
      "##지르다": 7782,
      "##네이터": 7783,
      "##간하다": 7784,
      "##레이션": 7785,
      "고등학교": 7786,
      "사투리": 7787,
      "터미네이터": 7788,
      "14": 7789,
      "교과": 7790,
      "끼우다": 7791,
      "나은": 7792,
      "늑대": 7793,
      "따름": 7794,
      "만약": 7795,
      "바탕": 7796,
      "반갑다": 7797,
      "배신": 7798,
      "안감": 7799,
      "임팩트": 7800,
      "적어도": 7801,
      "졸리": 7802,
      "##티즌": 7803,
      "##맞다": 7804,
      "##ver": 7805,
      "##퓨터": 7806,
      "부터가": 7807,
      "인지도": 7808,
      "일본인": 7809,
      "실패하다": 7810,
      "제이슨": 7811,
      "조니뎁": 7812,
      "교과서": 7813,
      "끊다": 7814,
      "된거": 7815,
      "묻히다": 7816,
      "바르다": 7817,
      "발상": 7818,
      "배트맨": 7819,
      "뱀파이어": 7820,
      "여친": 7821,
      "유덕화": 7822,
      "컴퓨터": 7823,
      "또다른": 7824,
      "이소룡": 7825,
      "심형래": 7826,
      "디워": 7827,
      "마냥": 7828,
      "잠시": 7829,
      "착각": 7830,
      "편안하다": 7831,
      "하품": 7832,
      "화의": 7833,
      "##질하다": 7834,
      "너무도": 7835,
      "일부러": 7836,
      "중학교": 7837,
      "김혜": 7838,
      "연극": 7839,
      "울면": 7840,
      "이군": 7841,
      "잡고": 7842,
      "정이": 7843,
      "호기": 7844,
      "##나가다": 7845,
      "##re": 7846,
      "##스토리": 7847,
      "##무지": 7848,
      "##습니": 7849,
      "에게도": 7850,
      "인터넷": 7851,
      "그야말로": 7852,
      "30년": 7853,
      "mbc": 7854,
      "of": 7855,
      "논리": 7856,
      "상대": 7857,
      "상실": 7858,
      "센스": 7859,
      "애국": 7860,
      "애매": 7861,
      "위험": 7862,
      "토록": 7863,
      "폭발": 7864,
      "환경": 7865,
      "##it": 7866,
      "##세포": 7867,
      "고딩": 7868,
      "구역": 7869,
      "그만하다": 7870,
      "나누다": 7871,
      "도움": 7872,
      "배다": 7873,
      "붙다": 7874,
      "판단": 7875,
      "##재밋": 7876,
      "##터지다": 7877,
      "메이드": 7878,
      "쓸데없이": 7879,
      "해리포터": 7880,
      "그동안": 7881,
      "다리": 7882,
      "무기": 7883,
      "배급": 7884,
      "부실하다": 7885,
      "실수": 7886,
      "외로": 7887,
      "컨셉": 7888,
      "펴다": 7889,
      "허허": 7890,
      "##od": 7891,
      "##리언": 7892,
      "##그럽다": 7893,
      "재미나": 7894,
      "드러나다": 7895,
      "인내심": 7896,
      "우뢰매": 7897,
      "제니퍼": 7898,
      "곱다": 7899,
      "나무": 7900,
      "달콤": 7901,
      "대결": 7902,
      "도시": 7903,
      "무너": 7904,
      "미녀": 7905,
      "밝다": 7906,
      "손색": 7907,
      "아담": 7908,
      "아끼다": 7909,
      "이루": 7910,
      "이준": 7911,
      "쥐다": 7912,
      "축구": 7913,
      "##래곤": 7914,
      "##이나": 7915,
      "##루즈": 7916,
      "##막히다": 7917,
      "어디가": 7918,
      "거장": 7919,
      "과도": 7920,
      "동심": 7921,
      "들리다": 7922,
      "류작": 7923,
      "말투": 7924,
      "무대": 7925,
      "빵터지다": 7926,
      "상어": 7927,
      "선정": 7928,
      "성의": 7929,
      "에다": 7930,
      "준비": 7931,
      "지치다": 7932,
      "천국": 7933,
      "평균": 7934,
      "##정우": 7935,
      "##릿하다": 7936,
      "##워지다": 7937,
      "여자애": 7938,
      "스포츠": 7939,
      "어우러지다": 7940,
      "김치": 7941,
      "네티즌": 7942,
      "당황": 7943,
      "분량": 7944,
      "신인": 7945,
      "애초": 7946,
      "여인": 7947,
      "오지": 7948,
      "유럽": 7949,
      "이전": 7950,
      "이성": 7951,
      "주윤": 7952,
      "##티브": 7953,
      "치고는": 7954,
      "쓸데없다": 7955,
      "주윤발": 7956,
      "kbs": 7957,
      "계기": 7958,
      "녹다": 7959,
      "단체": 7960,
      "로빈": 7961,
      "반드": 7962,
      "속이다": 7963,
      "손가락": 7964,
      "수입": 7965,
      "엑스": 7966,
      "위원": 7967,
      "의지": 7968,
      "의상": 7969,
      "임창": 7970,
      "클래": 7971,
      "키드": 7972,
      "##is": 7973,
      "##중훈": 7974,
      "여자친구": 7975,
      "만화책": 7976,
      "##oooo": 7977,
      "살인마": 7978,
      "리얼리티": 7979,
      "상관없다": 7980,
      "반드시": 7981,
      "임창정": 7982,
      "데스": 7983,
      "등록": 7984,
      "박중훈": 7985,
      "발음": 7986,
      "베다": 7987,
      "부담": 7988,
      "수면": 7989,
      "오프": 7990,
      "저급": 7991,
      "찌질하다": 7992,
      "하여": 7993,
      "하지원": 7994,
      "##강호": 7995,
      "##zz": 7996,
      "아무튼": 7997,
      "틀어주다": 7998,
      "호기심": 7999,
      "기존": 8000,
      "남성": 8001,
      "보신": 8002,
      "어거지": 8003,
      "장진": 8004,
      "처절하다": 8005,
      "혐오": 8006,
      "홍상수": 8007,
      "화란": 8008,
      "##레인": 8009,
      "##랄하다": 8010,
      "##랜드": 8011,
      "사이코": 8012,
      "자동차": 8013,
      "bad": 8014,
      "루즈": 8015,
      "명대사": 8016,
      "무난": 8017,
      "민폐": 8018,
      "빨갱": 8019,
      "섞다": 8020,
      "실험": 8021,
      "알아보다": 8022,
      "원주": 8023,
      "인류": 8024,
      "첨부": 8025,
      "하정우": 8026,
      "##영상": 8027,
      "##듯하다": 8028,
      "##들리다": 8029,
      "##둥이": 8030,
      "##참하다": 8031,
      "영화감독": 8032,
      "2014년": 8033,
      "빨갱이": 8034,
      "각색": 8035,
      "거치다": 8036,
      "데뷔": 8037,
      "도무지": 8038,
      "듭니": 8039,
      "마약": 8040,
      "무게": 8041,
      "성적": 8042,
      "압도": 8043,
      "일어": 8044,
      "진수": 8045,
      "차원": 8046,
      "체적": 8047,
      "출신": 8048,
      "토나오다": 8049,
      "##만다": 8050,
      "##어버리다": 8051,
      "##유리": 8052,
      "##부터": 8053,
      "##놀드": 8054,
      "##감하다": 8055,
      "ㅎㄷㄷ": 8056,
      "개콘": 8057,
      "게뭐": 8058,
      "고프다": 8059,
      "김태": 8060,
      "김정": 8061,
      "나레이션": 8062,
      "뭐임": 8063,
      "부정": 8064,
      "비중": 8065,
      "아놀드": 8066,
      "얼다": 8067,
      "이수": 8068,
      "지리다": 8069,
      "평화": 8070,
      "피아": 8071,
      "##우스": 8072,
      "마음속": 8073,
      "극복": 8074,
      "길이": 8075,
      "김지": 8076,
      "누르다": 8077,
      "동영상": 8078,
      "아치": 8079,
      "에다가": 8080,
      "유행": 8081,
      "차갑다": 8082,
      "대사도": 8083,
      "개그맨": 8084,
      "이니까": 8085,
      "re": 8086,
      "게스트": 8087,
      "김희": 8088,
      "난잡하다": 8089,
      "도둑": 8090,
      "드디어": 8091,
      "드래곤": 8092,
      "리지": 8093,
      "만도": 8094,
      "서울": 8095,
      "싫어지다": 8096,
      "요새": 8097,
      "추격": 8098,
      "화일": 8099,
      "ㅋㅋㅋㅋㅋㅋㅋㅋㅋ": 8100,
      "누군지": 8101,
      "거품": 8102,
      "공룡": 8103,
      "그렇": 8104,
      "극단": 8105,
      "나루": 8106,
      "내일": 8107,
      "다세포": 8108,
      "단점": 8109,
      "동양": 8110,
      "별하나": 8111,
      "부인": 8112,
      "부리다": 8113,
      "열자": 8114,
      "윌리스": 8115,
      "자아": 8116,
      "줄리": 8117,
      "푸다": 8118,
      "##로드": 8119,
      "##웨이": 8120,
      "역사상": 8121,
      "어쩌면": 8122,
      "범죄자": 8123,
      "최소한": 8124,
      "할리우드": 8125,
      "코메디": 8126,
      "이병헌": 8127,
      "강간": 8128,
      "고뇌": 8129,
      "듣기": 8130,
      "몽환": 8131,
      "쉽다": 8132,
      "심다": 8133,
      "일지": 8134,
      "잡히다": 8135,
      "질리다": 8136,
      "짜이다": 8137,
      "파리": 8138,
      "황당": 8139,
      "##려움": 8140,
      "##식하다": 8141,
      "최고봉": 8142,
      "oc": 8143,
      "두근": 8144,
      "바닥": 8145,
      "박신": 8146,
      "브라": 8147,
      "사용": 8148,
      "와도": 8149,
      "장동": 8150,
      "졸업": 8151,
      "죄송": 8152,
      "탁월": 8153,
      "흑백": 8154,
      "흡입": 8155,
      "##버그": 8156,
      "##as": 8157,
      "##처럼": 8158,
      "하고는": 8159,
      "한국판": 8160,
      "그렇지만": 8161,
      "강동": 8162,
      "경우": 8163,
      "깡패": 8164,
      "때매": 8165,
      "리가": 8166,
      "박다": 8167,
      "왜곡": 8168,
      "인게": 8169,
      "인종": 8170,
      "일으키다": 8171,
      "정우성": 8172,
      "조아": 8173,
      "평소": 8174,
      "향수": 8175,
      "##전쟁": 8176,
      "ㅋㅋㅋㅋㅋㅋㅋㅋㅋㅋㅋㅋㅋㅋㅋ": 8177,
      "달콤하다": 8178,
      "오프닝": 8179,
      "권력": 8180,
      "기획": 8181,
      "담담하다": 8182,
      "도데": 8183,
      "말씀": 8184,
      "망가": 8185,
      "버튼": 8186,
      "송강호": 8187,
      "시스": 8188,
      "애절하다": 8189,
      "엘리": 8190,
      "왤케": 8191,
      "절망": 8192,
      "치유": 8193,
      "하니": 8194,
      "해안": 8195,
      "##승우": 8196,
      "##가리": 8197,
      "제시카": 8198,
      "ocn": 8199,
      "글자": 8200,
      "낭만": 8201,
      "놀이": 8202,
      "라스트": 8203,
      "명복": 8204,
      "미도": 8205,
      "섞이다": 8206,
      "오는": 8207,
      "장점": 8208,
      "전하": 8209,
      "전화": 8210,
      "중년": 8211,
      "지옥": 8212,
      "징그럽다": 8213,
      "첩보": 8214,
      "##ow": 8215,
      "##리카": 8216,
      "##ck": 8217,
      "##준호": 8218,
      "이해도": 8219,
      "무너지다": 8220,
      "이루어지다": 8221,
      "mov": 8222,
      "가까": 8223,
      "개똥": 8224,
      "겉멋": 8225,
      "과대": 8226,
      "군인": 8227,
      "깨알": 8228,
      "동네": 8229,
      "버티": 8230,
      "서부": 8231,
      "서도": 8232,
      "서양": 8233,
      "엑소": 8234,
      "여신": 8235,
      "역량": 8236,
      "엽기": 8237,
      "오우": 8238,
      "이동": 8239,
      "판이": 8240,
      "##al": 8241,
      "##대기": 8242,
      "##맹이": 8243,
      "##순간": 8244,
      "만화영화": 8245,
      "이구나": 8246,
      "배급사": 8247,
      "1년": 8248,
      "꺼지다": 8249,
      "드니": 8250,
      "매미": 8251,
      "무의": 8252,
      "뮤직": 8253,
      "비호": 8254,
      "스피": 8255,
      "시종": 8256,
      "애정": 8257,
      "연습": 8258,
      "우선": 8259,
      "황정": 8260,
      "##미하다": 8261,
      "##아들이다": 8262,
      "##근하다": 8263,
      "에서만": 8264,
      "액션씬": 8265,
      "♡♡": 8266,
      "ㅜㅠ": 8267,
      "가라": 8268,
      "격투": 8269,
      "그대": 8270,
      "극적": 8271,
      "높이다": 8272,
      "늘리다": 8273,
      "대에": 8274,
      "무간": 8275,
      "민주": 8276,
      "밀려오다": 8277,
      "박히다": 8278,
      "방해": 8279,
      "알파": 8280,
      "유명": 8281,
      "일베": 8282,
      "잔혹하다": 8283,
      "정부": 8284,
      "정선": 8285,
      "직업": 8286,
      "켜다": 8287,
      "트리": 8288,
      "파격": 8289,
      "회사": 8290,
      "##nd": 8291,
      "##동생": 8292,
      "##웃음": 8293,
      "영화사": 8294,
      "cgv": 8295,
      "화장실": 8296,
      "나루토": 8297,
      "망가지다": 8298,
      "16": 8299,
      "계시다": 8300,
      "공중": 8301,
      "닥치": 8302,
      "담백하다": 8303,
      "매끄럽다": 8304,
      "보임": 8305,
      "분장": 8306,
      "삶다": 8307,
      "소화": 8308,
      "아만다": 8309,
      "에가": 8310,
      "욕먹다": 8311,
      "절로": 8312,
      "절대로": 8313,
      "중딩": 8314,
      "처리": 8315,
      "파다": 8316,
      "하드": 8317,
      "한순간": 8318,
      "향연": 8319,
      "##봤다": 8320,
      "에서나": 8321,
      "198": 8322,
      "best": 8323,
      "류승범": 8324,
      "1회": 8325,
      "2년": 8326,
      "wh": 8327,
      "가져": 8328,
      "가히": 8329,
      "갈리다": 8330,
      "녀석": 8331,
      "노인": 8332,
      "뒤죽": 8333,
      "든지": 8334,
      "디카": 8335,
      "따분하다": 8336,
      "마녀": 8337,
      "부산": 8338,
      "세대": 8339,
      "소개": 8340,
      "신하": 8341,
      "안남": 8342,
      "알려지다": 8343,
      "어쨌": 8344,
      "언젠": 8345,
      "위트": 8346,
      "존스": 8347,
      "한가지": 8348,
      "##미다": 8349,
      "##버스": 8350,
      "##주일": 8351,
      "##니엘": 8352,
      "##디다": 8353,
      "##열하다": 8354,
      "##숭이": 8355,
      "부족함": 8356,
      "중국영화": 8357,
      "##레이드": 8358,
      "##ery": 8359,
      "아오이": 8360,
      "비행기": 8361,
      "탁월하다": 8362,
      "비호감": 8363,
      "언젠가": 8364,
      "가야": 8365,
      "년전": 8366,
      "달라지다": 8367,
      "도중": 8368,
      "떠올": 8369,
      "똑같이": 8370,
      "만세": 8371,
      "매번": 8372,
      "민족": 8373,
      "받아들이다": 8374,
      "별거": 8375,
      "보나": 8376,
      "부로": 8377,
      "부활": 8378,
      "블루": 8379,
      "속지": 8380,
      "순위": 8381,
      "안해": 8382,
      "옳다": 8383,
      "절제": 8384,
      "즐거": 8385,
      "찬양": 8386,
      "킬러": 8387,
      "피터": 8388,
      "하라": 8389,
      "##박죽": 8390,
      "하나님": 8391,
      "만큼이나": 8392,
      "후회되다": 8393,
      "뜬금없이": 8394,
      "이구만": 8395,
      "강동원": 8396,
      "뒤죽박죽": 8397,
      "떠올리다": 8398,
      "it": 8399,
      "가리다": 8400,
      "광구": 8401,
      "교회": 8402,
      "급하다": 8403,
      "마르": 8404,
      "명불": 8405,
      "모로": 8406,
      "모욕": 8407,
      "무재": 8408,
      "배꼽": 8409,
      "브래": 8410,
      "소통": 8411,
      "월드": 8412,
      "이안": 8413,
      "이별": 8414,
      "인걸": 8415,
      "재수": 8416,
      "저지르다": 8417,
      "정리": 8418,
      "지지": 8419,
      "지식": 8420,
      "클라": 8421,
      "혁명": 8422,
      "##허전": 8423,
      "##브리": 8424,
      "##스크": 8425,
      "##테리": 8426,
      "들어주다": 8427,
      "굿굿굿": 8428,
      "애매하다": 8429,
      "movie": 8430,
      "신하균": 8431,
      "명불허전": 8432,
      "is": 8433,
      "고독": 8434,
      "공유": 8435,
      "구만": 8436,
      "구조": 8437,
      "끼치다": 8438,
      "년도": 8439,
      "마법": 8440,
      "못자다": 8441,
      "믿음": 8442,
      "박보": 8443,
      "본질": 8444,
      "부다": 8445,
      "불과": 8446,
      "선사": 8447,
      "시원": 8448,
      "식이": 8449,
      "심사": 8450,
      "애틋": 8451,
      "예측": 8452,
      "용다": 8453,
      "원조": 8454,
      "원숭이": 8455,
      "전성기": 8456,
      "지하": 8457,
      "튀다": 8458,
      "##보이": 8459,
      "##인간": 8460,
      "##하하": 8461,
      "##오글": 8462,
      "##란티": 8463,
      "##예진": 8464,
      "잔인함": 8465,
      "2000년": 8466,
      "가능성": 8467,
      "##ㅜㅜㅜㅜ": 8468,
      "중학생": 8469,
      "스파이더": 8470,
      "미스터리": 8471,
      "버티다": 8472,
      "무간도": 8473,
      "1등": 8474,
      "ㅈㄴ": 8475,
      "각자": 8476,
      "객관": 8477,
      "고증": 8478,
      "그럴": 8479,
      "깨달": 8480,
      "끊기다": 8481,
      "다해": 8482,
      "딸리다": 8483,
      "랑은": 8484,
      "명연기": 8485,
      "모이다": 8486,
      "반지": 8487,
      "백인": 8488,
      "변신": 8489,
      "스필": 8490,
      "쓴다": 8491,
      "어정": 8492,
      "익숙하다": 8493,
      "쟁이": 8494,
      "짬뽕": 8495,
      "추가": 8496,
      "칭찬": 8497,
      "코스": 8498,
      "##아다": 8499,
      "##사하다": 8500,
      "##하드": 8501,
      "##일관": 8502,
      "##은이": 8503,
      "##얗다": 8504,
      "##00원": 8505,
      "오글오글": 8506,
      "박보영": 8507,
      "그럴듯하다": 8508,
      "90분": 8509,
      "very": 8510,
      "고인": 8511,
      "광기": 8512,
      "무어": 8513,
      "문득": 8514,
      "비록": 8515,
      "선수": 8516,
      "수록": 8517,
      "쏟다": 8518,
      "아바": 8519,
      "우디": 8520,
      "우울": 8521,
      "윌리": 8522,
      "음향": 8523,
      "이승": 8524,
      "이종": 8525,
      "전기": 8526,
      "짜릿하다": 8527,
      "치노": 8528,
      "형식": 8529,
      "흔들다": 8530,
      "##부지": 8531,
      "##상우": 8532,
      "##누라": 8533,
      "제작자": 8534,
      "15년": 8535,
      "어지럽다": 8536,
      "가나": 8537,
      "국어": 8538,
      "난무": 8539,
      "두운": 8540,
      "로움": 8541,
      "본능": 8542,
      "영구": 8543,
      "일주일": 8544,
      "쯧쯧": 8545,
      "찾아가다": 8546,
      "천사": 8547,
      "커버": 8548,
      "콜린": 8549,
      "타란티": 8550,
      "트랜": 8551,
      "해봤다": 8552,
      "홀로": 8553,
      "##ay": 8554,
      "##le": 8555,
      "##프리오": 8556,
      "##ic": 8557,
      "##추어": 8558,
      "아무나": 8559,
      "이기도": 8560,
      "아마추어": 8561,
      "나타내다": 8562,
      "블랙코미디": 8563,
      "장애인": 8564,
      "부자연": 8565,
      "피아노": 8566,
      "닥치고": 8567,
      "애틋하다": 8568,
      "타란티노": 8569,
      "구로": 8570,
      "권상우": 8571,
      "놀란": 8572,
      "떨어": 8573,
      "많아지다": 8574,
      "맛있다": 8575,
      "미학": 8576,
      "반응": 8577,
      "베일": 8578,
      "빌다": 8579,
      "연상": 8580,
      "올라": 8581,
      "워낙": 8582,
      "창피": 8583,
      "##ig": 8584,
      "##관계": 8585,
      "##워즈": 8586,
      "아이언": 8587,
      "스타워즈": 8588,
      "데이빗": 8589,
      "의심스럽다": 8590,
      "디테일": 8591,
      "시종일관": 8592,
      "디카프리오": 8593,
      "스파이더맨": 8594,
      "스필버그": 8595,
      "25": 8596,
      "고문": 8597,
      "공연": 8598,
      "라스": 8599,
      "리암": 8600,
      "머릿": 8601,
      "반영": 8602,
      "브로": 8603,
      "상이": 8604,
      "상식": 8605,
      "성형": 8606,
      "아누": 8607,
      "연관": 8608,
      "오오": 8609,
      "외롭다": 8610,
      "최후": 8611,
      "티나": 8612,
      "호불": 8613,
      "##차별": 8614,
      "##더기": 8615,
      "##뚱하다": 8616,
      "##능력": 8617,
      "까지만": 8618,
      "아이유": 8619,
      "부터는": 8620,
      "ㅜㅜㅜ": 8621,
      "출연자": 8622,
      "멜로영화": 8623,
      "니콜라스": 8624,
      "즐거움": 8625,
      "호불호": 8626,
      "구석": 8627,
      "구분": 8628,
      "기괴": 8629,
      "너희": 8630,
      "데리다": 8631,
      "되돌": 8632,
      "레옹": 8633,
      "뺏다": 8634,
      "살이": 8635,
      "상징": 8636,
      "소지": 8637,
      "신화": 8638,
      "알아": 8639,
      "애잔하다": 8640,
      "왕가": 8641,
      "잃어버리다": 8642,
      "자세하다": 8643,
      "전지": 8644,
      "차승": 8645,
      "찬사": 8646,
      "커서": 8647,
      "태국": 8648,
      "풀리다": 8649,
      "하얗다": 8650,
      "##어스": 8651,
      "##일러": 8652,
      "##정화": 8653,
      "남자배우": 8654,
      "슈퍼맨": 8655,
      "오로지": 8656,
      "위험하다": 8657,
      "트랜스": 8658,
      "sh": 8659,
      "고어": 8660,
      "괴롭다": 8661,
      "국산": 8662,
      "돌려주다": 8663,
      "두렵다": 8664,
      "명장": 8665,
      "무식하다": 8666,
      "미션": 8667,
      "본격": 8668,
      "스펙": 8669,
      "시험": 8670,
      "쓸쓸하다": 8671,
      "안기다": 8672,
      "억울하다": 8673,
      "여고": 8674,
      "우린": 8675,
      "작화": 8676,
      "지상": 8677,
      "초월": 8678,
      "케미": 8679,
      "특집": 8680,
      "호흡": 8681,
      "##아지": 8682,
      "##라기": 8683,
      "##뜨다": 8684,
      "다시금": 8685,
      "ㅋㅋㅋㅋㅋㅋㅋㅋㅋㅋㅋㅋㅋㅋㅋㅋㅋㅋㅋ": 8686,
      "외국인": 8687,
      "페이크": 8688,
      "가까이": 8689,
      "떨어뜨리다": 8690,
      "기괴하다": 8691,
      "40분": 8692,
      "bb": 8693,
      "com": 8694,
      "vs": 8695,
      "강아지": 8696,
      "견디다": 8697,
      "공주": 8698,
      "관리": 8699,
      "그치다": 8700,
      "꼬이다": 8701,
      "남친": 8702,
      "노무": 8703,
      "뉴스": 8704,
      "능가": 8705,
      "당장": 8706,
      "덩어리": 8707,
      "도르다": 8708,
      "리도": 8709,
      "바치다": 8710,
      "벌어지다": 8711,
      "빠순": 8712,
      "성과": 8713,
      "스토": 8714,
      "실사": 8715,
      "쏘우": 8716,
      "암울하다": 8717,
      "엄정화": 8718,
      "올레": 8719,
      "왕조": 8720,
      "운동": 8721,
      "정점": 8722,
      "진창": 8723,
      "차리다": 8724,
      "춤추다": 8725,
      "틀림": 8726,
      "한석": 8727,
      "화질": 8728,
      "##리하다": 8729,
      "다른사람": 8730,
      "마저도": 8731,
      "미스테리": 8732,
      "일반인": 8733,
      "차승원": 8734,
      "한석규": 8735,
      "가짜": 8736,
      "기타": 8737,
      "드네": 8738,
      "마찬": 8739,
      "불법": 8740,
      "비쥬": 8741,
      "사과": 8742,
      "시체": 8743,
      "안쓰": 8744,
      "열다": 8745,
      "적당": 8746,
      "짜내다": 8747,
      "째다": 8748,
      "토니": 8749,
      "화중": 8750,
      "황금": 8751,
      "##tt": 8752,
      "##돌다": 8753,
      "##랗다": 8754,
      "대박나다": 8755,
      "스릴러물": 8756,
      "가르치다": 8757,
      "클래식": 8758,
      "수면제": 8759,
      "아바타": 8760,
      "마찬가지": 8761,
      "안쓰럽다": 8762,
      "가하다": 8763,
      "거임": 8764,
      "기사": 8765,
      "다녀": 8766,
      "다치다": 8767,
      "떨리다": 8768,
      "로다": 8769,
      "뿌리다": 8770,
      "섬뜩": 8771,
      "소유": 8772,
      "숨막히다": 8773,
      "승부": 8774,
      "싱겁다": 8775,
      "어딘": 8776,
      "완젼": 8777,
      "우드": 8778,
      "위주": 8779,
      "이탈": 8780,
      "인권": 8781,
      "장소": 8782,
      "재탕": 8783,
      "전도": 8784,
      "철저": 8785,
      "첨으로": 8786,
      "패션": 8787,
      "포드": 8788,
      "해지": 8789,
      "핸드": 8790,
      "향기": 8791,
      "##효주": 8792,
      "##린다": 8793,
      "##늦다": 8794,
      "##캐스팅": 8795,
      "미스캐스팅": 8796,
      "죄송하다": 8797,
      "클라라": 8798,
      "빠순이": 8799,
      "80": 8800,
      "검사": 8801,
      "그로": 8802,
      "기전": 8803,
      "깜놀": 8804,
      "나로": 8805,
      "눈치": 8806,
      "도라": 8807,
      "리기": 8808,
      "마블": 8809,
      "미달": 8810,
      "방향": 8811,
      "생기": 8812,
      "아카": 8813,
      "에바": 8814,
      "역작": 8815,
      "이드": 8816,
      "인식": 8817,
      "잘나가다": 8818,
      "조지": 8819,
      "차별": 8820,
      "참여": 8821,
      "청년": 8822,
      "칠하다": 8823,
      "클리": 8824,
      "택시": 8825,
      "포켓": 8826,
      "포함": 8827,
      "혼란": 8828,
      "회상": 8829,
      "##니까": 8830,
      "##갈리다": 8831,
      "##워드": 8832,
      "사람과": 8833,
      "ㅋㅋㅋㅋㅋㅋㅋㅋㅋㅋ": 8834,
      "고등학생": 8835,
      "드러내다": 8836,
      "다이하드": 8837,
      "김희선": 8838,
      "브래드": 8839,
      "철저하다": 8840,
      "pd": 8841,
      "가게": 8842,
      "고스": 8843,
      "납득": 8844,
      "도와": 8845,
      "동감": 8846,
      "디자": 8847,
      "박시": 8848,
      "오직": 8849,
      "이은": 8850,
      "인연": 8851,
      "정사": 8852,
      "지내다": 8853,
      "찬란하다": 8854,
      "##아리": 8855,
      "##곤하다": 8856,
      "##조하다": 8857,
      "##독하다": 8858,
      "##살다": 8859,
      "##10": 8860,
      "김수현": 8861,
      "거북하다": 8862,
      "부자연스럽다": 8863,
      "왕조현": 8864,
      "도와주다": 8865,
      "17": 8866,
      "av": 8867,
      "걷다": 8868,
      "나비": 8869,
      "농담": 8870,
      "된장": 8871,
      "로망": 8872,
      "마누라": 8873,
      "맙시": 8874,
      "망치": 8875,
      "목사": 8876,
      "박찬": 8877,
      "보석": 8878,
      "산다": 8879,
      "세트": 8880,
      "아가": 8881,
      "없애": 8882,
      "온갖": 8883,
      "외면": 8884,
      "재앙": 8885,
      "주가": 8886,
      "찌르다": 8887,
      "한동안": 8888,
      "한효주": 8889,
      "화하다": 8890,
      "홧팅": 8891,
      "##am": 8892,
      "##로로": 8893,
      "##태현": 8894,
      "##왕국": 8895,
      "유치원": 8896,
      "세계관": 8897,
      "로맨틱코미디": 8898,
      "짱짱맨": 8899,
      "싸이코패스": 8900,
      "테이큰": 8901,
      "다녀오다": 8902,
      "포켓몬": 8903,
      "없애다": 8904,
      "3시간": 8905,
      "거듭": 8906,
      "난후": 8907,
      "대하": 8908,
      "덮다": 8909,
      "뒤늦다": 8910,
      "떠들다": 8911,
      "떡밥": 8912,
      "레오": 8913,
      "멘탈": 8914,
      "미니": 8915,
      "미술": 8916,
      "발랄하다": 8917,
      "밝혀지다": 8918,
      "섹시": 8919,
      "이영": 8920,
      "일수": 8921,
      "조정": 8922,
      "지극": 8923,
      "질문": 8924,
      "집다": 8925,
      "짱구": 8926,
      "치료": 8927,
      "팍팍": 8928,
      "픽사": 8929,
      "환자": 8930,
      "##ed": 8931,
      "##천원": 8932,
      "##매이션": 8933,
      "알바생": 8934,
      "##아다니다": 8935,
      "머릿속": 8936,
      "가만": 8937,
      "관대하다": 8938,
      "그려지다": 8939,
      "뒤지다": 8940,
      "띄다": 8941,
      "로운": 8942,
      "마을": 8943,
      "만난": 8944,
      "박해": 8945,
      "밝히다": 8946,
      "버스": 8947,
      "번역": 8948,
      "불만": 8949,
      "소품": 8950,
      "시골": 8951,
      "어차": 8952,
      "어떠": 8953,
      "언어": 8954,
      "오리": 8955,
      "올려주다": 8956,
      "위안": 8957,
      "저희": 8958,
      "주위": 8959,
      "주먹": 8960,
      "타인": 8961,
      "해오다": 8962,
      "##id": 8963,
      "##동자": 8964,
      "##은경": 8965,
      "##생활": 8966,
      "##진하다": 8967,
      "##ct": 8968,
      "##크레딧": 8969,
      "애니매이션": 8970,
      "엔딩크레딧": 8971,
      "에로물": 8972,
      "아기자기": 8973,
      "김혜수": 8974,
      "어쨌든": 8975,
      "어차피": 8976,
      "강요": 8977,
      "건강": 8978,
      "누님": 8979,
      "다니엘": 8980,
      "대역": 8981,
      "대상": 8982,
      "더러": 8983,
      "두고": 8984,
      "러셀": 8985,
      "밀다": 8986,
      "박하다": 8987,
      "반감": 8988,
      "살때": 8989,
      "상큼": 8990,
      "새삼": 8991,
      "색채": 8992,
      "스콧": 8993,
      "시장": 8994,
      "신부": 8995,
      "안녕": 8996,
      "애인": 8997,
      "언론": 8998,
      "여지": 8999,
      "오해": 9000,
      "옮기다": 9001,
      "유혹": 9002,
      "이웃": 9003,
      "찾아오다": 9004,
      "최선": 9005,
      "학살": 9006,
      "해외": 9007,
      "##스톤": 9008,
      "##스하다": 9009,
      "##드라": 9010,
      "##동근": 9011,
      "##인드": 9012,
      "##두고": 9013,
      "만화가": 9014,
      "불가능하다": 9015,
      "##ㅎㅎㅎㅎ": 9016,
      "재방송": 9017,
      "최민수": 9018,
      "두고두고": 9019,
      "5년": 9020,
      "60년": 9021,
      "mc": 9022,
      "공허": 9023,
      "괴수": 9024,
      "구경": 9025,
      "로마": 9026,
      "맺다": 9027,
      "멀리": 9028,
      "모니": 9029,
      "모독": 9030,
      "복선": 9031,
      "설경": 9032,
      "수십": 9033,
      "연주": 9034,
      "완죤": 9035,
      "유리": 9036,
      "재치": 9037,
      "저주": 9038,
      "전라도": 9039,
      "정당": 9040,
      "직장": 9041,
      "집어": 9042,
      "컬트": 9043,
      "쿵푸": 9044,
      "피디": 9045,
      "피식": 9046,
      "##★★": 9047,
      "##il": 9048,
      "##맣다": 9049,
      "더욱더": 9050,
      "스페인": 9051,
      "섬뜩하다": 9052,
      "박찬욱": 9053,
      "지극히": 9054,
      "in": 9055,
      "개꿀잼": 9056,
      "기록": 9057,
      "기쁘다": 9058,
      "김명": 9059,
      "남고": 9060,
      "따지다": 9061,
      "람보": 9062,
      "먹기": 9063,
      "볼라": 9064,
      "색깔": 9065,
      "성장하다": 9066,
      "손예진": 9067,
      "송승": 9068,
      "스탈": 9069,
      "싸하다": 9070,
      "아메": 9071,
      "엉뚱하다": 9072,
      "여유": 9073,
      "영활": 9074,
      "음모": 9075,
      "이태": 9076,
      "이형": 9077,
      "적나라": 9078,
      "절반": 9079,
      "정화": 9080,
      "졸잼": 9081,
      "짙다": 9082,
      "차태현": 9083,
      "커피": 9084,
      "피곤하다": 9085,
      "##리스트": 9086,
      "##역사": 9087,
      "##듬다": 9088,
      "##성이": 9089,
      "##꼽다": 9090,
      "하고도": 9091,
      "재밋는": 9092,
      "카메론": 9093,
      "러브스토리": 9094,
      "##ㅋㅋㅋㅋㅋㅋㅋㅋㅋㅋㅋㅋㅋㅋㅋㅋㅋㅋㅋㅋㅋㅋㅋㅋㅋㅋㅋㅋㅋㅋㅋㅋ": 9095,
      "원주율": 9096,
      "깨달음": 9097,
      "전지현": 9098,
      "설경구": 9099,
      "송승헌": 9100,
      "lov": 9101,
      "xx": 9102,
      "가식": 9103,
      "감수": 9104,
      "고작": 9105,
      "고수": 9106,
      "고해": 9107,
      "고질": 9108,
      "군더": 9109,
      "까맣다": 9110,
      "납치": 9111,
      "눕다": 9112,
      "디스": 9113,
      "박평": 9114,
      "백배": 9115,
      "벅차다": 9116,
      "서정": 9117,
      "스키": 9118,
      "신도": 9119,
      "쎄다": 9120,
      "엠마": 9121,
      "열광": 9122,
      "왕자": 9123,
      "우롱": 9124,
      "유승": 9125,
      "유쾌": 9126,
      "이외": 9127,
      "일리": 9128,
      "젊은이": 9129,
      "주온": 9130,
      "진영화": 9131,
      "파라": 9132,
      "펼치다": 9133,
      "힙합": 9134,
      "##자리": 9135,
      "재밋네": 9136,
      "크리스찬": 9137,
      "레이첼": 9138,
      "이정재": 9139,
      "신세계": 9140,
      "사무라이": 9141,
      "황정민": 9142,
      "군더더기": 9143,
      "so": 9144,
      "가관": 9145,
      "건데": 9146,
      "구혜": 9147,
      "귀찮다": 9148,
      "김구": 9149,
      "김선": 9150,
      "깨끗": 9151,
      "나오": 9152,
      "당당하다": 9153,
      "댄스": 9154,
      "매주": 9155,
      "묵직하다": 9156,
      "물어": 9157,
      "바랬": 9158,
      "반도": 9159,
      "생존": 9160,
      "손꼽다": 9161,
      "어중": 9162,
      "우왕": 9163,
      "유익": 9164,
      "의견": 9165,
      "이의": 9166,
      "자라다": 9167,
      "조명": 9168,
      "주원": 9169,
      "주관": 9170,
      "지켜": 9171,
      "지독하다": 9172,
      "집안": 9173,
      "추악하다": 9174,
      "출현": 9175,
      "크레딧": 9176,
      "클라스": 9177,
      "튀어": 9178,
      "파고": 9179,
      "한정": 9180,
      "흠잡다": 9181,
      "##수정": 9182,
      "##에몽": 9183,
      "##포머": 9184,
      "##바로": 9185,
      "##뚱맞": 9186,
      "oooo": 9187,
      "재밋엇": 9188,
      "##라이즈": 9189,
      "오랫동안": 9190,
      "대학생": 9191,
      "겨울왕국": 9192,
      "외로움": 9193,
      "엑스맨": 9194,
      "무의미하다": 9195,
      "어정쩡하다": 9196,
      "창피하다": 9197,
      "구혜선": 9198,
      "김구라": 9199,
      "지켜보다": 9200,
      "가해": 9201,
      "각각": 9202,
      "극본": 9203,
      "기승": 9204,
      "내려가다": 9205,
      "래야": 9206,
      "마스터": 9207,
      "방황": 9208,
      "비싸다": 9209,
      "성유리": 9210,
      "쓰이다": 9211,
      "오유": 9212,
      "오인": 9213,
      "오페": 9214,
      "울림": 9215,
      "원피스": 9216,
      "유우": 9217,
      "이순": 9218,
      "자의": 9219,
      "자격": 9220,
      "작전": 9221,
      "저렇다": 9222,
      "정석": 9223,
      "중후": 9224,
      "지배": 9225,
      "쪽팔": 9226,
      "투성이": 9227,
      "학창": 9228,
      "허구": 9229,
      "헛웃음": 9230,
      "흔들리다": 9231,
      "##★☆": 9232,
      "##본색": 9233,
      "##머리": 9234,
      "##탈출": 9235,
      "##와라": 9236,
      "##갛다": 9237,
      "하고프다": 9238,
      "아이고": 9239,
      "밖에는": 9240,
      "다운로드": 9241,
      "타이틀": 9242,
      "##나이트": 9243,
      "도망가다": 9244,
      "일어나": 9245,
      "올라오다": 9246,
      "왕가위": 9247,
      "이탈리아": 9248,
      "도라에몽": 9249,
      "어떠하다": 9250,
      "아기자기하다": 9251,
      "쪽팔리다": 9252,
      "7년": 9253,
      "90": 9254,
      "ㄱㄱ": 9255,
      "금지": 9256,
      "께서": 9257,
      "끝판": 9258,
      "난국": 9259,
      "디젤": 9260,
      "뚝뚝": 9261,
      "리스": 9262,
      "막상": 9263,
      "말리다": 9264,
      "멤버": 9265,
      "미이라": 9266,
      "본성": 9267,
      "볼일": 9268,
      "비참하다": 9269,
      "빼놓다": 9270,
      "사장": 9271,
      "살기": 9272,
      "아프": 9273,
      "어수": 9274,
      "어마": 9275,
      "열리다": 9276,
      "오마": 9277,
      "유령": 9278,
      "이중": 9279,
      "일찍": 9280,
      "잘나다": 9281,
      "장혁": 9282,
      "재현": 9283,
      "적극": 9284,
      "준영": 9285,
      "증명": 9286,
      "지대": 9287,
      "지적": 9288,
      "지브리": 9289,
      "집단": 9290,
      "차분하다": 9291,
      "채다": 9292,
      "클로": 9293,
      "팝콘": 9294,
      "픽션": 9295,
      "학원": 9296,
      "합치다": 9297,
      "후기": 9298,
      "히스": 9299,
      "히트": 9300,
      "##민아": 9301,
      "##아나": 9302,
      "##라면": 9303,
      "##라고": 9304,
      "##로그": 9305,
      "##공주": 9306,
      "##호하다": 9307,
      "##플린": 9308,
      "##알바": 9309,
      "살인자": 9310,
      "영웅본색": 9311,
      "인도영화": 9312,
      "다크나이트": 9313,
      "불과하다": 9314,
      "아이언맨": 9315,
      "트랜스포머": 9316,
      "어딘가": 9317,
      "적나라하다": 9318,
      "유익하다": 9319,
      "학창시절": 9320,
      "70": 9321,
      "me": 9322,
      "가기": 9323,
      "간간": 9324,
      "감옥": 9325,
      "감추다": 9326,
      "고요": 9327,
      "공식": 9328,
      "국제": 9329,
      "꺼내다": 9330,
      "데미": 9331,
      "마마": 9332,
      "마디": 9333,
      "마틴": 9334,
      "무리다": 9335,
      "배드": 9336,
      "버그": 9337,
      "벌리다": 9338,
      "볼걸": 9339,
      "빨갛다": 9340,
      "사귀": 9341,
      "새록": 9342,
      "성찰": 9343,
      "수사": 9344,
      "수위": 9345,
      "스무": 9346,
      "알리다": 9347,
      "애로": 9348,
      "어리": 9349,
      "올드": 9350,
      "우승": 9351,
      "장미": 9352,
      "장이": 9353,
      "재주": 9354,
      "잭슨": 9355,
      "전이": 9356,
      "젖다": 9357,
      "제왕": 9358,
      "주행": 9359,
      "천만": 9360,
      "출발": 9361,
      "커녕": 9362,
      "텐데": 9363,
      "한글": 9364,
      "화판": 9365,
      "흑역사": 9366,
      "##타쿠": 9367,
      "##im": 9368,
      "##사미": 9369,
      "##니스": 9370,
      "##게봣": 9371,
      "##진희": 9372,
      "##세계": 9373,
      "##남자": 9374,
      "##크스": 9375,
      "##저리": 9376,
      "##저분하다": 9377,
      "##새록": 9378,
      "##펙트": 9379,
      "197": 9380,
      "관람객": 9381,
      "어쩌다": 9382,
      "만족스럽다": 9383,
      "나머진": 9384,
      "전투씬": 9385,
      "오로라": 9386,
      "##000원": 9387,
      "드래곤볼": 9388,
      "스피드": 9389,
      "재수없다": 9390,
      "소지섭": 9391,
      "love": 9392,
      "사귀다": 9393,
      "새록새록": 9394,
      "st": 9395,
      "가을": 9396,
      "가안": 9397,
      "가난": 9398,
      "감기": 9399,
      "개발": 9400,
      "건아": 9401,
      "경의": 9402,
      "극혐": 9403,
      "김윤": 9404,
      "내보": 9405,
      "노튼": 9406,
      "도로": 9407,
      "돌이": 9408,
      "따스하다": 9409,
      "로보": 9410,
      "박정": 9411,
      "변호": 9412,
      "브리": 9413,
      "수치": 9414,
      "신데": 9415,
      "심정": 9416,
      "씨발": 9417,
      "아르": 9418,
      "아시": 9419,
      "안드": 9420,
      "어딜": 9421,
      "이경": 9422,
      "이혼": 9423,
      "잘알": 9424,
      "장근": 9425,
      "절절": 9426,
      "조승우": 9427,
      "증거": 9428,
      "지네": 9429,
      "친일": 9430,
      "태권": 9431,
      "한예": 9432,
      "흐지": 9433,
      "##프레": 9434,
      "##니버스": 9435,
      "##서트": 9436,
      "##데미": 9437,
      "##새다": 9438,
      "##릭스": 9439,
      "만큼의": 9440,
      "ㅋㅋㅋㅋㅋㅋㅋㅋㅋㅋㅋㅋ": 9441,
      "조차도": 9442,
      "로버츠": 9443,
      "최민식": 9444,
      "장동건": 9445,
      "이은주": 9446,
      "오페라": 9447,
      "##★☆★☆": 9448,
      "내보내다": 9449,
      "잘알다": 9450,
      "장근석": 9451,
      "28": 9452,
      "고도": 9453,
      "고치다": 9454,
      "꾸미다": 9455,
      "님들": 9456,
      "단역": 9457,
      "덜덜": 9458,
      "드라": 9459,
      "또는": 9460,
      "록키": 9461,
      "리브": 9462,
      "마구": 9463,
      "마케": 9464,
      "먼지": 9465,
      "멀쩡하다": 9466,
      "모방": 9467,
      "미리": 9468,
      "밟다": 9469,
      "비정": 9470,
      "사망": 9471,
      "샤론": 9472,
      "서인": 9473,
      "앞서": 9474,
      "야마": 9475,
      "에스": 9476,
      "영광": 9477,
      "올리": 9478,
      "외치다": 9479,
      "종합": 9480,
      "지고": 9481,
      "지존": 9482,
      "큐브": 9483,
      "태도": 9484,
      "파트": 9485,
      "허탈": 9486,
      "헤어": 9487,
      "훔치다": 9488,
      "##dd": 9489,
      "##고기": 9490,
      "##렐라": 9491,
      "시간대": 9492,
      "한국어": 9493,
      "예술가": 9494,
      "어지간하다": 9495,
      "런닝맨": 9496,
      "에드워드": 9497,
      "틀림없다": 9498,
      "공허하다": 9499,
      "깨끗하다": 9500,
      "어수선하다": 9501,
      "신데렐라": 9502,
      "흐지부지": 9503,
      "1분": 9504,
      "24": 9505,
      "sm": 9506,
      "sbs": 9507,
      "강호": 9508,
      "거야": 9509,
      "거대하다": 9510,
      "걸이": 9511,
      "경악": 9512,
      "공원": 9513,
      "기용": 9514,
      "냉정하다": 9515,
      "답지": 9516,
      "레드": 9517,
      "먹히다": 9518,
      "모순": 9519,
      "문성": 9520,
      "미야": 9521,
      "밀리다": 9522,
      "법정": 9523,
      "붉다": 9524,
      "서사": 9525,
      "서서": 9526,
      "아리": 9527,
      "안성기": 9528,
      "양반": 9529,
      "어서": 9530,
      "정준": 9531,
      "죽지": 9532,
      "지인": 9533,
      "쿨하다": 9534,
      "파악": 9535,
      "할배": 9536,
      "호감": 9537,
      "##스틴": 9538,
      "##비스": 9539,
      "##비디오": 9540,
      "##진짜": 9541,
      "##저나": 9542,
      "그나저나": 9543,
      "ㅋㅋㅋㅋㅋㅋㅋㅋㅋㅋㅋㅋㅋ": 9544,
      "123": 9545,
      "저급하다": 9546,
      "아카데미": 9547,
      "6년": 9548,
      "간의": 9549,
      "간직": 9550,
      "간단하다": 9551,
      "강제": 9552,
      "고자": 9553,
      "과잉": 9554,
      "긴박": 9555,
      "김성": 9556,
      "꼽히다": 9557,
      "남지": 9558,
      "내기": 9559,
      "노골": 9560,
      "대고": 9561,
      "뜯다": 9562,
      "명확하다": 9563,
      "몇개": 9564,
      "몰락": 9565,
      "배려": 9566,
      "수없이": 9567,
      "스킵": 9568,
      "아나": 9569,
      "아야": 9570,
      "알리": 9571,
      "엽문": 9572,
      "우월": 9573,
      "우아": 9574,
      "웅장": 9575,
      "이예": 9576,
      "임청": 9577,
      "작년": 9578,
      "잠자다": 9579,
      "장치": 9580,
      "절묘하다": 9581,
      "주네": 9582,
      "지역": 9583,
      "차마": 9584,
      "취급": 9585,
      "치면": 9586,
      "침묵": 9587,
      "토끼": 9588,
      "한텐": 9589,
      "호화": 9590,
      "흔적": 9591,
      "##리즘": 9592,
      "##마하다": 9593,
      "##은하다": 9594,
      "##진호": 9595,
      "##효진": 9596,
      "##슬리": 9597,
      "##센스": 9598,
      "##웍스": 9599,
      "드림웍스": 9600,
      "유지태": 9601,
      "흉내내": 9602,
      "김태희": 9603,
      "해안가": 9604,
      "전도연": 9605,
      "클리셰": 9606,
      "임청하": 9607,
      "3분": 9608,
      "300": 9609,
      "가미": 9610,
      "광팬": 9611,
      "기념": 9612,
      "나니": 9613,
      "나와라": 9614,
      "더니": 9615,
      "덜하다": 9616,
      "덴젤": 9617,
      "두려움": 9618,
      "똑똑": 9619,
      "망설": 9620,
      "메인": 9621,
      "무적": 9622,
      "무색": 9623,
      "미장": 9624,
      "배속": 9625,
      "부여": 9626,
      "소문": 9627,
      "실상": 9628,
      "엉엉": 9629,
      "원표": 9630,
      "유의": 9631,
      "전사": 9632,
      "줄리아": 9633,
      "증말": 9634,
      "지저분하다": 9635,
      "징징": 9636,
      "찰리": 9637,
      "초기": 9638,
      "추구": 9639,
      "카피": 9640,
      "행위": 9641,
      "##다보다": 9642,
      "##미스": 9643,
      "##스키": 9644,
      "##스텔": 9645,
      "##자키": 9646,
      "##부로": 9647,
      "##바닥": 9648,
      "##저기": 9649,
      "ㅠㅠㅠㅠㅠㅠ": 9650,
      "여기저기": 9651,
      "이연희": 9652,
      "♥♥♥♥": 9653,
      "김민종": 9654,
      "##레인저": 9655,
      "엑소시": 9656,
      "오우삼": 9657,
      "윌리엄": 9658,
      "김명민": 9659,
      "마케팅": 9660,
      "미야자키": 9661,
      "my": 9662,
      "on": 9663,
      "ㅂㅅ": 9664,
      "강지": 9665,
      "괜찬": 9666,
      "구지": 9667,
      "김소": 9668,
      "김남": 9669,
      "니당": 9670,
      "대비": 9671,
      "드립": 9672,
      "들보": 9673,
      "박사": 9674,
      "밖엔": 9675,
      "벗기다": 9676,
      "부드": 9677,
      "불필": 9678,
      "불안하다": 9679,
      "뽕짝": 9680,
      "섭외": 9681,
      "송지": 9682,
      "신민아": 9683,
      "쏟아지다": 9684,
      "어떡": 9685,
      "엉터리": 9686,
      "역다": 9687,
      "엿보다": 9688,
      "와중": 9689,
      "울음": 9690,
      "위기": 9691,
      "이서": 9692,
      "이선": 9693,
      "인척": 9694,
      "임신": 9695,
      "전의": 9696,
      "전해지다": 9697,
      "주목": 9698,
      "펼쳐": 9699,
      "함부로": 9700,
      "환장하다": 9701,
      "##현준": 9702,
      "##피아": 9703,
      "##if": 9704,
      "##카이": 9705,
      "##커스": 9706,
      "##하늘": 9707,
      "##요기": 9708,
      "##우치다": 9709,
      "##데이": 9710,
      "##효과": 9711,
      "##들리": 9712,
      "##스트라": 9713,
      "장난감": 9714,
      "2015년": 9715,
      "어쩌라고": 9716,
      "파이팅": 9717,
      "이민기": 9718,
      "스텝업": 9719,
      "신세경": 9720,
      "파워레인저": 9721,
      "따라오다": 9722,
      "애국심": 9723,
      "뮤직비디오": 9724,
      "어중간하다": 9725,
      "미장센": 9726,
      "니당다": 9727,
      "불필요하다": 9728,
      "3년": 9729,
      "간첩": 9730,
      "경계": 9731,
      "교수": 9732,
      "구멍": 9733,
      "구리다": 9734,
      "긋다": 9735,
      "노예": 9736,
      "눈요기": 9737,
      "대감": 9738,
      "똑바로": 9739,
      "말르다": 9740,
      "모성애": 9741,
      "물건": 9742,
      "베트": 9743,
      "사형": 9744,
      "생략": 9745,
      "성함": 9746,
      "송혜": 9747,
      "시민": 9748,
      "신념": 9749,
      "어의": 9750,
      "에일": 9751,
      "역활": 9752,
      "워커": 9753,
      "이재": 9754,
      "이던": 9755,
      "이스트": 9756,
      "자위": 9757,
      "저절": 9758,
      "전락": 9759,
      "정통": 9760,
      "제국": 9761,
      "중요": 9762,
      "체험": 9763,
      "초능력": 9764,
      "타령": 9765,
      "팔다": 9766,
      "한두": 9767,
      "행크스": 9768,
      "홍금": 9769,
      "후지": 9770,
      "##ee": 9771,
      "##스펜": 9772,
      "##었다": 9773,
      "##ce": 9774,
      "##밀리": 9775,
      "##않다": 9776,
      "하나요": 9777,
      "이나영": 9778,
      "미국인": 9779,
      "##♥♥♥♥": 9780,
      "강력하다": 9781,
      "##9999": 9782,
      "위원회": 9783,
      "디자인": 9784,
      "오인혜": 9785,
      "아프리카": 9786,
      "망설이다": 9787,
      "부드럽다": 9788,
      "펼쳐지다": 9789,
      "저절로": 9790,
      "60": 9791,
      "but": 9792,
      "do": 9793,
      "ㄹㅇ": 9794,
      "강시": 9795,
      "검다": 9796,
      "계획": 9797,
      "구도": 9798,
      "기어": 9799,
      "김영": 9800,
      "뉴욕": 9801,
      "도통": 9802,
      "땜시": 9803,
      "레인": 9804,
      "바쁘다": 9805,
      "배틀": 9806,
      "별다르다": 9807,
      "보스": 9808,
      "부각": 9809,
      "불면": 9810,
      "불행": 9811,
      "식스": 9812,
      "양조": 9813,
      "에러": 9814,
      "여우": 9815,
      "온몸": 9816,
      "일생": 9817,
      "재료": 9818,
      "저기": 9819,
      "정성": 9820,
      "주옥": 9821,
      "찜찜": 9822,
      "크루즈": 9823,
      "태양": 9824,
      "특징": 9825,
      "품다": 9826,
      "호텔": 9827,
      "활동": 9828,
      "##트라": 9829,
      "진짜진짜": 9830,
      "아이러": 9831,
      "크리스토": 9832,
      "사기꾼": 9833,
      "무리수": 9834,
      "어처구니없다": 9835,
      "인종차별": 9836,
      "열광하다": 9837,
      "홍금보": 9838,
      "35": 9839,
      "gt": 9840,
      "개잼": 9841,
      "경기": 9842,
      "고소": 9843,
      "구원": 9844,
      "국적": 9845,
      "그땐": 9846,
      "극찬": 9847,
      "나빠지다": 9848,
      "남발": 9849,
      "닥터": 9850,
      "마루": 9851,
      "면도": 9852,
      "무지하다": 9853,
      "문학": 9854,
      "미사": 9855,
      "미흡": 9856,
      "발레": 9857,
      "비치": 9858,
      "소수": 9859,
      "순정": 9860,
      "쓰러지다": 9861,
      "아자": 9862,
      "어벤": 9863,
      "에어": 9864,
      "여왕": 9865,
      "역쉬": 9866,
      "웹툰": 9867,
      "으아": 9868,
      "이신": 9869,
      "접함": 9870,
      "정재": 9871,
      "존내": 9872,
      "종류": 9873,
      "줄이다": 9874,
      "쥬라기": 9875,
      "진보": 9876,
      "쫒다": 9877,
      "쫓다": 9878,
      "초점": 9879,
      "최하": 9880,
      "퇴보": 9881,
      "퍼스": 9882,
      "활용": 9883,
      "흐뭇": 9884,
      "##겨지다": 9885,
      "##해진": 9886,
      "##문화": 9887,
      "##크로": 9888,
      "##러티브": 9889,
      "##여행": 9890,
      "##덩이": 9891,
      "보고서": 9892,
      "인터뷰": 9893,
      "##00000000": 9894,
      "##ㅇㅇㅇㅇ": 9895,
      "부탁드리다": 9896,
      "이준기": 9897,
      "감수성": 9898,
      "튀어나오다": 9899,
      "송혜교": 9900,
      "양조위": 9901,
      "ch": 9902,
      "가사": 9903,
      "거만": 9904,
      "곱씹": 9905,
      "구려": 9906,
      "김대": 9907,
      "꼬맹이": 9908,
      "노동자": 9909,
      "동호": 9910,
      "등급": 9911,
      "로렌": 9912,
      "만듬": 9913,
      "멘붕": 9914,
      "모야": 9915,
      "박스": 9916,
      "밴드": 9917,
      "부디": 9918,
      "부조": 9919,
      "삼가다": 9920,
      "선율": 9921,
      "슈렉": 9922,
      "슬래": 9923,
      "실종": 9924,
      "양동근": 9925,
      "에여": 9926,
      "용두": 9927,
      "일요일": 9928,
      "장나라": 9929,
      "전국": 9930,
      "존중": 9931,
      "존잼": 9932,
      "주고": 9933,
      "직원": 9934,
      "풍부하다": 9935,
      "플레이": 9936,
      "하디": 9937,
      "호강": 9938,
      "혹평": 9939,
      "훈남": 9940,
      "흥분": 9941,
      "##비하다": 9942,
      "##부림": 9943,
      "##더스": 9944,
      "##범수": 9945,
      "##맹랑": 9946,
      "##렉스": 9947,
      "으로가": 9948,
      "구성은": 9949,
      "나이트": 9950,
      "대가리": 9951,
      "top": 9952,
      "예수님": 9953,
      "정당화": 9954,
      "가해자": 9955,
      "비정상": 9956,
      "똑똑하다": 9957,
      "강지환": 9958,
      "송지효": 9959,
      "흐뭇하다": 9960,
      "곱씹다": 9961,
      "4년": 9962,
      "8년": 9963,
      "가운": 9964,
      "강조": 9965,
      "게리": 9966,
      "고발": 9967,
      "고로": 9968,
      "고정": 9969,
      "그레이": 9970,
      "긍정": 9971,
      "끊임": 9972,
      "노말": 9973,
      "다기": 9974,
      "대전": 9975,
      "도입": 9976,
      "레즈": 9977,
      "마인드": 9978,
      "맥스": 9979,
      "머피": 9980,
      "모티브": 9981,
      "몬스터": 9982,
      "미안": 9983,
      "밧다": 9984,
      "병원": 9985,
      "봣다": 9986,
      "사나이": 9987,
      "세우다": 9988,
      "아웃": 9989,
      "악플": 9990,
      "안함": 9991,
      "영감": 9992,
      "오토": 9993,
      "오타쿠": 9994,
      "요약": 9995,
      "용가리": 9996,
      "윤아": 9997,
      "의학": 9998,
      "저번": 9999,
      "접근": 10000,
      "주상": 10001,
      "지원": 10002,
      "찢다": 10003,
      "창작": 10004,
      "충만": 10005,
      "커지다": 10006,
      "콤비": 10007,
      "크리": 10008,
      "환타지": 10009,
      "히로": 10010,
      "##스턴": 10011,
      "##래도": 10012,
      "##gm": 10013,
      "##유미": 10014,
      "##렁하다": 10015,
      "##홀하다": 10016,
      "##넣다": 10017,
      "에게서": 10018,
      "아무래도": 10019,
      "중국인": 10020,
      "ㄷㄷㄷㄷ": 10021,
      "2005년": 10022,
      "허무맹랑": 10023,
      "15분": 10024,
      "이러니": 10025,
      "어째서": 10026,
      "공중파": 10027,
      "코스프레": 10028,
      "이순신": 10029,
      "간간히": 10030,
      "어떡하다": 10031,
      "에일리언": 10032,
      "아이러니": 10033,
      "슬래셔": 10034,
      "끊임없다": 10035,
      "주상욱": 10036,
      "am": 10037,
      "and": 10038,
      "htt": 10039,
      "가르다": 10040,
      "갇히다": 10041,
      "고백": 10042,
      "그딴": 10043,
      "긴박하다": 10044,
      "나나": 10045,
      "나마": 10046,
      "도하": 10047,
      "디아": 10048,
      "마주": 10049,
      "만날": 10050,
      "맛깔": 10051,
      "매혹": 10052,
      "명도": 10053,
      "미묘하다": 10054,
      "불후": 10055,
      "빅뱅": 10056,
      "뿌리": 10057,
      "상투": 10058,
      "성경": 10059,
      "수정": 10060,
      "스마": 10061,
      "신선": 10062,
      "어케": 10063,
      "엉덩이": 10064,
      "에릭": 10065,
      "원인": 10066,
      "이분": 10067,
      "이를": 10068,
      "임권": 10069,
      "임수정": 10070,
      "잠수": 10071,
      "장군": 10072,
      "전환": 10073,
      "젊음": 10074,
      "조직": 10075,
      "조악하다": 10076,
      "짐승": 10077,
      "충무": 10078,
      "톰크": 10079,
      "투표": 10080,
      "퍼즐": 10081,
      "펭귄": 10082,
      "한장": 10083,
      "헷갈리다": 10084,
      "##ion": 10085,
      "##하면": 10086,
      "##고하다": 10087,
      "##센트": 10088,
      "1000": 10089,
      "남자라면": 10090,
      "가슴속": 10091,
      "재밋는데": 10092,
      "정신차": 10093,
      "제작사": 10094,
      "2003년": 10095,
      "2012년": 10096,
      "12년": 10097,
      "남아돌다": 10098,
      "스티브": 10099,
      "아역배우": 10100,
      "와이프": 10101,
      "자랑스럽다": 10102,
      "구역질": 10103,
      "박신양": 10104,
      "가져오다": 10105,
      "http": 10106,
      "임권택": 10107,
      "톰크루즈": 10108,
      "bgm": 10109,
      "for": 10110,
      "고급": 10111,
      "곳곳": 10112,
      "권하다": 10113,
      "귀가": 10114,
      "글구": 10115,
      "김현": 10116,
      "난생": 10117,
      "남매": 10118,
      "노랗다": 10119,
      "눈뜨다": 10120,
      "닌자": 10121,
      "닫다": 10122,
      "독창": 10123,
      "디지다": 10124,
      "망상": 10125,
      "메리": 10126,
      "모호하다": 10127,
      "물씬": 10128,
      "미군": 10129,
      "미지": 10130,
      "미개": 10131,
      "박하": 10132,
      "볼땐": 10133,
      "분석": 10134,
      "비롯": 10135,
      "사로": 10136,
      "서스펜": 10137,
      "성숙하다": 10138,
      "시르다": 10139,
      "악의": 10140,
      "에든": 10141,
      "여정": 10142,
      "이념": 10143,
      "일도": 10144,
      "잘봣": 10145,
      "장편": 10146,
      "저녁": 10147,
      "적응": 10148,
      "지니다": 10149,
      "짓거리": 10150,
      "총알": 10151,
      "최진": 10152,
      "퀴어": 10153,
      "통수": 10154,
      "파일": 10155,
      "하트": 10156,
      "허영": 10157,
      "현빈": 10158,
      "활약": 10159,
      "훈련": 10160,
      "휴먼": 10161,
      "##et": 10162,
      "##스카": 10163,
      "##스틱": 10164,
      "##시고": 10165,
      "##요미": 10166,
      "케이트": 10167,
      "글쎄요": 10168,
      "한지민": 10169,
      "유아인": 10170,
      "핸드폰": 10171,
      "집어넣다": 10172,
      "강호동": 10173,
      "베트남": 10174,
      "찜찜하다": 10175,
      "용두사미": 10176,
      "서스펜스": 10177,
      "건너": 10178,
      "걸치다": 10179,
      "격전": 10180,
      "경제": 10181,
      "꺼리다": 10182,
      "날아가다": 10183,
      "노리다": 10184,
      "높이": 10185,
      "느슨": 10186,
      "대략": 10187,
      "라마": 10188,
      "루이스": 10189,
      "마초": 10190,
      "매트": 10191,
      "물의": 10192,
      "보물": 10193,
      "부재": 10194,
      "사라": 10195,
      "사춘": 10196,
      "샤를": 10197,
      "수다": 10198,
      "수애": 10199,
      "시보": 10200,
      "실소": 10201,
      "안티": 10202,
      "언급": 10203,
      "욕구": 10204,
      "용감하다": 10205,
      "은퇴": 10206,
      "이완": 10207,
      "이범수": 10208,
      "작렬": 10209,
      "장인": 10210,
      "저렴": 10211,
      "절실": 10212,
      "조조": 10213,
      "중이": 10214,
      "진작": 10215,
      "차이다": 10216,
      "푸른": 10217,
      "피라": 10218,
      "해적": 10219,
      "홍진호": 10220,
      "##까지": 10221,
      "##프트": 10222,
      "##ill": 10223,
      "##너지": 10224,
      "##ff": 10225,
      "##애니": 10226,
      "##창하다": 10227,
      "##칙하다": 10228,
      "이라곤": 10229,
      "지금껏": 10230,
      "호러물": 10231,
      "김선아": 10232,
      "파고들다": 10233,
      "로보캅": 10234,
      "불면증": 10235,
      "크리스토퍼": 10236,
      "느슨하다": 10237,
      "사춘기": 10238,
      "go": 10239,
      "경이": 10240,
      "고향": 10241,
      "교감": 10242,
      "구르다": 10243,
      "귀요미": 10244,
      "기네": 10245,
      "김재": 10246,
      "나발": 10247,
      "농구": 10248,
      "데드": 10249,
      "말기": 10250,
      "무성": 10251,
      "비난": 10252,
      "살아오다": 10253,
      "상치": 10254,
      "쓰기": 10255,
      "아시아": 10256,
      "앵글": 10257,
      "우익": 10258,
      "유부": 10259,
      "유오": 10260,
      "이스": 10261,
      "일드": 10262,
      "자매": 10263,
      "조인": 10264,
      "진화": 10265,
      "창의": 10266,
      "측면": 10267,
      "컨저": 10268,
      "클린": 10269,
      "타락": 10270,
      "한가": 10271,
      "헐크": 10272,
      "혹성": 10273,
      "황비": 10274,
      "휴가": 10275,
      "##만화": 10276,
      "##장애": 10277,
      "##르르": 10278,
      "##프라이즈": 10279,
      "##un": 10280,
      "##시키다": 10281,
      "##져스": 10282,
      "##싱턴": 10283,
      "##ve": 10284,
      "##겠다": 10285,
      "으로나": 10286,
      "에서야": 10287,
      "조금씩": 10288,
      "미국영화": 10289,
      "관객수": 10290,
      "그러하다": 10291,
      "2004년": 10292,
      "멍청이": 10293,
      "자유롭다": 10294,
      "리즈시절": 10295,
      "프레데": 10296,
      "자본주의": 10297,
      "이성재": 10298,
      "일베충": 10299,
      "박해일": 10300,
      "식스센스": 10301,
      "정재영": 10302,
      "유오성": 10303,
      "컨저링": 10304,
      "3일": 10305,
      "im": 10306,
      "가시": 10307,
      "가위": 10308,
      "갈아": 10309,
      "금방": 10310,
      "기간": 10311,
      "김강": 10312,
      "깨지다": 10313,
      "꼴리다": 10314,
      "다문화": 10315,
      "대장": 10316,
      "대도": 10317,
      "덕후": 10318,
      "땡기다": 10319,
      "루크": 10320,
      "메가": 10321,
      "무관": 10322,
      "미키": 10323,
      "미루다": 10324,
      "버금": 10325,
      "보호": 10326,
      "부턴": 10327,
      "불안": 10328,
      "비명": 10329,
      "산드라": 10330,
      "서우": 10331,
      "서프라이즈": 10332,
      "선하다": 10333,
      "습작": 10334,
      "실컷": 10335,
      "아키": 10336,
      "여동생": 10337,
      "왤다": 10338,
      "외우다": 10339,
      "요구": 10340,
      "운전": 10341,
      "인공": 10342,
      "일기": 10343,
      "자존": 10344,
      "잘살다": 10345,
      "재일": 10346,
      "주체": 10347,
      "죽여주다": 10348,
      "지리": 10349,
      "쫄깃": 10350,
      "창조": 10351,
      "추락": 10352,
      "트루": 10353,
      "패턴": 10354,
      "하차": 10355,
      "환불": 10356,
      "황홀하다": 10357,
      "후진": 10358,
      "##리나": 10359,
      "##지우": 10360,
      "##차기": 10361,
      "##무비": 10362,
      "##왜곡": 10363,
      "##괴담": 10364,
      "쓰레기통": 10365,
      "사랑과": 10366,
      "오랜만": 10367,
      "역사왜곡": 10368,
      "인디아나": 10369,
      "♡♡♡": 10370,
      "고질라": 10371,
      "우아하다": 10372,
      "저렴하다": 10373,
      "황비홍": 10374,
      "프레데터": 10375,
      "김강우": 10376,
      "50년": 10377,
      "bbb": 10378,
      "게왜": 10379,
      "경쾌하다": 10380,
      "고고": 10381,
      "고찰": 10382,
      "기계": 10383,
      "김동": 10384,
      "꼽는": 10385,
      "날로": 10386,
      "녹화": 10387,
      "대만": 10388,
      "도덕": 10389,
      "동기": 10390,
      "미만": 10391,
      "박지": 10392,
      "방이": 10393,
      "버젼": 10394,
      "법칙": 10395,
      "볼껄": 10396,
      "불친": 10397,
      "사토": 10398,
      "삽입": 10399,
      "서기": 10400,
      "성지": 10401,
      "수업": 10402,
      "악몽": 10403,
      "악평": 10404,
      "압박": 10405,
      "앞서다": 10406,
      "애도": 10407,
      "연장": 10408,
      "예매": 10409,
      "오디": 10410,
      "옹박": 10411,
      "외화": 10412,
      "워싱턴": 10413,
      "육체": 10414,
      "일일": 10415,
      "일제": 10416,
      "자제": 10417,
      "자세": 10418,
      "장쯔": 10419,
      "종일": 10420,
      "진주": 10421,
      "진지": 10422,
      "찬란": 10423,
      "치명": 10424,
      "코스트": 10425,
      "테론": 10426,
      "허준": 10427,
      "현장": 10428,
      "호프": 10429,
      "##타다": 10430,
      "##을때": 10431,
      "##스케": 10432,
      "##비아": 10433,
      "##바리": 10434,
      "##쟁이": 10435,
      "##ch": 10436,
      "##고리": 10437,
      "##11": 10438,
      "##♡♥": 10439,
      "이라기": 10440,
      "ㅠㅠㅠㅠㅠㅠㅠㅠㅠㅠ": 10441,
      "재밋었": 10442,
      "어느새다": 10443,
      "다음주": 10444,
      "2013년": 10445,
      "희망이": 10446,
      "에이리언": 10447,
      "신파극": 10448,
      "이러하다": 10449,
      "단편영화": 10450,
      "프레디": 10451,
      "두근거리다": 10452,
      "한예슬": 10453,
      "미흡하다": 10454,
      "로렌스": 10455,
      "충무로": 10456,
      "조인성": 10457,
      "혹성탈출": 10458,
      "장쯔이": 10459,
      "14년": 10460,
      "ㄴㄴ": 10461,
      "감당": 10462,
      "갑갑": 10463,
      "개구": 10464,
      "건드리다": 10465,
      "공개": 10466,
      "구라": 10467,
      "금요일": 10468,
      "기쁨": 10469,
      "김하늘": 10470,
      "까먹다": 10471,
      "나아지다": 10472,
      "내겐": 10473,
      "놀람": 10474,
      "닦다": 10475,
      "대리": 10476,
      "동료": 10477,
      "미인": 10478,
      "부러": 10479,
      "불리다": 10480,
      "사정": 10481,
      "삼다": 10482,
      "상의": 10483,
      "서방": 10484,
      "소방": 10485,
      "소박하다": 10486,
      "수술": 10487,
      "스톤": 10488,
      "시리다": 10489,
      "신성": 10490,
      "안경": 10491,
      "안질": 10492,
      "알차다": 10493,
      "앤딩": 10494,
      "예의": 10495,
      "오류": 10496,
      "옹호": 10497,
      "으으": 10498,
      "이요": 10499,
      "자빠지다": 10500,
      "작정": 10501,
      "재기": 10502,
      "졸음": 10503,
      "종이": 10504,
      "차지": 10505,
      "채플린": 10506,
      "클루": 10507,
      "태우다": 10508,
      "플래": 10509,
      "필수": 10510,
      "한없이": 10511,
      "합리": 10512,
      "해주": 10513,
      "호소": 10514,
      "화만": 10515,
      "화평": 10516,
      "##ain": 10517,
      "##피트": 10518,
      "##이트": 10519,
      "##소니": 10520,
      "##렷하다": 10521,
      "##잡이": 10522,
      "##ㅡㅡ": 10523,
      "우리네": 10524,
      "그러면": 10525,
      "2014": 10526,
      "ㅋㅋㅋㅋㅋㅋㅋㅋㅋㅋㅋㅋㅋㅋㅋㅋㅋㅋㅋㅋㅋㅋㅋㅋㅋㅋㅋ": 10527,
      "인터스텔": 10528,
      "기독교인": 10529,
      "런닝타임": 10530,
      "신비롭다": 10531,
      "바이러스": 10532,
      "이동욱": 10533,
      "지하철": 10534,
      "물어보다": 10535,
      "가난하다": 10536,
      "허탈하다": 10537,
      "안질리다": 10538,
      "인터스텔라": 10539,
      "2회": 10540,
      "간절하다": 10541,
      "거뭐": 10542,
      "거창하다": 10543,
      "괴롭": 10544,
      "그룹": 10545,
      "극한": 10546,
      "기리": 10547,
      "기차": 10548,
      "낚임": 10549,
      "도아": 10550,
      "때메": 10551,
      "리오": 10552,
      "마크": 10553,
      "마땅": 10554,
      "막스": 10555,
      "먹이다": 10556,
      "무니": 10557,
      "무도": 10558,
      "무려": 10559,
      "물리다": 10560,
      "발생": 10561,
      "부리": 10562,
      "부가": 10563,
      "브레이": 10564,
      "비유": 10565,
      "비비": 10566,
      "사서": 10567,
      "사연": 10568,
      "서민": 10569,
      "세이": 10570,
      "승화": 10571,
      "시네": 10572,
      "암살": 10573,
      "어둠": 10574,
      "어르다": 10575,
      "에의": 10576,
      "연쇄": 10577,
      "원빈": 10578,
      "유작": 10579,
      "자라": 10580,
      "자가": 10581,
      "전적": 10582,
      "전세계": 10583,
      "제법": 10584,
      "지성": 10585,
      "카이": 10586,
      "크로우": 10587,
      "탕웨이": 10588,
      "털리다": 10589,
      "파이다": 10590,
      "피트": 10591,
      "한쪽": 10592,
      "허전하다": 10593,
      "화해": 10594,
      "화답": 10595,
      "휴지": 10596,
      "##22": 10597,
      "##리칸": 10598,
      "##ld": 10599,
      "##아라": 10600,
      "##사이": 10601,
      "##가니": 10602,
      "##돌이": 10603,
      "##랬는데": 10604,
      "라고는": 10605,
      "관계자": 10606,
      "레이싱": 10607,
      "아마도": 10608,
      "사다코": 10609,
      "투자자": 10610,
      "이민정": 10611,
      "줄리엣": 10612,
      "되돌아보다": 10613,
      "브래드피트": 10614,
      "아메리칸": 10615,
      "변호사": 10616,
      "엑소시스트": 10617,
      "김남길": 10618,
      "가운데": 10619,
      "매트릭스": 10620,
      "99": 10621,
      "na": 10622,
      "sn": 10623,
      "개떡": 10624,
      "거울": 10625,
      "건축": 10626,
      "고려": 10627,
      "공격": 10628,
      "공존": 10629,
      "괴작": 10630,
      "나왓": 10631,
      "나약하다": 10632,
      "높아지다": 10633,
      "눈부": 10634,
      "라곤": 10635,
      "리더": 10636,
      "리들리": 10637,
      "모델": 10638,
      "묘미": 10639,
      "본드": 10640,
      "불꽃": 10641,
      "빼앗": 10642,
      "서극": 10643,
      "선전": 10644,
      "선배": 10645,
      "소나": 10646,
      "속도": 10647,
      "아따": 10648,
      "아랫": 10649,
      "아리다": 10650,
      "은은하다": 10651,
      "이남": 10652,
      "이슬": 10653,
      "익다": 10654,
      "임용": 10655,
      "진구": 10656,
      "진의": 10657,
      "진자": 10658,
      "질투": 10659,
      "찌푸": 10660,
      "최저": 10661,
      "치열하다": 10662,
      "콘서트": 10663,
      "통일": 10664,
      "파란": 10665,
      "풍기다": 10666,
      "회장": 10667,
      "##구다": 10668,
      "##틀러": 10669,
      "##리타": 10670,
      "##리어": 10671,
      "##장난": 10672,
      "##th": 10673,
      "##ht": 10674,
      "##두근": 10675,
      "##메오": 10676,
      "##재현": 10677,
      "##건강": 10678,
      "##달다": 10679,
      "##납다": 10680,
      "##젝트": 10681,
      "이나마": 10682,
      "정신건강": 10683,
      "##머니즘": 10684,
      "2012": 10685,
      "this": 10686,
      "ㅠㅠㅠㅠㅠ": 10687,
      "해리슨": 10688,
      "두근두근": 10689,
      "박신혜": 10690,
      "샤론스톤": 10691,
      "문성우": 10692,
      "어벤져스": 10693,
      "사랑과전쟁": 10694,
      "불친절하다": 10695,
      "시네마": 10696,
      "찌푸리다": 10697,
      "ever": 10698,
      "개망": 10699,
      "구매": 10700,
      "근본": 10701,
      "급전": 10702,
      "까메오": 10703,
      "난이": 10704,
      "낯선": 10705,
      "내공": 10706,
      "내러티브": 10707,
      "넓다": 10708,
      "넘버": 10709,
      "단조": 10710,
      "대기": 10711,
      "대책": 10712,
      "더보": 10713,
      "동의": 10714,
      "동아리": 10715,
      "때론": 10716,
      "멍하다": 10717,
      "무책": 10718,
      "문근": 10719,
      "미로": 10720,
      "발암": 10721,
      "보장": 10722,
      "부의": 10723,
      "불러": 10724,
      "소비": 10725,
      "수상": 10726,
      "순진하다": 10727,
      "스틸": 10728,
      "신현준": 10729,
      "실존": 10730,
      "쌓이다": 10731,
      "안주": 10732,
      "안젤": 10733,
      "알맹이": 10734,
      "어려움": 10735,
      "얽히다": 10736,
      "에리": 10737,
      "여진": 10738,
      "연령": 10739,
      "옴니버스": 10740,
      "유도": 10741,
      "이틀": 10742,
      "이진": 10743,
      "일대기": 10744,
      "작업": 10745,
      "잡지": 10746,
      "제한": 10747,
      "조각": 10748,
      "종말": 10749,
      "질주": 10750,
      "차기": 10751,
      "처참하다": 10752,
      "치기": 10753,
      "카타": 10754,
      "토미": 10755,
      "통한": 10756,
      "판타": 10757,
      "프렌": 10758,
      "필립": 10759,
      "헬기": 10760,
      "확신": 10761,
      "##현정": 10762,
      "##보고": 10763,
      "##라드": 10764,
      "##인데": 10765,
      "##일으키다": 10766,
      "##게임": 10767,
      "##혜정": 10768,
      "##규리": 10769,
      "##서린": 10770,
      "##막하다": 10771,
      "##려놓다": 10772,
      "##슬기": 10773,
      "##솔하다": 10774,
      "##줍다": 10775,
      "##깁슨": 10776,
      "일본어": 10777,
      "만큼도": 10778,
      "그러니까": 10779,
      "2008년": 10780,
      "ㅋㅋㅋㅋㅋㅋㅋㅋㅋㅋㅋㅋㅋㅋ": 10781,
      "주의자": 10782,
      "설레임": 10783,
      "페이지": 10784,
      "현대인": 10785,
      "테이크": 10786,
      "##oooooooo": 10787,
      "##1010": 10788,
      "가만히": 10789,
      "고소영": 10790,
      "잠수함": 10791,
      "갑갑하다": 10792,
      "마땅하다": 10793,
      "무책임": 10794,
      "문근영": 10795,
      "불러일으키다": 10796,
      "2일": 10797,
      "bl": 10798,
      "ne": 10799,
      "가도": 10800,
      "가버리다": 10801,
      "각인": 10802,
      "개독": 10803,
      "고래": 10804,
      "공산": 10805,
      "공효진": 10806,
      "광주": 10807,
      "군데": 10808,
      "균형": 10809,
      "근거": 10810,
      "김보": 10811,
      "나열": 10812,
      "뇌리": 10813,
      "다수": 10814,
      "독백": 10815,
      "동방": 10816,
      "되새": 10817,
      "똥폼": 10818,
      "띄우다": 10819,
      "로우": 10820,
      "롯데": 10821,
      "리플": 10822,
      "마츠": 10823,
      "멋대로": 10824,
      "명량": 10825,
      "몰래": 10826,
      "몸부림": 10827,
      "무얼": 10828,
      "무작": 10829,
      "무미": 10830,
      "발톱": 10831,
      "백만": 10832,
      "부수": 10833,
      "사냥": 10834,
      "수백": 10835,
      "수호": 10836,
      "스칼": 10837,
      "스캔": 10838,
      "스치다": 10839,
      "신은경": 10840,
      "쓰리다": 10841,
      "어딨": 10842,
      "어물": 10843,
      "얼른": 10844,
      "엑스트라": 10845,
      "용의": 10846,
      "우마": 10847,
      "의아": 10848,
      "이내": 10849,
      "이슈": 10850,
      "저예": 10851,
      "전통": 10852,
      "정은": 10853,
      "정글": 10854,
      "지니": 10855,
      "캐서린": 10856,
      "태극": 10857,
      "토마스": 10858,
      "트릭": 10859,
      "판치다": 10860,
      "함정": 10861,
      "허니": 10862,
      "형성": 10863,
      "호평": 10864,
      "혼나다": 10865,
      "휴머니즘": 10866,
      "흥겹다": 10867,
      "희극": 10868,
      "희한": 10869,
      "히치": 10870,
      "##op": 10871,
      "##나미": 10872,
      "##수하다": 10873,
      "##all": 10874,
      "##그리": 10875,
      "##산영화": 10876,
      "##일체": 10877,
      "##이야": 10878,
      "##엇음": 10879,
      "##세원": 10880,
      "##달리다": 10881,
      "##들러": 10882,
      "##셉션": 10883,
      "##팍하다": 10884,
      "까지의": 10885,
      "100분": 10886,
      "그리스": 10887,
      "아이리스": 10888,
      "에게나": 10889,
      "자신감": 10890,
[...]
