{
  "version": "1.0",
  "truncation": null,
  "padding": null,
  "added_tokens": [
    {
      "id": 0,
      "content": "[PAD]",
      "single_word": false,
      "lstrip": false,
      "rstrip": false,
      "normalized": false,
      "special": true
    },
    {
      "id": 1,
      "content": "[UNK]",
      "single_word": false,
      "lstrip": false,
      "rstrip": false,
      "normalized": false,
      "special": true
    },
    {
      "id": 2,
      "content": "[SOS]",
      "single_word": false,
      "lstrip": false,
      "rstrip": false,
      "normalized": false,
      "special": true
    }
  ],
  "normalizer": null,
  "pre_tokenizer": {
    "type": "Whitespace"
  },
  "post_processor": null,
  "decoder": null,
  "model": {
    "type": "BPE",
    "dropout": null,
    "unk_token": "[UNK]",
    "continuing_subword_prefix": null,
    "end_of_word_suffix": null,
    "fuse_unk": false,
    "byte_fallback": false,
    "ignore_merges": false,
    "vocab": {
      "[PAD]": 0,
      "[UNK]": 1,
      "[SOS]": 2,
      "!": 3,
      "%": 4,
      "'": 5,
      ",": 6,
      "-": 7,
      ".": 8,
      "0": 9,
      "1": 10,
      "2": 11,
      "3": 12,
      "4": 13,
      "5": 14,
      "6": 15,
      "7": 16,
      "8": 17,
      "9": 18,
      ";": 19,
      "?": 20,
      "A": 21,
      "B": 22,
      "C": 23,
      "D": 24,
      "L": 25,
      "N": 26,
      "O": 27,
      "P": 28,
      "S": 29,
      "X": 30,
      "_": 31,
      "a": 32,
      "c": 33,
      "g": 34,
      "j": 35,
      "k": 36,
      "n": 37,
      "o": 38,
      "s": 39,
      "~": 40,
      "…": 41,
      "ㅊ": 42,
      "ㅋ": 43,
      "ㅎ": 44,
      "ㅜ": 45,
      "ㅠ": 46,
      "가": 47,
      "각": 48,
      "간": 49,
      "갇": 50,
      "갈": 51,
      "감": 52,
      "갑": 53,
      "값": 54,
      "갔": 55,
      "강": 56,
      "갖": 57,
      "같": 58,
      "갚": 59,
      "개": 60,
      "객": 61,
      "갠": 62,
      "갯": 63,
      "갱": 64,
      "걍": 65,
      "걔": 66,
      "거": 67,
      "걱": 68,
      "건": 69,
      "걷": 70,
      "걸": 71,
      "검": 72,
      "겁": 73,
      "것": 74,
      "겉": 75,
      "게": 76,
      "겐": 77,
      "겜": 78,
      "겟": 79,
      "겠": 80,
      "겨": 81,
      "격": 82,
      "겪": 83,
      "견": 84,
      "결": 85,
      "겹": 86,
      "겼": 87,
      "경": 88,
      "곁": 89,
      "계": 90,
      "곗": 91,
      "고": 92,
      "곡": 93,
      "곤": 94,
      "곧": 95,
      "골": 96,
      "곰": 97,
      "곱": 98,
      "곳": 99,
      "공": 100,
      "과": 101,
      "관": 102,
      "광": 103,
      "괘": 104,
      "괜": 105,
      "괴": 106,
      "교": 107,
      "구": 108,
      "국": 109,
      "군": 110,
      "굳": 111,
      "굴": 112,
      "굶": 113,
      "굽": 114,
      "굿": 115,
      "궁": 116,
      "궈": 117,
      "권": 118,
      "궜": 119,
      "귀": 120,
      "귄": 121,
      "귈": 122,
      "귐": 123,
      "규": 124,
      "균": 125,
      "귤": 126,
      "그": 127,
      "극": 128,
      "근": 129,
      "글": 130,
      "긁": 131,
      "금": 132,
      "급": 133,
      "긋": 134,
      "긍": 135,
      "기": 136,
      "긴": 137,
      "길": 138,
      "김": 139,
      "깃": 140,
      "깅": 141,
      "깊": 142,
      "까": 143,
      "깍": 144,
      "깎": 145,
      "깐": 146,
      "깔": 147,
      "깜": 148,
      "깝": 149,
      "깠": 150,
      "깡": 151,
      "깨": 152,
      "깬": 153,
      "깰": 154,
      "깼": 155,
      "꺼": 156,
      "꺽": 157,
      "껀": 158,
      "껄": 159,
      "껏": 160,
      "께": 161,
      "껴": 162,
      "꼈": 163,
      "꼬": 164,
      "꼭": 165,
      "꼰": 166,
      "꼴": 167,
      "꼼": 168,
      "꼿": 169,
      "꽁": 170,
      "꽂": 171,
      "꽃": 172,
      "꽈": 173,
      "꽉": 174,
      "꽝": 175,
      "꽤": 176,
      "꾸": 177,
      "꾹": 178,
      "꾼": 179,
      "꿀": 180,
      "꿈": 181,
      "꿎": 182,
      "꿔": 183,
      "꿧": 184,
      "꿨": 185,
      "꿩": 186,
      "꿰": 187,
      "뀌": 188,
      "뀐": 189,
      "뀔": 190,
      "끄": 191,
      "끈": 192,
      "끊": 193,
      "끌": 194,
      "끓": 195,
      "끔": 196,
      "끗": 197,
      "끝": 198,
      "끼": 199,
      "낀": 200,
      "낄": 201,
      "낌": 202,
      "나": 203,
      "낙": 204,
      "낚": 205,
      "난": 206,
      "날": 207,
      "남": 208,
      "납": 209,
      "낫": 210,
      "났": 211,
      "낭": 212,
      "낮": 213,
      "낳": 214,
      "내": 215,
      "낸": 216,
      "낼": 217,
      "냄": 218,
      "냅": 219,
      "냈": 220,
      "냉": 221,
      "냐": 222,
      "냥": 223,
      "너": 224,
      "넋": 225,
      "넌": 226,
      "널": 227,
      "넓": 228,
      "넘": 229,
      "넛": 230,
      "넣": 231,
      "네": 232,
      "넥": 233,
      "넷": 234,
      "넹": 235,
      "녀": 236,
      "녁": 237,
      "년": 238,
      "념": 239,
      "녔": 240,
      "녕": 241,
      "노": 242,
      "녹": 243,
      "논": 244,
      "놀": 245,
      "놈": 246,
      "놉": 247,
      "농": 248,
      "높": 249,
      "놓": 250,
      "놔": 251,
      "놨": 252,
      "뇌": 253,
      "뇨": 254,
      "뇽": 255,
      "누": 256,
      "눅": 257,
      "눈": 258,
      "눌": 259,
      "눕": 260,
      "눠": 261,
      "눴": 262,
      "뉴": 263,
      "느": 264,
      "는": 265,
      "늘": 266,
      "늙": 267,
      "늠": 268,
      "능": 269,
      "늦": 270,
      "늪": 271,
      "니": 272,
      "닉": 273,
      "닌": 274,
      "닐": 275,
      "님": 276,
      "닙": 277,
      "닝": 278,
      "다": 279,
      "닥": 280,
      "닦": 281,
      "단": 282,
      "닫": 283,
      "달": 284,
      "닭": 285,
      "닮": 286,
      "닳": 287,
      "담": 288,
      "답": 289,
      "닷": 290,
      "당": 291,
      "닿": 292,
      "대": 293,
      "댄": 294,
      "댈": 295,
      "댓": 296,
      "댔": 297,
      "댜": 298,
      "더": 299,
      "덕": 300,
      "던": 301,
      "덜": 302,
      "덤": 303,
      "덥": 304,
      "덧": 305,
      "덩": 306,
      "덮": 307,
      "데": 308,
      "덴": 309,
      "델": 310,
      "뎌": 311,
      "뎠": 312,
      "도": 313,
      "독": 314,
      "돈": 315,
      "돋": 316,
      "돌": 317,
      "돕": 318,
      "동": 319,
      "돼": 320,
      "됐": 321,
      "되": 322,
      "된": 323,
      "될": 324,
      "됨": 325,
      "됩": 326,
      "됬": 327,
      "두": 328,
      "둑": 329,
      "둔": 330,
      "둘": 331,
      "둠": 332,
      "둥": 333,
      "둬": 334,
      "뒀": 335,
      "뒤": 336,
      "뒷": 337,
      "뒹": 338,
      "듀": 339,
      "드": 340,
      "득": 341,
      "든": 342,
      "듣": 343,
      "들": 344,
      "듦": 345,
      "듬": 346,
      "듭": 347,
      "듯": 348,
      "등": 349,
      "디": 350,
      "딘": 351,
      "딛": 352,
      "딜": 353,
      "딧": 354,
      "딨": 355,
      "딩": 356,
      "딪": 357,
      "따": 358,
      "딱": 359,
      "딴": 360,
      "딸": 361,
      "땀": 362,
      "땅": 363,
      "때": 364,
      "땐": 365,
      "땜": 366,
      "땠": 367,
      "땡": 368,
      "떄": 369,
      "떠": 370,
      "떡": 371,
      "떤": 372,
      "떨": 373,
      "떴": 374,
      "떻": 375,
      "떼": 376,
      "뗄": 377,
      "또": 378,
      "똑": 379,
      "똥": 380,
      "뚝": 381,
      "뚫": 382,
      "뚱": 383,
      "뛰": 384,
      "뛴": 385,
      "뜁": 386,
      "뜨": 387,
      "뜩": 388,
      "뜬": 389,
      "뜰": 390,
      "뜸": 391,
      "뜻": 392,
      "띄": 393,
      "띠": 394,
      "띰": 395,
      "띵": 396,
      "라": 397,
      "락": 398,
      "란": 399,
      "랄": 400,
      "람": 401,
      "랍": 402,
      "랐": 403,
      "랑": 404,
      "랖": 405,
      "래": 406,
      "랙": 407,
      "랜": 408,
      "랠": 409,
      "램": 410,
      "랩": 411,
      "랫": 412,
      "랬": 413,
      "랭": 414,
      "량": 415,
      "러": 416,
      "런": 417,
      "럴": 418,
      "럼": 419,
      "럽": 420,
      "럿": 421,
      "렀": 422,
      "렁": 423,
      "렇": 424,
      "레": 425,
      "렉": 426,
      "렌": 427,
      "렐": 428,
      "렘": 429,
      "렛": 430,
      "렜": 431,
      "려": 432,
      "력": 433,
      "련": 434,
      "렬": 435,
      "렴": 436,
      "렵": 437,
      "렷": 438,
      "렸": 439,
      "령": 440,
      "례": 441,
      "로": 442,
      "록": 443,
      "론": 444,
      "롤": 445,
      "롭": 446,
      "롯": 447,
      "롱": 448,
      "뢰": 449,
      "료": 450,
      "루": 451,
      "룩": 452,
      "룰": 453,
      "룸": 454,
      "룽": 455,
      "뤄": 456,
      "류": 457,
      "륜": 458,
      "률": 459,
      "르": 460,
      "륵": 461,
      "른": 462,
      "를": 463,
      "름": 464,
      "릅": 465,
      "릇": 466,
      "릎": 467,
      "리": 468,
      "릭": 469,
      "린": 470,
      "릴": 471,
      "림": 472,
      "립": 473,
      "릿": 474,
      "링": 475,
      "마": 476,
      "막": 477,
      "만": 478,
      "많": 479,
      "말": 480,
      "맘": 481,
      "맙": 482,
      "맛": 483,
      "망": 484,
      "맞": 485,
      "맡": 486,
      "매": 487,
      "맥": 488,
      "맨": 489,
      "맴": 490,
      "맷": 491,
      "맹": 492,
      "맺": 493,
      "머": 494,
      "먹": 495,
      "먼": 496,
      "멀": 497,
      "멈": 498,
      "멋": 499,
      "멍": 500,
      "메": 501,
      "멘": 502,
      "멤": 503,
      "며": 504,
      "면": 505,
      "명": 506,
      "몇": 507,
      "모": 508,
      "목": 509,
      "몫": 510,
      "몬": 511,
      "몰": 512,
      "몸": 513,
      "몹": 514,
      "못": 515,
      "몽": 516,
      "묘": 517,
      "무": 518,
      "묵": 519,
      "문": 520,
      "묻": 521,
      "물": 522,
      "뭇": 523,
      "뭉": 524,
      "뭐": 525,
      "뭔": 526,
      "뭘": 527,
      "뭣": 528,
      "뮤": 529,
      "미": 530,
      "민": 531,
      "믿": 532,
      "밀": 533,
      "밉": 534,
      "밌": 535,
      "밍": 536,
      "밑": 537,
      "바": 538,
      "박": 539,
      "밖": 540,
      "반": 541,
      "받": 542,
      "발": 543,
      "밝": 544,
      "밟": 545,
      "밤": 546,
      "밥": 547,
      "방": 548,
      "밭": 549,
      "배": 550,
      "백": 551,
      "밸": 552,
      "뱃": 553,
      "뱄": 554,
      "뱉": 555,
      "버": 556,
      "벅": 557,
      "번": 558,
      "벋": 559,
      "벌": 560,
      "범": 561,
      "법": 562,
      "벗": 563,
      "벚": 564,
      "베": 565,
      "벤": 566,
      "벨": 567,
      "벴": 568,
      "벼": 569,
      "벽": 570,
      "변": 571,
      "별": 572,
      "볍": 573,
      "병": 574,
      "볕": 575,
      "보": 576,
      "복": 577,
      "볶": 578,
      "본": 579,
      "볼": 580,
      "봄": 581,
      "봅": 582,
      "봇": 583,
      "봉": 584,
      "봐": 585,
      "봤": 586,
      "뵈": 587,
      "부": 588,
      "북": 589,
      "분": 590,
      "불": 591,
      "붓": 592,
      "붕": 593,
      "붙": 594,
      "뷔": 595,
      "브": 596,
      "블": 597,
      "비": 598,
      "빈": 599,
      "빌": 600,
      "빔": 601,
      "빗": 602,
      "빙": 603,
      "빚": 604,
      "빛": 605,
      "빠": 606,
      "빡": 607,
      "빨": 608,
      "빴": 609,
      "빵": 610,
      "빼": 611,
      "빽": 612,
      "뺄": 613,
      "뺏": 614,
      "뺴": 615,
      "뻐": 616,
      "뻑": 617,
      "뻔": 618,
      "뻘": 619,
      "뻣": 620,
      "뻤": 621,
      "뻥": 622,
      "뽀": 623,
      "뽑": 624,
      "뽕": 625,
      "뿅": 626,
      "뿌": 627,
      "뿍": 628,
      "뿐": 629,
      "쁘": 630,
      "쁜": 631,
      "쁠": 632,
      "쁨": 633,
      "삐": 634,
      "삔": 635,
      "사": 636,
      "삭": 637,
      "산": 638,
      "살": 639,
      "삶": 640,
      "삼": 641,
      "삽": 642,
      "삿": 643,
      "샀": 644,
      "상": 645,
      "새": 646,
      "색": 647,
      "샌": 648,
      "샐": 649,
      "샘": 650,
      "샜": 651,
      "생": 652,
      "샤": 653,
      "서": 654,
      "석": 655,
      "섞": 656,
      "선": 657,
      "섣": 658,
      "설": 659,
      "섬": 660,
      "섭": 661,
      "섯": 662,
      "섰": 663,
      "성": 664,
      "세": 665,
      "섹": 666,
      "센": 667,
      "셀": 668,
      "셔": 669,
      "션": 670,
      "셥": 671,
      "셨": 672,
      "소": 673,
      "속": 674,
      "손": 675,
      "솔": 676,
      "솜": 677,
      "송": 678,
      "쇠": 679,
      "쇼": 680,
      "숍": 681,
      "숏": 682,
      "수": 683,
      "숙": 684,
      "순": 685,
      "술": 686,
      "숨": 687,
      "숫": 688,
      "숭": 689,
      "쉬": 690,
      "쉴": 691,
      "쉼": 692,
      "쉽": 693,
      "슈": 694,
      "스": 695,
      "슨": 696,
      "슬": 697,
      "슴": 698,
      "습": 699,
      "슷": 700,
      "승": 701,
      "시": 702,
      "식": 703,
      "신": 704,
      "실": 705,
      "싫": 706,
      "심": 707,
      "십": 708,
      "싱": 709,
      "싶": 710,
      "싸": 711,
      "싹": 712,
      "싼": 713,
      "쌀": 714,
      "쌈": 715,
      "쌍": 716,
      "쌓": 717,
      "쌤": 718,
      "쌩": 719,
      "써": 720,
      "썩": 721,
      "썰": 722,
      "썸": 723,
      "썹": 724,
      "썼": 725,
      "쎄": 726,
      "쎈": 727,
      "쎌": 728,
      "쏘": 729,
      "쏜": 730,
      "쏟": 731,
      "쏠": 732,
      "쐬": 733,
      "쑤": 734,
      "쑥": 735,
      "쓰": 736,
      "쓴": 737,
      "쓸": 738,
      "씀": 739,
      "씁": 740,
      "씌": 741,
      "씨": 742,
      "씩": 743,
      "씬": 744,
      "씰": 745,
      "씸": 746,
      "씹": 747,
      "씻": 748,
      "씽": 749,
      "아": 750,
      "악": 751,
      "안": 752,
      "앉": 753,
      "않": 754,
      "알": 755,
      "압": 756,
      "앗": 757,
      "았": 758,
      "앙": 759,
      "앞": 760,
      "애": 761,
      "액": 762,
      "앨": 763,
      "앱": 764,
      "야": 765,
      "약": 766,
      "얄": 767,
      "얇": 768,
      "양": 769,
      "얘": 770,
      "어": 771,
      "억": 772,
      "언": 773,
      "얻": 774,
      "얼": 775,
      "얽": 776,
      "엄": 777,
      "업": 778,
      "없": 779,
      "엇": 780,
      "었": 781,
      "엉": 782,
      "엊": 783,
      "에": 784,
      "엔": 785,
      "엘": 786,
      "엠": 787,
      "엣": 788,
      "여": 789,
      "역": 790,
      "엮": 791,
      "연": 792,
      "열": 793,
      "염": 794,
      "엽": 795,
      "엿": 796,
      "였": 797,
      "영": 798,
      "옆": 799,
      "옇": 800,
      "예": 801,
      "옛": 802,
      "오": 803,
      "옥": 804,
      "온": 805,
      "올": 806,
      "옮": 807,
      "옳": 808,
      "옴": 809,
      "옵": 810,
      "옷": 811,
      "와": 812,
      "완": 813,
      "왓": 814,
      "왔": 815,
      "왕": 816,
      "왜": 817,
      "왠": 818,
      "왤": 819,
      "외": 820,
      "왼": 821,
      "욌": 822,
      "요": 823,
      "욕": 824,
      "욜": 825,
      "용": 826,
      "우": 827,
      "욱": 828,
      "운": 829,
      "울": 830,
      "움": 831,
      "웁": 832,
      "웃": 833,
      "워": 834,
      "원": 835,
      "월": 836,
      "웠": 837,
      "웨": 838,
      "웬": 839,
      "웹": 840,
      "웽": 841,
      "위": 842,
      "윗": 843,
      "윙": 844,
      "유": 845,
      "육": 846,
      "윤": 847,
      "율": 848,
      "으": 849,
      "은": 850,
      "을": 851,
      "음": 852,
      "응": 853,
      "의": 854,
      "이": 855,
      "익": 856,
      "인": 857,
      "일": 858,
      "읽": 859,
      "잃": 860,
      "임": 861,
      "입": 862,
      "잇": 863,
      "있": 864,
      "잊": 865,
      "잌": 866,
      "자": 867,
      "작": 868,
      "잔": 869,
      "잖": 870,
      "잘": 871,
      "잠": 872,
      "잡": 873,
      "잤": 874,
      "장": 875,
      "잦": 876,
      "재": 877,
      "잼": 878,
      "잿": 879,
      "쟁": 880,
      "저": 881,
      "적": 882,
      "전": 883,
      "절": 884,
      "젊": 885,
      "점": 886,
      "접": 887,
      "젔": 888,
      "정": 889,
      "젖": 890,
      "제": 891,
      "젝": 892,
      "젠": 893,
      "젤": 894,
      "젯": 895,
      "져": 896,
      "젹": 897,
      "졋": 898,
      "졌": 899,
      "조": 900,
      "족": 901,
      "존": 902,
      "졸": 903,
      "좀": 904,
      "좁": 905,
      "종": 906,
      "좋": 907,
      "좌": 908,
      "죄": 909,
      "죠": 910,
      "주": 911,
      "죽": 912,
      "준": 913,
      "줄": 914,
      "줌": 915,
      "줍": 916,
      "중": 917,
      "줘": 918,
      "줬": 919,
      "쥐": 920,
      "쥬": 921,
      "즈": 922,
      "즉": 923,
      "즐": 924,
      "즘": 925,
      "즙": 926,
      "증": 927,
      "지": 928,
      "직": 929,
      "진": 930,
      "질": 931,
      "짐": 932,
      "집": 933,
      "짓": 934,
      "징": 935,
      "짚": 936,
      "짜": 937,
      "짝": 938,
      "짠": 939,
      "짤": 940,
      "짧": 941,
      "짬": 942,
      "짰": 943,
      "짱": 944,
      "째": 945,
      "짼": 946,
      "쨌": 947,
      "쩌": 948,
      "쩍": 949,
      "쩐": 950,
      "쩔": 951,
      "쩝": 952,
      "쩡": 953,
      "쪄": 954,
      "쪘": 955,
      "쪼": 956,
      "쪽": 957,
      "쫄": 958,
      "쫌": 959,
      "쫙": 960,
      "쭈": 961,
      "쭉": 962,
      "쭤": 963,
      "쯤": 964,
      "찌": 965,
      "찍": 966,
      "찐": 967,
      "찔": 968,
      "찜": 969,
      "찝": 970,
      "찡": 971,
      "찢": 972,
      "차": 973,
      "착": 974,
      "찬": 975,
      "찮": 976,
      "찰": 977,
      "참": 978,
      "찹": 979,
      "찼": 980,
      "창": 981,
      "찾": 982,
      "채": 983,
      "책": 984,
      "챔": 985,
      "챗": 986,
      "챘": 987,
      "챙": 988,
      "처": 989,
      "척": 990,
      "천": 991,
      "철": 992,
      "첨": 993,
      "첩": 994,
      "첫": 995,
      "청": 996,
      "체": 997,
      "쳇": 998,
      "쳐": 999,
      "쳤": 1000,
      "초": 1001,
      "촉": 1002,
      "촌": 1003,
      "총": 1004,
      "촬": 1005,
      "최": 1006,
      "추": 1007,
      "축": 1008,
      "춘": 1009,
      "출": 1010,
      "춤": 1011,
      "춥": 1012,
      "충": 1013,
      "춰": 1014,
      "췄": 1015,
      "취": 1016,
      "츄": 1017,
      "츠": 1018,
      "측": 1019,
      "츤": 1020,
      "층": 1021,
      "치": 1022,
      "칙": 1023,
      "친": 1024,
      "칠": 1025,
      "침": 1026,
      "칩": 1027,
      "칫": 1028,
      "칭": 1029,
      "카": 1030,
      "칼": 1031,
      "캄": 1032,
      "캐": 1033,
      "캔": 1034,
      "캬": 1035,
      "커": 1036,
      "컥": 1037,
      "컨": 1038,
      "컴": 1039,
      "컷": 1040,
      "컸": 1041,
      "컹": 1042,
      "케": 1043,
      "켓": 1044,
      "켜": 1045,
      "켠": 1046,
      "켰": 1047,
      "코": 1048,
      "콕": 1049,
      "콘": 1050,
      "콜": 1051,
      "콤": 1052,
      "콧": 1053,
      "콩": 1054,
      "쾌": 1055,
      "쿠": 1056,
      "쿨": 1057,
      "쿵": 1058,
      "쿼": 1059,
      "퀴": 1060,
      "큐": 1061,
      "크": 1062,
      "큰": 1063,
      "클": 1064,
      "큼": 1065,
      "킁": 1066,
      "키": 1067,
      "킥": 1068,
      "킨": 1069,
      "킬": 1070,
      "킴": 1071,
      "킹": 1072,
      "타": 1073,
      "탁": 1074,
      "탄": 1075,
      "탈": 1076,
      "탐": 1077,
      "탑": 1078,
      "탓": 1079,
      "탔": 1080,
      "탕": 1081,
      "태": 1082,
      "택": 1083,
      "탱": 1084,
      "터": 1085,
      "턱": 1086,
      "턴": 1087,
      "털": 1088,
      "텀": 1089,
      "텁": 1090,
      "텄": 1091,
      "텅": 1092,
      "테": 1093,
      "텍": 1094,
      "텐": 1095,
      "텔": 1096,
      "템": 1097,
      "텨": 1098,
      "텻": 1099,
      "텼": 1100,
      "토": 1101,
      "톡": 1102,
      "톤": 1103,
      "톱": 1104,
      "통": 1105,
      "퇴": 1106,
      "투": 1107,
      "툭": 1108,
      "툰": 1109,
      "툴": 1110,
      "툼": 1111,
      "퉁": 1112,
      "퉜": 1113,
      "튀": 1114,
      "튜": 1115,
      "트": 1116,
      "특": 1117,
      "틀": 1118,
      "틈": 1119,
      "틋": 1120,
      "티": 1121,
      "틱": 1122,
      "팀": 1123,
      "팁": 1124,
      "팅": 1125,
      "파": 1126,
      "팍": 1127,
      "판": 1128,
      "팔": 1129,
      "팠": 1130,
      "패": 1131,
      "팩": 1132,
      "팬": 1133,
      "팸": 1134,
      "퍼": 1135,
      "펑": 1136,
      "페": 1137,
      "펜": 1138,
      "펨": 1139,
      "펭": 1140,
      "펴": 1141,
      "편": 1142,
      "펼": 1143,
      "평": 1144,
      "폐": 1145,
      "포": 1146,
      "폭": 1147,
      "폰": 1148,
      "폼": 1149,
      "퐈": 1150,
      "표": 1151,
      "푸": 1152,
      "푹": 1153,
      "푼": 1154,
      "풀": 1155,
      "품": 1156,
      "풋": 1157,
      "풍": 1158,
      "퓨": 1159,
      "프": 1160,
      "픈": 1161,
      "플": 1162,
      "픔": 1163,
      "픕": 1164,
      "피": 1165,
      "픽": 1166,
      "핀": 1167,
      "필": 1168,
      "핍": 1169,
      "핏": 1170,
      "핑": 1171,
      "하": 1172,
      "학": 1173,
      "한": 1174,
      "할": 1175,
      "함": 1176,
      "합": 1177,
      "핫": 1178,
      "항": 1179,
      "해": 1180,
      "핸": 1181,
      "햇": 1182,
      "했": 1183,
      "행": 1184,
      "햐": 1185,
      "향": 1186,
      "허": 1187,
      "헉": 1188,
      "헌": 1189,
      "헐": 1190,
      "험": 1191,
      "헛": 1192,
      "헤": 1193,
      "헥": 1194,
      "헬": 1195,
      "헷": 1196,
      "헹": 1197,
      "혀": 1198,
      "현": 1199,
      "혈": 1200,
      "혐": 1201,
      "협": 1202,
      "혔": 1203,
      "형": 1204,
      "혜": 1205,
      "호": 1206,
      "혹": 1207,
      "혼": 1208,
      "홀": 1209,
      "홈": 1210,
      "화": 1211,
      "확": 1212,
      "환": 1213,
      "활": 1214,
      "홧": 1215,
      "황": 1216,
      "회": 1217,
      "획": 1218,
      "효": 1219,
      "후": 1220,
      "훅": 1221,
      "훈": 1222,
      "훌": 1223,
      "훔": 1224,
      "훨": 1225,
      "휘": 1226,
      "휙": 1227,
      "휨": 1228,
      "휴": 1229,
      "흐": 1230,
      "흑": 1231,
      "흔": 1232,
      "흘": 1233,
      "흠": 1234,
      "흡": 1235,
      "흥": 1236,
      "희": 1237,
      "흰": 1238,
      "히": 1239,
      "힌": 1240,
      "힐": 1241,
      "힘": 1242,
      "힙": 1243,
      "세요": 1244,
      "하는": 1245,
      "보세요": 1246,
      "사람": 1247,
      "예요": 1248,
      "거예요": 1249,
      "좋아": 1250,
      "어요": 1251,
      "사랑": 1252,
      "네요": 1253,
      "니다": 1254,
      "생각": 1255,
      "친구": 1256,
      "해보세요": 1257,
      "봐요": 1258,
      "는데": 1259,
      "하고": 1260,
      "마음": 1261,
      "같아": 1262,
      "너무": 1263,
      "좋아하는": 1264,
      "이별": 1265,
      "연락": 1266,
      "하지": 1267,
      "헤어": 1268,
      "있을": 1269,
      "여자": 1270,
      "남자": 1271,
      "으면": 1272,
      "힘들": 1273,
      "시간": 1274,
      "해요": 1275,
      "좋은": 1276,
      "나봐요": 1277,
      "많이": 1278,
      "사람이": 1279,
      "하면": 1280,
      "하세요": 1281,
      "에요": 1282,
      "싶어": 1283,
      "으로": 1284,
      "한테": 1285,
      "에서": 1286,
      "같아요": 1287,
      "있어요": 1288,
      "까요": 1289,
      "주세요": 1290,
      "겠어요": 1291,
      "아요": 1292,
      "친구가": 1293,
      "있는": 1294,
      "만나": 1295,
      "오늘": 1296,
      "마세요": 1297,
      "하게": 1298,
      "해야": 1299,
      "이에요": 1300,
      "겠네요": 1301,
      "자신": 1302,
      "해도": 1303,
      "이제": 1304,
      "에게": 1305,
      "겠지": 1306,
      "좋을": 1307,
      "습니다": 1308,
      "괜찮": 1309,
      "아니": 1310,
      "연애": 1311,
      "이야": 1312,
      "라고": 1313,
      "할까": 1314,
      "마음이": 1315,
      "싶다": 1316,
      "게요": 1317,
      "내가": 1318,
      "필요": 1319,
      "는게": 1320,
      "모르": 1321,
      "다른": 1322,
      "가봐요": 1323,
      "어떻": 1324,
      "다면": 1325,
      "시간이": 1326,
      "없어": 1327,
      "어떻게": 1328,
      "들어": 1329,
      "것도": 1330,
      "짝남": 1331,
      "헤어진": 1332,
      "있어": 1333,
      "보고": 1334,
      "혼자": 1335,
      "당신": 1336,
      "겠어": 1337,
      "겠죠": 1338,
      "다고": 1339,
      "다시": 1340,
      "일이": 1341,
      "수도": 1342,
      "들이": 1343,
      "정리": 1344,
      "인데": 1345,
      "정말": 1346,
      "지금": 1347,
      "결혼": 1348,
      "하나": 1349,
      "기다": 1350,
      "같이": 1351,
      "같은": 1352,
      "그런": 1353,
      "중요": 1354,
      "제가": 1355,
      "행복": 1356,
      "조금": 1357,
      "다가": 1358,
      "준비": 1359,
      "렇게": 1360,
      "보다": 1361,
      "고민": 1362,
      "아직": 1363,
      "해서": 1364,
      "사랑이": 1365,
      "라요": 1366,
      "보는": 1367,
      "선물": 1368,
      "없는": 1369,
      "지도": 1370,
      "해주세요": 1371,
      "없어요": 1372,
      "자꾸": 1373,
      "찾아": 1374,
      "힘든": 1375,
      "돼요": 1376,
      "방법": 1377,
      "아무": 1378,
      "합니다": 1379,
      "물어": 1380,
      "저도": 1381,
      "고백": 1382,
      "까지": 1383,
      "볼까": 1384,
      "이라": 1385,
      "지만": 1386,
      "이야기": 1387,
      "짝녀": 1388,
      "했어": 1389,
      "그럴": 1390,
      "니까요": 1391,
      "바랄": 1392,
      "싶은": 1393,
      "이네요": 1394,
      "짝사랑": 1395,
      "가는": 1396,
      "대로": 1397,
      "진짜": 1398,
      "하기": 1399,
      "겠다": 1400,
      "서로": 1401,
      "후회": 1402,
      "먼저": 1403,
      "받아": 1404,
      "바랄게요": 1405,
      "사귀": 1406,
      "봅니다": 1407,
      "될까": 1408,
      "먹고": 1409,
      "시작": 1410,
      "헤어지": 1411,
      "있을까": 1412,
      "이죠": 1413,
      "드세요": 1414,
      "을까": 1415,
      "헤어진지": 1416,
      "하죠": 1417,
      "인가": 1418,
      "그녀": 1419,
      "야지": 1420,
      "에는": 1421,
      "계속": 1422,
      "아닌": 1423,
      "자고": 1424,
      "좋아요": 1425,
      "가능": 1426,
      "감정": 1427,
      "나를": 1428,
      "만큼": 1429,
      "많은": 1430,
      "여행": 1431,
      "하는게": 1432,
      "공부": 1433,
      "하루": 1434,
      "마음을": 1435,
      "여자친구가": 1436,
      "이트": 1437,
      "지는": 1438,
      "거라": 1439,
      "기분": 1440,
      "여자친구": 1441,
      "힘드": 1442,
      "하는데": 1443,
      "려고": 1444,
      "여친": 1445,
      "이상": 1446,
      "남자친구가": 1447,
      "랍니다": 1448,
      "가고": 1449,
      "신경": 1450,
      "않아요": 1451,
      "기가": 1452,
      "좋죠": 1453,
      "다는": 1454,
      "리는": 1455,
      "했는데": 1456,
      "니까": 1457,
      "걱정": 1458,
      "싫어": 1459,
      "그래": 1460,
      "나는": 1461,
      "바랍니다": 1462,
      "알아": 1463,
      "관심": 1464,
      "입니다": 1465,
      "해주": 1466,
      "데이트": 1467,
      "상대": 1468,
      "면서": 1469,
      "남자친구": 1470,
      "힘들어": 1471,
      "기억": 1472,
      "나요": 1473,
      "남친": 1474,
      "머리": 1475,
      "되는": 1476,
      "하네": 1477,
      "화를": 1478,
      "말해보세요": 1479,
      "상처": 1480,
      "적인": 1481,
      "생각해요": 1482,
      "사람은": 1483,
      "로운": 1484,
      "무슨": 1485,
      "스러": 1486,
      "이랑": 1487,
      "있었": 1488,
      "자기": 1489,
      "타는": 1490,
      "했던": 1491,
      "어떨": 1492,
      "이렇게": 1493,
      "인지": 1494,
      "좋겠어요": 1495,
      "충분": 1496,
      "걸까": 1497,
      "어떤": 1498,
      "언제": 1499,
      "표현": 1500,
      "말고": 1501,
      "오래": 1502,
      "있으면": 1503,
      "카톡": 1504,
      "하다": 1505,
      "그냥": 1506,
      "텐데": 1507,
      "함께": 1508,
      "부터": 1509,
      "않는": 1510,
      "헤어졌": 1511,
      "나만": 1512,
      "돌아": 1513,
      "않을": 1514,
      "어보세요": 1515,
      "이었": 1516,
      "힘드네": 1517,
      "누구": 1518,
      "몰라요": 1519,
      "사랑은": 1520,
      "왔어": 1521,
      "이해": 1522,
      "라도": 1523,
      "보내": 1524,
      "생겼": 1525,
      "있는데": 1526,
      "사람을": 1527,
      "사랑하는": 1528,
      "자신을": 1529,
      "겠지만": 1530,
      "결정": 1531,
      "스트": 1532,
      "이유": 1533,
      "궁금": 1534,
      "따라": 1535,
      "리고": 1536,
      "많아": 1537,
      "보면": 1538,
      "썸남": 1539,
      "운동": 1540,
      "내일": 1541,
      "새로운": 1542,
      "어디": 1543,
      "가요": 1544,
      "가지": 1545,
      "선택": 1546,
      "아프": 1547,
      "애가": 1548,
      "한달": 1549,
      "어떨까요": 1550,
      "부담": 1551,
      "생각해보세요": 1552,
      "스트레": 1553,
      "미련": 1554,
      "안돼": 1555,
      "노력": 1556,
      "지나": 1557,
      "해볼까": 1558,
      "기도": 1559,
      "나한테": 1560,
      "었어": 1561,
      "처럼": 1562,
      "회사": 1563,
      "때문": 1564,
      "전화": 1565,
      "생각이": 1566,
      "개월": 1567,
      "직접": 1568,
      "아니에요": 1569,
      "가보세요": 1570,
      "거나": 1571,
      "않아": 1572,
      "어도": 1573,
      "오세요": 1574,
      "조심": 1575,
      "그러": 1576,
      "았는데": 1577,
      "인연": 1578,
      "좋겠네요": 1579,
      "하네요": 1580,
      "연락이": 1581,
      "같은데": 1582,
      "노래": 1583,
      "않았": 1584,
      "어떡": 1585,
      "없이": 1586,
      "생각을": 1587,
      "만날": 1588,
      "아파": 1589,
      "움이": 1590,
      "이젠": 1591,
      "재미": 1592,
      "군요": 1593,
      "그게": 1594,
      "소개": 1595,
      "쉽지": 1596,
      "어려": 1597,
      "으세요": 1598,
      "인생": 1599,
      "잘못": 1600,
      "항상": 1601,
      "이별을": 1602,
      "괜찮아": 1603,
      "신경쓰": 1604,
      "스트레스": 1605,
      "가세요": 1606,
      "그렇게": 1607,
      "동안": 1608,
      "저는": 1609,
      "해지": 1610,
      "마음에": 1611,
      "짝남이": 1612,
      "그만": 1613,
      "달라": 1614,
      "이나": 1615,
      "적으로": 1616,
      "좋겠다": 1617,
      "모르겠어": 1618,
      "싶은데": 1619,
      "느낌": 1620,
      "말을": 1621,
      "바라요": 1622,
      "인가봐요": 1623,
      "처음": 1624,
      "기를": 1625,
      "때가": 1626,
      "상황": 1627,
      "어때": 1628,
      "해줘": 1629,
      "사랑을": 1630,
      "나봅니다": 1631,
      "려보세요": 1632,
      "리세요": 1633,
      "사이": 1634,
      "우리": 1635,
      "위로": 1636,
      "있죠": 1637,
      "축하": 1638,
      "나이": 1639,
      "만났": 1640,
      "만들": 1641,
      "졌어": 1642,
      "해봐요": 1643,
      "중요한": 1644,
      "찾아보세요": 1645,
      "답답": 1646,
      "되었": 1647,
      "만에": 1648,
      "맞는": 1649,
      "스럽": 1650,
      "습관": 1651,
      "추억": 1652,
      "했나봐요": 1653,
      "확실": 1654,
      "이별은": 1655,
      "하면서": 1656,
      "결국": 1657,
      "나봐": 1658,
      "이어": 1659,
      "챙겨": 1660,
      "화가": 1661,
      "화장": 1662,
      "관계": 1663,
      "기대": 1664,
      "다음": 1665,
      "매일": 1666,
      "보여": 1667,
      "않은": 1668,
      "잊어": 1669,
      "현실": 1670,
      "생각나": 1671,
      "괜찮아요": 1672,
      "감이": 1673,
      "거리": 1674,
      "내세요": 1675,
      "달라고": 1676,
      "말씀": 1677,
      "세상": 1678,
      "요즘": 1679,
      "있게": 1680,
      "정신": 1681,
      "좋겠어": 1682,
      "중에": 1683,
      "집에": 1684,
      "편이": 1685,
      "충분히": 1686,
      "건가": 1687,
      "건강": 1688,
      "그렇": 1689,
      "대한": 1690,
      "대화를": 1691,
      "도움이": 1692,
      "받고": 1693,
      "수록": 1694,
      "순간": 1695,
      "의미": 1696,
      "사랑한": 1697,
      "좋을까": 1698,
      "가져": 1699,
      "마지": 1700,
      "만남": 1701,
      "먹어": 1702,
      "소리": 1703,
      "심히": 1704,
      "열심히": 1705,
      "있나봐요": 1706,
      "아직도": 1707,
      "물어보세요": 1708,
      "때문에": 1709,
      "마지막": 1710,
      "1년": 1711,
      "건지": 1712,
      "나쁜": 1713,
      "았어": 1714,
      "언젠": 1715,
      "주는": 1716,
      "지요": 1717,
      "추천": 1718,
      "확인": 1719,
      "마음의": 1720,
      "연락을": 1721,
      "가슴": 1722,
      "거야": 1723,
      "나서": 1724,
      "다니": 1725,
      "만들어": 1726,
      "말아요": 1727,
      "부모": 1728,
      "살고": 1729,
      "아침": 1730,
      "얼른": 1731,
      "마시": 1732,
      "말이": 1733,
      "안되": 1734,
      "영화": 1735,
      "일까": 1736,
      "일어": 1737,
      "사랑의": 1738,
      "연락해보세요": 1739,
      "헤어짐": 1740,
      "시간을": 1741,
      "오늘도": 1742,
      "상대방": 1743,
      "같애": 1744,
      "보이": 1745,
      "워요": 1746,
      "으니까요": 1747,
      "이런": 1748,
      "지내": 1749,
      "한번": 1750,
      "한가봐요": 1751,
      "생각해": 1752,
      "짝녀가": 1753,
      "가장": 1754,
      "귀찮": 1755,
      "그리": 1756,
      "다르": 1757,
      "드릴": 1758,
      "마다": 1759,
      "안해": 1760,
      "어느": 1761,
      "어제": 1762,
      "완전": 1763,
      "재회": 1764,
      "정도": 1765,
      "제일": 1766,
      "커피": 1767,
      "사람들": 1768,
      "당신의": 1769,
      "조금만": 1770,
      "이라도": 1771,
      "조심하세요": 1772,
      "부모님": 1773,
      "떨어": 1774,
      "라면": 1775,
      "못하": 1776,
      "바람": 1777,
      "사는": 1778,
      "아닐": 1779,
      "적이": 1780,
      "한지": 1781,
      "핸드": 1782,
      "조금씩": 1783,
      "헤어지고": 1784,
      "감을": 1785,
      "나가": 1786,
      "사진": 1787,
      "알려": 1788,
      "얼마": 1789,
      "없네": 1790,
      "지지": 1791,
      "진심": 1792,
      "남자가": 1793,
      "더니": 1794,
      "많았": 1795,
      "모든": 1796,
      "살아": 1797,
      "성공": 1798,
      "쉬운": 1799,
      "스타": 1800,
      "잊혀": 1801,
      "자연": 1802,
      "잘할": 1803,
      "사람이랑": 1804,
      "기다리": 1805,
      "그래도": 1806,
      "핸드폰": 1807,
      "갑자기": 1808,
      "거죠": 1809,
      "고생": 1810,
      "모습": 1811,
      "스로": 1812,
      "알았는데": 1813,
      "엄마": 1814,
      "없을": 1815,
      "연습": 1816,
      "인정": 1817,
      "하시": 1818,
      "하겠어요": 1819,
      "이별이": 1820,
      "만나고": 1821,
      "자신의": 1822,
      "중요해요": 1823,
      "스러운": 1824,
      "되어": 1825,
      "모두": 1826,
      "문제": 1827,
      "생활": 1828,
      "시켜": 1829,
      "싶어요": 1830,
      "엄청": 1831,
      "예의": 1832,
      "오는": 1833,
      "폭풍": 1834,
      "확신": 1835,
      "사람들이": 1836,
      "여자가": 1837,
      "모르는": 1838,
      "드릴게요": 1839,
      "가끔": 1840,
      "나도": 1841,
      "나와": 1842,
      "날씨": 1843,
      "내려": 1844,
      "복잡": 1845,
      "스스로": 1846,
      "얼굴": 1847,
      "예뻐": 1848,
      "재밌": 1849,
      "했으면": 1850,
      "좋아할": 1851,
      "해야지": 1852,
      "필요한": 1853,
      "짝남한테": 1854,
      "가서": 1855,
      "눈물": 1856,
      "상관": 1857,
      "일을": 1858,
      "자주": 1859,
      "후폭풍": 1860,
      "사람한테": 1861,
      "정리가": 1862,
      "소개팅": 1863,
      "것이": 1864,
      "관리": 1865,
      "됐어": 1866,
      "되길": 1867,
      "되나": 1868,
      "떠나": 1869,
      "무시": 1870,
      "뭘까": 1871,
      "실수": 1872,
      "심해": 1873,
      "아픈": 1874,
      "알바": 1875,
      "저랑": 1876,
      "전에": 1877,
      "짜증": 1878,
      "당신이": 1879,
      "기분이": 1880,
      "감기": 1881,
      "날이": 1882,
      "도와": 1883,
      "력이": 1884,
      "무서": 1885,
      "별로": 1886,
      "아픔": 1887,
      "있다면": 1888,
      "잘하는": 1889,
      "차단": 1890,
      "피곤": 1891,
      "학교": 1892,
      "생각보다": 1893,
      "괜찮은": 1894,
      "모르겠어요": 1895,
      "지금도": 1896,
      "기다려": 1897,
      "어떡해": 1898,
      "게임": 1899,
      "극복": 1900,
      "다녀": 1901,
      "되지": 1902,
      "분이": 1903,
      "빨리": 1904,
      "뿐이에요": 1905,
      "쁘게": 1906,
      "자리": 1907,
      "오늘은": 1908,
      "행복해": 1909,
      "받아들이": 1910,
      "!!": 1911,
      "가면": 1912,
      "가야": 1913,
      "가족": 1914,
      "끝났": 1915,
      "라는": 1916,
      "만난": 1917,
      "뭐가": 1918,
      "붙잡": 1919,
      "솔직": 1920,
      "었는데": 1921,
      "일째": 1922,
      "있나": 1923,
      "잘하고": 1924,
      "지켜": 1925,
      "천천": 1926,
      "하셨": 1927,
      "사람도": 1928,
      "사랑에": 1929,
      "친구랑": 1930,
      "해주는": 1931,
      "천천히": 1932,
      "기는": 1933,
      "기로": 1934,
      "기까지": 1935,
      "끝이": 1936,
      "따뜻": 1937,
      "려요": 1938,
      "마주": 1939,
      "맛있게": 1940,
      "벌써": 1941,
      "설레": 1942,
      "외로": 1943,
      "점점": 1944,
      "지가": 1945,
      "직장": 1946,
      "하겠네요": 1947,
      "했어요": 1948,
      "환승": 1949,
      "자신이": 1950,
      "인연이": 1951,
      "확신이": 1952,
      "는지": 1953,
      "두려": 1954,
      "드는": 1955,
      "때는": 1956,
      "마스": 1957,
      "받는": 1958,
      "사세요": 1959,
      "살펴": 1960,
      "아는": 1961,
      "아이": 1962,
      "안녕": 1963,
      "운명": 1964,
      "힘이": 1965,
      "겠지요": 1966,
      "당신을": 1967,
      "놓아": 1968,
      "들을": 1969,
      "배우": 1970,
      "버리세요": 1971,
      "오네": 1972,
      "이면": 1973,
      "잠시": 1974,
      "주변": 1975,
      "해보는": 1976,
      "행동": 1977,
      "힘내세요": 1978,
      "연락하고": 1979,
      "힘들었": 1980,
      "하나씩": 1981,
      "이유가": 1982,
      "2년": 1983,
      "놀러": 1984,
      "눈을": 1985,
      "믿어요": 1986,
      "성격": 1987,
      "시원": 1988,
      "익숙": 1989,
      "일찍": 1990,
      "지났": 1991,
      "집착": 1992,
      "하길": 1993,
      "해줄": 1994,
      "만나는": 1995,
      "서로에게": 1996,
      "사귀고": 1997,
      "아닌데": 1998,
      "스러워": 1999,
      "신경쓰지": 2000,
      "언젠간": 2001,
      "많았어요": 2002,
      "나을": 2003,
      "느껴": 2004,
      "도전": 2005,
      "마련": 2006,
      "무엇": 2007,
      "보지": 2008,
      "슬픈": 2009,
      "않죠": 2010,
      "우울": 2011,
      "정이": 2012,
      "주말": 2013,
      "즐거": 2014,
      "차이": 2015,
      "하던": 2016,
      "하려": 2017,
      "했습니다": 2018,
      "힘들다": 2019,
      "못하겠어": 2020,
      "가기": 2021,
      "곳으로": 2022,
      "나아": 2023,
      "놓고": 2024,
      "다를": 2025,
      "되겠네요": 2026,
      "래도": 2027,
      "리지": 2028,
      "먹으면": 2029,
      "받을": 2030,
      "버렸": 2031,
      "번호": 2032,
      "싶네요": 2033,
      "에도": 2034,
      "여유": 2035,
      "오랜": 2036,
      "원하는": 2037,
      "위해": 2038,
      "이겨": 2039,
      "잊는": 2040,
      "잊지": 2041,
      "자존": 2042,
      "주고": 2043,
      "주무": 2044,
      "카페": 2045,
      "한데": 2046,
      "후련": 2047,
      "힘들게": 2048,
      "있었나봐요": 2049,
      "간다": 2050,
      "거짓": 2051,
      "꿈에": 2052,
      "끝나": 2053,
      "눈이": 2054,
      "다행": 2055,
      "때까지": 2056,
      "뭐야": 2057,
      "보는게": 2058,
      "부러": 2059,
      "알게": 2060,
      "애한테": 2061,
      "없죠": 2062,
      "연인": 2063,
      "용기": 2064,
      "자체": 2065,
      "주지": 2066,
      "최고": 2067,
      "포기": 2068,
      "한다": 2069,
      "헷갈": 2070,
      "좋아해": 2071,
      "생각할": 2072,
      "이별한지": 2073,
      "아무것도": 2074,
      "아무래도": 2075,
      "여친이": 2076,
      "이상형": 2077,
      "이었을": 2078,
      "그분": 2079,
      "들은": 2080,
      "르고": 2081,
      "마요": 2082,
      "맨날": 2083,
      "미리": 2084,
      "봐도": 2085,
      "부족": 2086,
      "비싸": 2087,
      "사를": 2088,
      "소중": 2089,
      "속이": 2090,
      "여보세요": 2091,
      "응원": 2092,
      "타고": 2093,
      "하겠죠": 2094,
      "사랑했던": 2095,
      "이별후": 2096,
      "지금은": 2097,
      "사귀는": 2098,
      "먹어야지": 2099,
      "귀찮아": 2100,
      "주무세요": 2101,
      "갈까": 2102,
      "금방": 2103,
      "기간": 2104,
      "나중에": 2105,
      "늦지": 2106,
      "데려": 2107,
      "되네": 2108,
      "많아요": 2109,
      "먹을": 2110,
      "방학": 2111,
      "보통": 2112,
      "소식": 2113,
      "싸우": 2114,
      "앞에": 2115,
      "어서": 2116,
      "일은": 2117,
      "있습니다": 2118,
      "자는": 2119,
      "장이": 2120,
      "전남친": 2121,
      "져요": 2122,
      "죽을": 2123,
      "태어": 2124,
      "하니": 2125,
      "하나봐요": 2126,
      "해질": 2127,
      "좋아하면": 2128,
      "좋아하게": 2129,
      "친구를": 2130,
      "만나지": 2131,
      "괜찮을까": 2132,
      "아니라": 2133,
      "필요해": 2134,
      "필요해요": 2135,
      "그녀를": 2136,
      "관심이": 2137,
      "않아도": 2138,
      "가져보세요": 2139,
      "예의가": 2140,
      "겠습니다": 2141,
      "나면": 2142,
      "남편이": 2143,
      "내는": 2144,
      "대화": 2145,
      "더라": 2146,
      "마셔": 2147,
      "맛있는": 2148,
      "무리": 2149,
      "버려": 2150,
      "사친": 2151,
      "상담": 2152,
      "시험": 2153,
      "야겠다": 2154,
      "어렵": 2155,
      "어머": 2156,
      "없네요": 2157,
      "었나봐요": 2158,
      "우산": 2159,
      "움을": 2160,
      "월급": 2161,
      "이네": 2162,
      "이러": 2163,
      "작은": 2164,
      "잠깐": 2165,
      "잠이": 2166,
      "중인데": 2167,
      "진정": 2168,
      "충전": 2169,
      "하늘": 2170,
      "하려고": 2171,
      "한거": 2172,
      "했다": 2173,
      "흘렀": 2174,
      "친구한테": 2175,
      "이별의": 2176,
      "당신은": 2177,
      "중요하지": 2178,
      "짝녀한테": 2179,
      "감정을": 2180,
      "헤어졌습니다": 2181,
      "만났어": 2182,
      "스럽게": 2183,
      "확인해보세요": 2184,
      "살펴보세요": 2185,
      "??": 2186,
      "ㅠㅠ": 2187,
      "기회": 2188,
      "대요": 2189,
      "동거": 2190,
      "되고": 2191,
      "드려요": 2192,
      "로맨": 2193,
      "바쁜": 2194,
      "밖에": 2195,
      "받았어": 2196,
      "변화가": 2197,
      "보러": 2198,
      "비밀": 2199,
      "생길": 2200,
      "쇼핑": 2201,
      "쉬고": 2202,
      "아름": 2203,
      "안나": 2204,
      "알고": 2205,
      "예쁘게": 2206,
      "으니": 2207,
      "자책": 2208,
      "장난": 2209,
      "전여친": 2210,
      "종교": 2211,
      "지고": 2212,
      "청소": 2213,
      "사랑해주세요": 2214,
      "친구들": 2215,
      "좋아하는데": 2216,
      "연락해": 2217,
      "연락해도": 2218,
      "하지마세요": 2219,
      "남자애가": 2220,
      "힘들죠": 2221,
      "해야할": 2222,
      "고민이야": 2223,
      "언제나": 2224,
      "누구나": 2225,
      "확실한": 2226,
      "2주": 2227,
      "5년": 2228,
      "가네": 2229,
      "같습니다": 2230,
      "걸로": 2231,
      "겠네": 2232,
      "경우": 2233,
      "그리고": 2234,
      "기만": 2235,
      "꾸준": 2236,
      "당히": 2237,
      "돈이": 2238,
      "됐는데": 2239,
      "되면": 2240,
      "두고": 2241,
      "때도": 2242,
      "리게": 2243,
      "맞춰": 2244,
      "멋진": 2245,
      "못하는": 2246,
      "문자": 2247,
      "미치": 2248,
      "바라": 2249,
      "바로": 2250,
      "바쁘": 2251,
      "분위": 2252,
      "비가": 2253,
      "안되는": 2254,
      "않고": 2255,
      "약속": 2256,
      "없다면": 2257,
      "이번": 2258,
      "자격": 2259,
      "주면": 2260,
      "즐기": 2261,
      "취미": 2262,
      "커플": 2263,
      "타이": 2264,
      "한가": 2265,
      "허전": 2266,
      "사랑할": 2267,
      "사랑하고": 2268,
      "생각만": 2269,
      "힘들어요": 2270,
      "있는지": 2271,
      "짝남이랑": 2272,
      "고민이": 2273,
      "방법이": 2274,
      "이라면": 2275,
      "받아들": 2276,
      "아닌지": 2277,
      "그래요": 2278,
      "궁금해": 2279,
      "가지고": 2280,
      "알려줘": 2281,
      "즐거운": 2282,
      "같네요": 2283,
      "곳이": 2284,
      "당연": 2285,
      "더라고": 2286,
      "되는데": 2287,
      "드디": 2288,
      "드라": 2289,
      "못해": 2290,
      "받지": 2291,
      "스킨": 2292,
      "싫다": 2293,
      "싫은": 2294,
      "애랑": 2295,
      "어울": 2296,
      "어쩌": 2297,
      "여러": 2298,
      "왔는데": 2299,
      "일도": 2300,
      "잊고": 2301,
      "잖아요": 2302,
      "절대": 2303,
      "조언": 2304,
      "존중": 2305,
      "좋겠죠": 2306,
      "줬으면": 2307,
      "칭찬": 2308,
      "통보": 2309,
      "퇴근": 2310,
      "해결": 2311,
      "사람에게": 2312,
      "친구들이": 2313,
      "여자애가": 2314,
      "힘들겠지만": 2315,
      "좋은데": 2316,
      "이제는": 2317,
      "가슴이": 2318,
      "드디어": 2319,
      "10": 2320,
      "가를": 2321,
      "거기까지": 2322,
      "것을": 2323,
      "내서": 2324,
      "드시": 2325,
      "말해": 2326,
      "몸이": 2327,
      "뭐라고": 2328,
      "뭔가": 2329,
      "뭔지": 2330,
      "미워": 2331,
      "성이": 2332,
      "수가": 2333,
      "신가봐요": 2334,
      "안경": 2335,
      "안하고": 2336,
      "않길": 2337,
      "야죠": 2338,
      "예민": 2339,
      "예쁜": 2340,
      "오면": 2341,
      "올려": 2342,
      "있네요": 2343,
      "잊을": 2344,
      "잠을": 2345,
      "전환": 2346,
      "줄까": 2347,
      "지쳤": 2348,
      "차분": 2349,
      "취직": 2350,
      "학원": 2351,
      "한잔": 2352,
      "헤아": 2353,
      "사람에": 2354,
      "시간은": 2355,
      "괜찮을": 2356,
      "않는다면": 2357,
      "미련이": 2358,
      "어려워": 2359,
      "어느덧": 2360,
      "아닐까요": 2361,
      "두려워": 2362,
      "로맨틱": 2363,
      "더라고요": 2364,
      "가야지": 2365,
      "같네": 2366,
      "거겠죠": 2367,
      "그대로": 2368,
      "기본": 2369,
      "나랑": 2370,
      "답니다": 2371,
      "두근": 2372,
      "두달": 2373,
      "만의": 2374,
      "말도": 2375,
      "먹었": 2376,
      "문제가": 2377,
      "바보": 2378,
      "생긴": 2379,
      "서운": 2380,
      "쉬어": 2381,
      "슬프": 2382,
      "썸녀": 2383,
      "쓰는": 2384,
      "어쩔": 2385,
      "음이": 2386,
      "이기": 2387,
      "전히": 2388,
      "첫사랑": 2389,
      "치고": 2390,
      "키우": 2391,
      "편지": 2392,
      "한게": 2393,
      "해져": 2394,
      "해졌": 2395,
      "했을": 2396,
      "사람과": 2397,
      "사랑하면": 2398,
      "생각하고": 2399,
      "마음도": 2400,
      "마음은": 2401,
      "좋아하는게": 2402,
      "헤어져": 2403,
      "기다릴": 2404,
      "물어보는": 2405,
      "부담스러워": 2406,
      "그러면": 2407,
      "축하해요": 2408,
      "자연스러운": 2409,
      "짜증나": 2410,
      "받아들이는": 2411,
      "다행이에요": 2412,
      "타이밍": 2413,
      "갖고": 2414,
      "거지": 2415,
      "것보다": 2416,
      "군대": 2417,
      "귀여": 2418,
      "끝내": 2419,
      "나오": 2420,
      "나온": 2421,
      "능력이": 2422,
      "니가": 2423,
      "당황": 2424,
      "덤덤": 2425,
      "두세요": 2426,
      "떨려": 2427,
      "리스": 2428,
      "말하세요": 2429,
      "못한": 2430,
      "못하고": 2431,
      "뭐든": 2432,
      "배워": 2433,
      "변화": 2434,
      "불편": 2435,
      "사과": 2436,
      "상이에요": 2437,
      "생님": 2438,
      "생일": 2439,
      "선생님": 2440,
      "아서": 2441,
      "용기를": 2442,
      "워질": 2443,
      "이지": 2444,
      "이라고": 2445,
      "일주": 2446,
      "있고": 2447,
      "있지": 2448,
      "있나요": 2449,
      "자유": 2450,
      "저를": 2451,
      "적응": 2452,
      "적당히": 2453,
      "졸업": 2454,
      "좋았": 2455,
      "지우": 2456,
      "집중": 2457,
      "최선": 2458,
      "출근": 2459,
      "치가": 2460,
      "프로": 2461,
      "하니까": 2462,
      "흔들": 2463,
      "사람마다": 2464,
      "힘들겠어요": 2465,
      "사람이네요": 2466,
      "보고싶어": 2467,
      "기다리고": 2468,
      "준비가": 2469,
      "후회하지": 2470,
      "관심을": 2471,
      "충분한": 2472,
      "헤어졌어": 2473,
      "썸남이": 2474,
      "않았으면": 2475,
      "어려운": 2476,
      "화장실": 2477,
      "다음에는": 2478,
      "진심으로": 2479,
      "무서워": 2480,
      "자책하지": 2481,
      "꾸준히": 2482,
      "가도": 2483,
      "가자고": 2484,
      "고마": 2485,
      "그건": 2486,
      "기운": 2487,
      "길이": 2488,
      "끝을": 2489,
      "냄새": 2490,
      "놀이": 2491,
      "누가": 2492,
      "당당": 2493,
      "동생": 2494,
      "따로": 2495,
      "먹는": 2496,
      "몰랐": 2497,
      "배려": 2498,
      "병원": 2499,
      "보냈": 2500,
      "보니": 2501,
      "부탁": 2502,
      "삭제": 2503,
      "생기": 2504,
      "식을": 2505,
      "싶네": 2506,
      "싶지": 2507,
      "아보세요": 2508,
      "았나봐요": 2509,
      "얘기": 2510,
      "어색": 2511,
      "연예": 2512,
      "오빠": 2513,
      "왔다": 2514,
      "우선": 2515,
      "원래": 2516,
      "위험": 2517,
      "이성": 2518,
      "있겠어요": 2519,
      "있잖아요": 2520,
      "저에게": 2521,
      "적극": 2522,
      "제대로": 2523,
      "좋지": 2524,
      "질투": 2525,
      "집안": 2526,
      "프사": 2527,
      "피해": 2528,
      "함이": 2529,
      "힘내": 2530,
      "사람의": 2531,
      "사랑해": 2532,
      "좋아하는지": 2533,
      "하지만": 2534,
      "만나보세요": 2535,
      "해야할까": 2536,
      "자신에게": 2537,
      "이라는": 2538,
      "인가봐": 2539,
      "그녀가": 2540,
      "감정이": 2541,
      "해주고": 2542,
      "남친이": 2543,
      "않을까요": 2544,
      "스타일": 2545,
      "후폭풍이": 2546,
      "스킨십": 2547,
      "3년": 2548,
      "3개월": 2549,
      "가는데": 2550,
      "감사": 2551,
      "경험": 2552,
      "구나": 2553,
      "까봐": 2554,
      "꿈을": 2555,
      "나눠": 2556,
      "나타": 2557,
      "담배": 2558,
      "됩니다": 2559,
      "둘이": 2560,
      "르는": 2561,
      "리가": 2562,
      "말하는": 2563,
      "무너": 2564,
      "무뎌": 2565,
      "발표": 2566,
      "버텨": 2567,
      "본인": 2568,
      "부분": 2569,
      "사실": 2570,
      "쉽게": 2571,
      "시길": 2572,
      "안타": 2573,
      "안들어": 2574,
      "야할": 2575,
      "어플": 2576,
      "없다": 2577,
      "왔네": 2578,
      "으시": 2579,
      "이요": 2580,
      "인사": 2581,
      "인상": 2582,
      "일이에요": 2583,
      "잠수": 2584,
      "좋다": 2585,
      "착각": 2586,
      "하다고": 2587,
      "하자고": 2588,
      "해지는": 2589,
      "좋아한": 2590,
      "만나자고": 2591,
      "자신감을": 2592,
      "있어도": 2593,
      "일이네요": 2594,
      "하나도": 2595,
      "그런가봐요": 2596,
      "행복한": 2597,
      "서로를": 2598,
      "후회할": 2599,
      "머리가": 2600,
      "상황을": 2601,
      "완전히": 2602,
      "잊혀지": 2603,
      "성격이": 2604,
      "거짓말": 2605,
      "데려다": 2606,
      "아름다": 2607,
      "연예인": 2608,
      "..": 2609,
      "4년": 2610,
      "고쳐": 2611,
      "귀엽": 2612,
      "그랬": 2613,
      "끝은": 2614,
      "놀아요": 2615,
      "눈에": 2616,
      "대해": 2617,
      "듣고": 2618,
      "리면": 2619,
      "맘고생": 2620,
      "바꿔": 2621,
      "바빠": 2622,
      "발전": 2623,
      "벗어": 2624,
      "불러": 2625,
      "살짝": 2626,
      "새벽": 2627,
      "시다": 2628,
      "쓰레": 2629,
      "아는데": 2630,
      "앞에서": 2631,
      "었네": 2632,
      "오지": 2633,
      "위한": 2634,
      "이가": 2635,
      "이길": 2636,
      "일상": 2637,
      "있겠죠": 2638,
      "장을": 2639,
      "장거리": 2640,
      "점심": 2641,
      "조절": 2642,
      "존재": 2643,
      "지쳐": 2644,
      "크리스": 2645,
      "피부": 2646,
      "하러": 2647,
      "하거나": 2648,
      "한동안": 2649,
      "호감이": 2650,
      "생각하세요": 2651,
      "힘들지": 2652,
      "만나세요": 2653,
      "혼자가": 2654,
      "아무리": 2655,
      "시작해보세요": 2656,
      "인가요": 2657,
      "이상한": 2658,
      "축하드려요": 2659,
      "말씀해주세요": 2660,
      "지내고": 2661,
      "그리워": 2662,
      "연습을": 2663,
      "눈물이": 2664,
      "놓아주세요": 2665,
      "무엇이": 2666,
      "크리스마스": 2667,
      "NS": 2668,
      "SNS": 2669,
      "가치": 2670,
      "갔어": 2671,
      "견디": 2672,
      "계획": 2673,
      "과정": 2674,
      "괜히": 2675,
      "괴롭": 2676,
      "그럼": 2677,
      "꿨어": 2678,
      "냐고": 2679,
      "느끼": 2680,
      "다이어": 2681,
      "동물": 2682,
      "떠난": 2683,
      "력을": 2684,
      "만이": 2685,
      "면접": 2686,
      "무섭": 2687,
      "문득": 2688,
      "바뀌": 2689,
      "반복": 2690,
      "배고": 2691,
      "속상": 2692,
      "쉬는": 2693,
      "애매": 2694,
      "없나": 2695,
      "없애": 2696,
      "없는데": 2697,
      "올까": 2698,
      "올라": 2699,
      "우연": 2700,
      "웨딩": 2701,
      "의지": 2702,
      "이거": 2703,
      "이는": 2704,
      "이름": 2705,
      "이사": 2706,
      "이용": 2707,
      "잡고": 2708,
      "저녁": 2709,
      "줘도": 2710,
      "줬어": 2711,
      "집에서": 2712,
      "치는": 2713,
      "타는데": 2714,
      "하다면": 2715,
      "하다가": 2716,
      "할텐데": 2717,
      "했네": 2718,
      "현상이에요": 2719,
      "사랑하는데": 2720,
      "생각하는": 2721,
      "친구로": 2722,
      "연락하면": 2723,
      "남자를": 2724,
      "으면서": 2725,
      "만나서": 2726,
      "좋을텐데": 2727,
      "모르겠네요": 2728,
      "이야기해보세요": 2729,
      "시작이": 2730,
      "여자친구와": 2731,
      "이상해": 2732,
      "괜찮아졌": 2733,
      "괜찮아질": 2734,
      "위로해": 2735,
      "추억이": 2736,
      "말씀해보세요": 2737,
      "사랑한다고": 2738,
      "자연스럽게": 2739,
      "외로워": 2740,
      "여유를": 2741,
      "오랜만에": 2742,
      "다이어트": 2743,
      "6개월": 2744,
      "가까": 2745,
      "가벼": 2746,
      "간절": 2747,
      "갔다": 2748,
      "같지": 2749,
      "거니": 2750,
      "거울": 2751,
      "거절": 2752,
      "계절": 2753,
      "꿈이": 2754,
      "나게": 2755,
      "나의": 2756,
      "누군": 2757,
      "느라": 2758,
      "는거": 2759,
      "도서": 2760,
      "돈을": 2761,
      "될까요": 2762,
      "려면": 2763,
      "리기": 2764,
      "많죠": 2765,
      "못할": 2766,
      "뭐하지": 2767,
      "미래": 2768,
      "바뀔": 2769,
      "버스": 2770,
      "비교": 2771,
      "사고": 2772,
      "사귄": 2773,
      "사라": 2774,
      "살까": 2775,
      "상사": 2776,
      "소한": 2777,
      "속에": 2778,
      "쉬세요": 2779,
      "슬퍼": 2780,
      "시키": 2781,
      "신고": 2782,
      "신혼": 2783,
      "썸이": 2784,
      "썸타는": 2785,
      "아빠": 2786,
      "안와": 2787,
      "안해도": 2788,
      "않네": 2789,
      "앞으로": 2790,
      "었을": 2791,
      "였어": 2792,
      "영원": 2793,
      "오해": 2794,
      "을거예요": 2795,
      "음을": 2796,
      "이혼": 2797,
      "인듯": 2798,
      "인형": 2799,
      "일지도": 2800,
      "졸려": 2801,
      "중간": 2802,
      "질까": 2803,
      "참고": 2804,
      "취업": 2805,
      "할때": 2806,
      "호감을": 2807,
      "하는지": 2808,
      "좋아할까": 2809,
      "생각나는": 2810,
      "연락처": 2811,
      "연락하지": 2812,
      "여자애": 2813,
      "사람이에요": 2814,
      "있는게": 2815,
      "만나면": 2816,
      "필요할": 2817,
      "들어드릴게요": 2818,
      "결혼식": 2819,
      "기다리는": 2820,
      "다가도": 2821,
      "짝사랑하는": 2822,
      "가능할": 2823,
      "상처를": 2824,
      "하다보면": 2825,
      "생겼어": 2826,
      "궁금하네요": 2827,
      "썸남한테": 2828,
      "내일은": 2829,
      "선택일": 2830,
      "부담스럽": 2831,
      "지나갈": 2832,
      "않았어요": 2833,
      "해지면": 2834,
      "나이가": 2835,
      "만났는데": 2836,
      "습관이에요": 2837,
      "확실히": 2838,
      "생각나네": 2839,
      "일어나": 2840,
      "날씨가": 2841,
      "붙잡고": 2842,
      "지켜보세요": 2843,
      "소중한": 2844,
      "분위기": 2845,
      "어쩌지": 2846,
      "쓰레기": 2847,
      "도서관": 2848,
      "가봅니다": 2849,
      "갑작": 2850,
      "개인": 2851,
      "거려": 2852,
      "것만": 2853,
      "것은": 2854,
      "결과": 2855,
      "고통": 2856,
      "기념": 2857,
      "기울": 2858,
      "깔끔": 2859,
      "꿈에서": 2860,
      "남을": 2861,
      "남편": 2862,
      "내고": 2863,
      "놀아": 2864,
      "느려": 2865,
      "대단": 2866,
      "대학": 2867,
      "됐으면": 2868,
      "되죠": 2869,
      "되기도": 2870,
      "된다고": 2871,
      "드네": 2872,
      "듭니다": 2873,
      "때네요": 2874,
      "먹을까": 2875,
      "목소리": 2876,
      "미세": 2877,
      "미안": 2878,
      "미친": 2879,
      "배가": 2880,
      "버리": 2881,
      "보일": 2882,
      "봤어": 2883,
      "분들": 2884,
      "비슷": 2885,
      "사귈": 2886,
      "상태": 2887,
      "소문": 2888,
      "신청": 2889,
      "않으면": 2890,
      "야근": 2891,
      "역시": 2892,
      "옆에": 2893,
      "와서": 2894,
      "완벽": 2895,
      "왔으면": 2896,
      "왔습니다": 2897,
      "으려고": 2898,
      "이게": 2899,
      "이다": 2900,
      "이럴": 2901,
      "이루": 2902,
      "일에": 2903,
      "있네": 2904,
      "있다": 2905,
      "있으": 2906,
      "있으니까요": 2907,
      "전부": 2908,
      "전해보세요": 2909,
      "조급": 2910,
      "종일": 2911,
      "중인": 2912,
      "지네": 2913,
      "지워": 2914,
      "짝사랑이": 2915,
      "차가": 2916,
      "차별": 2917,
      "치과": 2918,
      "카드": 2919,
      "크게": 2920,
      "편하게": 2921,
      "호감": 2922,
      "휴가": 2923,
      "희망": 2924,
      "하는거": 2925,
      "하는건": 2926,
      "좋아하고": 2927,
      "사랑해서": 2928,
      "연락하는": 2929,
      "남자애": 2930,
      "해야죠": 2931,
      "연애는": 2932,
      "필요하죠": 2933,
      "고민하고": 2934,
      "아무도": 2935,
      "저도요": 2936,
      "이야기를": 2937,
      "이야기네요": 2938,
      "하기도": 2939,
      "그녀의": 2940,
      "여자친구의": 2941,
      "걱정돼": 2942,
      "그래서": 2943,
      "알아보세요": 2944,
      "면서도": 2945,
      "남자친구의": 2946,
      "이해해주세요": 2947,
      "어디서": 2948,
      "노력해보세요": 2949,
      "어떡하지": 2950,
      "상황이": 2951,
      "어때요": 2952,
      "보여요": 2953,
      "잊어버리세요": 2954,
      "건강에": 2955,
      "적이든": 2956,
      "얼마나": 2957,
      "엄마가": 2958,
      "예뻐요": 2959,
      "무서운": 2960,
      "마스크": 2961,
      "헷갈리게": 2962,
      "흘렀네요": 2963,
      "친구들과": 2964,
      "받아들여": 2965,
      "지쳤나봐요": 2966,
      "헤어져야": 2967,
      "미세먼": 2968,
      "3주": 2969,
      "~~": 2970,
      "갑니다": 2971,
      "거의": 2972,
      "견뎌": 2973,
      "결심": 2974,
      "곳에서": 2975,
      "공허": 2976,
      "권태": 2977,
      "그동안": 2978,
      "긍정": 2979,
      "깨달": 2980,
      "나쁘": 2981,
      "남았": 2982,
      "남의": 2983,
      "남사친": 2984,
      "내보세요": 2985,
      "놀고": 2986,
      "늦게": 2987,
      "다리": 2988,
      "다보면": 2989,
      "답이": 2990,
      "더워": 2991,
      "됐네": 2992,
      "드리고": 2993,
      "러워": 2994,
      "려도": 2995,
      "립니다": 2996,
      "마무리": 2997,
      "말투": 2998,
      "말할": 2999,
      "먹기": 3000,
      "멀어": 3001,
      "몰라": 3002,
      "무덤덤": 3003,
      "받은": 3004,
      "변화를": 3005,
      "보아요": 3006,
      "봤는데": 3007,
      "부럽": 3008,
      "부여": 3009,
      "분명": 3010,
      "사야": 3011,
      "사회": 3012,
      "샀어": 3013,
      "상을": 3014,
      "선톡": 3015,
      "속에서": 3016,
      "시계": 3017,
      "시어머": 3018,
      "실망": 3019,
      "실감이": 3020,
      "심호": 3021,
      "썸인지": 3022,
      "아까": 3023,
      "않게": 3024,
      "않으니까요": 3025,
      "알았": 3026,
      "알면서도": 3027,
      "야경": 3028,
      "어린": 3029,
      "어야": 3030,
      "어장": 3031,
      "없다고": 3032,
      "었던": 3033,
      "었어요": 3034,
      "여기까지": 3035,
      "여사친": 3036,
      "였나봐요": 3037,
      "용기가": 3038,
      "원망": 3039,
      "유지": 3040,
      "은근": 3041,
      "이건": 3042,
      "이고": 3043,
      "인간": 3044,
      "있지만": 3045,
      "잘해줘": 3046,
      "저한테": 3047,
      "점을": 3048,
      "정확": 3049,
      "지면": 3050,
      "추워": 3051,
      "친한": 3052,
      "택시": 3053,
      "판단": 3054,
      "편할": 3055,
      "평소": 3056,
      "할게요": 3057,
      "해보": 3058,
      "혹시": 3059,
      "사람으로": 3060,
      "좋아해도": 3061,
      "사랑하지": 3062,
      "생각한": 3063,
      "남자들은": 3064,
      "만나는게": 3065,
      "해야겠다": 3066,
      "아니라고": 3067,
      "연애를": 3068,
      "필요는": 3069,
      "보고싶다": 3070,
      "당신도": 3071,
      "기다려보세요": 3072,
      "행복하게": 3073,
      "선물이": 3074,
      "짝녀랑": 3075,
      "서로의": 3076,
      "후회가": 3077,
      "여행을": 3078,
      "여자친구랑": 3079,
      "상처가": 3080,
      "언제쯤": 3081,
      "헤어졌는데": 3082,
      "돌아오": 3083,
      "생겼는데": 3084,
      "결정을": 3085,
      "결정이었을": 3086,
      "이유를": 3087,
      "가지세요": 3088,
      "회사에서": 3089,
      "인생은": 3090,
      "사이가": 3091,
      "잊어야": 3092,
      "만들어보세요": 3093,
      "아침에": 3094,
      "상대방을": 3095,
      "사람들에게": 3096,
      "무시하세요": 3097,
      "하셨네요": 3098,
      "즐기세요": 3099,
      "당당하게": 3100,
      "안타깝": 3101,
      "심호흡": 3102,
      "ㅎㅎ": 3103,
      "거를": 3104,
      "겨울": 3105,
      "곳에": 3106,
      "공통": 3107,
      "국어": 3108,
      "근처": 3109,
      "깊은": 3110,
      "끝난": 3111,
      "나네": 3112,
      "나올": 3113,
      "나은": 3114,
      "나왔어": 3115,
      "나가세요": 3116,
      "냐에": 3117,
      "다들": 3118,
      "다양": 3119,
      "달째": 3120,
      "대체": 3121,
      "두번": 3122,
      "듯이": 3123,
      "디션": 3124,
      "때론": 3125,
      "때를": 3126,
      "똑같은": 3127,
      "렸어": 3128,
      "로워": 3129,
      "만든": 3130,
      "만족": 3131,
      "말은": 3132,
      "말이에요": 3133,
      "맘이": 3134,
      "멈추": 3135,
      "미안해": 3136,
      "바꾸": 3137,
      "보기": 3138,
      "살이": 3139,
      "생겨": 3140,
      "선이": 3141,
      "술이": 3142,
      "스키": 3143,
      "시기": 3144,
      "쐬고": 3145,
      "아예": 3146,
      "안전": 3147,
      "안하는": 3148,
      "안돼요": 3149,
      "안됐는데": 3150,
      "없으면": 3151,
      "울적": 3152,
      "음악": 3153,
      "의심": 3154,
      "이래": 3155,
      "일까요": 3156,
      "있길": 3157,
      "있겠지": 3158,
      "자세": 3159,
      "전공": 3160,
      "정상": 3161,
      "좋겠지": 3162,
      "좋지만": 3163,
      "주말이": 3164,
      "중입니다": 3165,
      "지난": 3166,
      "지로": 3167,
      "진급": 3168,
      "짧은": 3169,
      "차근": 3170,
      "채워": 3171,
      "초대": 3172,
      "축구": 3173,
      "취향": 3174,
      "치지": 3175,
      "클럽": 3176,
      "편한": 3177,
      "평생": 3178,
      "피할": 3179,
      "현금": 3180,
      "현재": 3181,
      "좋아하던": 3182,
      "생각하지": 3183,
      "연락은": 3184,
      "있을거예요": 3185,
      "여자를": 3186,
      "여자애한테": 3187,
      "해야겠지": 3188,
      "자신에": 3189,
      "아니면": 3190,
      "아니라면": 3191,
      "모르고": 3192,
      "없어서": 3193,
      "정리하는게": 3194,
      "지금처럼": 3195,
      "행복할": 3196,
      "준비를": 3197,
      "준비해보세요": 3198,
      "선물을": 3199,
      "찾아올": 3200,
      "방법을": 3201,
      "방법이에요": 3202,
      "헤어지자고": 3203,
      "그녀는": 3204,
      "가능성이": 3205,
      "감정에": 3206,
      "많은데": 3207,
      "상대를": 3208,
      "힘들어서": 3209,
      "충분해요": 3210,
      "운동을": 3211,
      "선택을": 3212,
      "아프네": 3213,
      "한달이": 3214,
      "지나갔": 3215,
      "노래방": 3216,
      "달라지는": 3217,
      "위로가": 3218,
      "사랑한다면": 3219,
      "언젠가": 3220,
      "상대방이": 3221,
      "떨어졌어": 3222,
      "사진을": 3223,
      "모습을": 3224,
      "모습이": 3225,
      "만난지": 3226,
      "힘들었을": 3227,
      "버렸어": 3228,
      "이겨낼": 3229,
      "자존감이": 3230,
      "부러워": 3231,
      "부러워요": 3232,
      "용기내서": 3233,
      "최고죠": 3234,
      "응원합니다": 3235,
      "진정한": 3236,
      "해야할지": 3237,
      "드라마": 3238,
      "이성으로": 3239,
      "적극적으로": 3240,
      "한동안은": 3241,
      "가치관": 3242,
      "부담스럽지": 3243,
      "6년": 3244,
      "ns": 3245,
      "sns": 3246,
      "가봐": 3247,
      "각자": 3248,
      "간의": 3249,
      "건데": 3250,
      "걸릴": 3251,
      "겨보세요": 3252,
      "골라": 3253,
      "교회": 3254,
      "글을": 3255,
      "긴장": 3256,
      "끝까지": 3257,
      "내요": 3258,
      "냉장": 3259,
      "너에게": 3260,
      "넘어": 3261,
      "단단": 3262,
      "달달": 3263,
      "답을": 3264,
      "당장": 3265,
      "당했어": 3266,
      "더라도": 3267,
      "들고": 3268,
      "떨리": 3269,
      "막히": 3270,
      "말까": 3271,
      "말아": 3272,
      "맛이": 3273,
      "맥주": 3274,
      "먹었어": 3275,
      "모아": 3276,
      "뭐하고": 3277,
      "믿음이": 3278,
      "바꿀": 3279,
      "반대": 3280,
      "받았": 3281,
      "변덕": 3282,
      "보낼": 3283,
      "불행": 3284,
      "사용": 3285,
      "사소한": 3286,
      "산책": 3287,
      "새로": 3288,
      "설렘": 3289,
      "셀프": 3290,
      "셨나봐요": 3291,
      "소원": 3292,
      "소화": 3293,
      "수는": 3294,
      "싶습니다": 3295,
      "썸인데": 3296,
      "쓰고": 3297,
      "쓸데": 3298,
      "아지": 3299,
      "알면": 3300,
      "어찌": 3301,
      "없지": 3302,
      "없나봐요": 3303,
      "예쁘": 3304,
      "온전히": 3305,
      "우세요": 3306,
      "운을": 3307,
      "울까": 3308,
      "움직": 3309,
      "웠어": 3310,
      "이불": 3311,
      "이팅": 3312,
      "인기가": 3313,
      "있겠네요": 3314,
      "있다고": 3315,
      "있다는": 3316,
      "잘해": 3317,
      "적어보세요": 3318,
      "제발": 3319,
      "제자리": 3320,
      "조건": 3321,
      "조차": 3322,
      "좋겠지만": 3323,
      "줘야": 3324,
      "진다": 3325,
      "진실": 3326,
      "집이": 3327,
      "집들이": 3328,
      "최악": 3329,
      "출발": 3330,
      "치료": 3331,
      "태도": 3332,
      "파이팅": 3333,
      "페북": 3334,
      "피하세요": 3335,
      "하긴": 3336,
      "하셔": 3337,
      "하니까요": 3338,
      "하겠습니다": 3339,
      "할까요": 3340,
      "했나": 3341,
      "했겠어요": 3342,
      "후가": 3343,
      "흘러": 3344,
      "좋아해요": 3345,
      "사랑으로": 3346,
      "생각에": 3347,
      "생각은": 3348,
      "생각이에요": 3349,
      "마음으로": 3350,
      "이별통보": 3351,
      "남자는": 3352,
      "힘들겠네요": 3353,
      "힘들겠지": 3354,
      "시간에": 3355,
      "있는거": 3356,
      "만나기로": 3357,
      "아니야": 3358,
      "연애가": 3359,
      "필요하겠네요": 3360,
      "있어서": 3361,
      "일이네": 3362,
      "정리할": 3363,
      "중요하죠": 3364,
      "다가가": 3365,
      "준비하는": 3366,
      "물어봐": 3367,
      "고백해보세요": 3368,
      "고백해도": 3369,
      "공부는": 3370,
      "하루하루": 3371,
      "기분전환": 3372,
      "남자친구와": 3373,
      "이었으면": 3374,
      "보내고": 3375,
      "썸남이랑": 3376,
      "아프네요": 3377,
      "느낌이": 3378,
      "나이는": 3379,
      "습관을": 3380,
      "관계를": 3381,
      "그렇지": 3382,
      "그렇지만": 3383,
      "마시고": 3384,
      "보이고": 3385,
      "부모님이": 3386,
      "떨어져": 3387,
      "알려주세요": 3388,
      "진심을": 3389,
      "살아야": 3390,
      "따뜻한": 3391,
      "힘들었겠어요": 3392,
      "시원한": 3393,
      "지났네": 3394,
      "기회가": 3395,
      "차분히": 3396,
      "최선의": 3397,
      "아름다운": 3398,
      "무엇이든": 3399,
      "부럽네요": 3400,
      "냉장고": 3401,
      "사용해보세요": 3402,
      "30": 3403,
      "7년": 3404,
      "8년": 3405,
      "가락": 3406,
      "간접": 3407,
      "감당": 3408,
      "걸리": 3409,
      "걸어보세요": 3410,
      "고맙": 3411,
      "고치": 3412,
      "공무": 3413,
      "공시": 3414,
      "과식": 3415,
      "교양": 3416,
      "규직": 3417,
      "그만큼": 3418,
      "글로": 3419,
      "끝인": 3420,
      "나나": 3421,
      "나에게": 3422,
      "나가는": 3423,
      "난다": 3424,
      "남기": 3425,
      "남아": 3426,
      "낫죠": 3427,
      "났어": 3428,
      "내리": 3429,
      "달콤": 3430,
      "대폰": 3431,
      "데이": 3432,
      "도록": 3433,
      "도시": 3434,
      "돌려보세요": 3435,
      "되기": 3436,
      "드려보세요": 3437,
      "들었어": 3438,
      "릴까": 3439,
      "마실": 3440,
      "만한": 3441,
      "많을": 3442,
      "말하지": 3443,
      "맘에": 3444,
      "맛난": 3445,
      "매력": 3446,
      "머릿": 3447,
      "메뉴": 3448,
      "면도": 3449,
      "목표": 3450,
      "물리": 3451,
      "뭐라도": 3452,
      "믿어보세요": 3453,
      "밀당": 3454,
      "바쁘게": 3455,
      "반지": 3456,
      "벚꽃": 3457,
      "변명": 3458,
      "보험": 3459,
      "부딪": 3460,
      "부로": 3461,
      "부를": 3462,
      "부자": 3463,
      "부분이": 3464,
      "빌려": 3465,
      "빠르": 3466,
      "샤워": 3467,
      "셔보세요": 3468,
      "소비": 3469,
      "솔로": 3470,
      "술을": 3471,
      "시겠어요": 3472,
      "시기가": 3473,
      "식이": 3474,
      "심리": 3475,
      "심심": 3476,
      "썸의": 3477,
      "아껴": 3478,
      "아플": 3479,
      "않는데": 3480,
      "않겠지만": 3481,
      "앞머리": 3482,
      "애정": 3483,
      "약이": 3484,
      "억지로": 3485,
      "없겠네요": 3486,
      "없지만": 3487,
      "없을까": 3488,
      "었으면": 3489,
      "여전히": 3490,
      "오랫": 3491,
      "온다": 3492,
      "외롭": 3493,
      "용돈": 3494,
      "용서": 3495,
      "우면": 3496,
      "울어도": 3497,
      "유증": 3498,
      "을지도": 3499,
      "의사를": 3500,
      "이뤄": 3501,
      "이예요": 3502,
      "인기": 3503,
      "인이": 3504,
      "있음": 3505,
      "있으니": 3506,
      "잊으세요": 3507,
      "잘했어요": 3508,
      "장면": 3509,
      "장소": 3510,
      "장에서": 3511,
      "전화를": 3512,
      "절약": 3513,
      "정규직": 3514,
      "제를": 3515,
      "죽고": 3516,
      "중독": 3517,
      "지기": 3518,
      "지를": 3519,
      "지칠": 3520,
      "진지": 3521,
      "차리세요": 3522,
      "참아": 3523,
      "청첩": 3524,
      "파혼": 3525,
      "포즈": 3526,
      "풀릴": 3527,
      "하느라": 3528,
      "한다면": 3529,
      "했나봐": 3530,
      "했더니": 3531,
      "헬스": 3532,
      "회식": 3533,
      "후에": 3534,
      "휴대폰": 3535,
      "힘듭니다": 3536,
      "좋아하나": 3537,
      "좋아해주는": 3538,
      "생각하면": 3539,
      "친구의": 3540,
      "하고싶어": 3541,
      "이별에는": 3542,
      "헤어질": 3543,
      "있을지도": 3544,
      "여자랑": 3545,
      "여자한테": 3546,
      "여자들은": 3547,
      "남자들": 3548,
      "남자랑": 3549,
      "시간도": 3550,
      "해야하나": 3551,
      "자신만": 3552,
      "필요하다면": 3553,
      "혼자만": 3554,
      "혼자서": 3555,
      "정리를": 3556,
      "지금이라도": 3557,
      "선물은": 3558,
      "힘든가봅니다": 3559,
      "아무렇": 3560,
      "고백했는데": 3561,
      "이라니": 3562,
      "하기는": 3563,
      "사귀기": 3564,
      "걱정하지": 3565,
      "남자친구랑": 3566,
      "되는지": 3567,
      "표현이": 3568,
      "헤어졌네": 3569,
      "아프다": 3570,
      "스트레칭": 3571,
      "인생이": 3572,
      "달라지": 3573,
      "만들어요": 3574,
      "맞는걸까": 3575,
      "관계가": 3576,
      "세상에": 3577,
      "마시면": 3578,
      "다르겠지만": 3579,
      "스스로에게": 3580,
      "피곤해": 3581,
      "극복할": 3582,
      "다녀오세요": 3583,
      "솔직한": 3584,
      "솔직하게": 3585,
      "따뜻하게": 3586,
      "환승이별": 3587,
      "태어난": 3588,
      "이러지": 3589,
      "바쁜가봐요": 3590,
      "자격이": 3591,
      "자격증": 3592,
      "드라이": 3593,
      "친구들이랑": 3594,
      "먹었다": 3595,
      "귀여워": 3596,
      "일주일": 3597,
      "프로포즈": 3598,
      "병원에": 3599,
      "나눠보세요": 3600,
      "벗어나": 3601,
      "새벽에": 3602,
      "배고파": 3603,
      "누군가를": 3604,
      "공무원": 3605,
      "도시락": 3606,
      "2달": 3607,
      "5개월": 3608,
      "ㅜㅜ": 3609,
      "감성": 3610,
      "개강": 3611,
      "거랑": 3612,
      "거면": 3613,
      "거같아": 3614,
      "겼어": 3615,
      "경쟁": 3616,
      "곁에": 3617,
      "과일": 3618,
      "과정이": 3619,
      "귀가": 3620,
      "그는": 3621,
      "그대": 3622,
      "기원": 3623,
      "기세요": 3624,
      "길어": 3625,
      "깨끗": 3626,
      "꽃다": 3627,
      "나지": 3628,
      "나혼자": 3629,
      "나보다": 3630,
      "나을까": 3631,
      "남겨": 3632,
      "남은": 3633,
      "낭비": 3634,
      "너를": 3635,
      "놀랐": 3636,
      "눈치": 3637,
      "늦은": 3638,
      "달려": 3639,
      "답장": 3640,
      "대출": 3641,
      "데는": 3642,
      "데요": 3643,
      "도움을": 3644,
      "돼서": 3645,
      "되는게": 3646,
      "될지도": 3647,
      "드립니다": 3648,
      "드셔보세요": 3649,
      "든지": 3650,
      "듯한": 3651,
      "떠오": 3652,
      "똑똑": 3653,
      "라리": 3654,
      "래요": 3655,
      "려구": 3656,
      "르세요": 3657,
      "린다": 3658,
      "막혀": 3659,
      "맛집": 3660,
      "맞추": 3661,
      "맞았나봐요": 3662,
      "멋지": 3663,
      "명절": 3664,
      "모른": 3665,
      "몰래": 3666,
      "못해요": 3667,
      "무거": 3668,
      "반가": 3669,
      "받으": 3670,
      "받으면": 3671,
      "발렌": 3672,
      "밝혀": 3673,
      "밤에": 3674,
      "버릴": 3675,
      "베터": 3676,
      "별거": 3677,
      "보이네요": 3678,
      "보면서": 3679,
      "복이": 3680,
      "봄이": 3681,
      "부지": 3682,
      "빠를": 3683,
      "빼로": 3684,
      "빼빼로": 3685,
      "사가": 3686,
      "사업": 3687,
      "살기": 3688,
      "삶을": 3689,
      "상상": 3690,
      "생숭": 3691,
      "선을": 3692,
      "성장": 3693,
      "센스": 3694,
      "셨네요": 3695,
      "수업": 3696,
      "순수": 3697,
      "숭생숭": 3698,
      "쉬어도": 3699,
      "스테": 3700,
      "시군요": 3701,
      "신발": 3702,
      "심경": 3703,
      "싱숭생숭": 3704,
      "싸움": 3705,
      "써보세요": 3706,
      "썸은": 3707,
      "썸을": 3708,
      "않나봐요": 3709,
      "않을까": 3710,
      "알다가도": 3711,
      "애들": 3712,
      "양말": 3713,
      "양이": 3714,
      "어두": 3715,
      "업무": 3716,
      "었네요": 3717,
      "에휴": 3718,
      "여기": 3719,
      "여름": 3720,
      "염색": 3721,
      "와요": 3722,
      "외모": 3723,
      "외로운": 3724,
      "우리는": 3725,
      "운전": 3726,
      "유부": 3727,
      "은연": 3728,
      "이니": 3729,
      "이란": 3730,
      "이미": 3731,
      "인거": 3732,
      "인공": 3733,
      "인내": 3734,
      "일만": 3735,
      "일하는": 3736,
      "입을": 3737,
      "있지요": 3738,
      "있더라고요": 3739,
      "자면": 3740,
      "잡는": 3741,
      "잤어": 3742,
      "점이": 3743,
      "졌으면": 3744,
      "좋으면": 3745,
      "주려": 3746,
      "줄게요": 3747,
      "줬는데": 3748,
      "지진": 3749,
      "차라리": 3750,
      "참는": 3751,
      "코스": 3752,
      "콩깍": 3753,
      "타기": 3754,
      "통해": 3755,
      "투자": 3756,
      "패턴": 3757,
      "평가": 3758,
      "포근": 3759,
      "핑계": 3760,
      "하대": 3761,
      "하라고": 3762,
      "학기": 3763,
      "학생": 3764,
      "함을": 3765,
      "회원": 3766,
      "휴식": 3767,
      "흐르": 3768,
      "좋아했던": 3769,
      "사랑했": 3770,
      "마음대로": 3771,
      "이별도": 3772,
      "이별에": 3773,
      "하지는": 3774,
      "있을까요": 3775,
      "이제야": 3776,
      "아니니까요": 3777,
      "연애로": 3778,
      "연애에": 3779,
      "들어보세요": 3780,
      "정리하는": 3781,
      "결혼은": 3782,
      "결혼하면": 3783,
      "행복은": 3784,
      "행복을": 3785,
      "조금이라도": 3786,
      "다가가보세요": 3787,
      "고민임": 3788,
      "고백을": 3789,
      "짝사랑은": 3790,
      "헤어지면": 3791,
      "헤어지지": 3792,
      "인가봅니다": 3793,
      "그녀에게": 3794,
      "가능해요": 3795,
      "감정의": 3796,
      "여자친구에게": 3797,
      "알아차": 3798,
      "해주면": 3799,
      "상대에게": 3800,
      "있었으면": 3801,
      "표현을": 3802,
      "표현해보세요": 3803,
      "이었길": 3804,
      "이해가": 3805,
      "보내는": 3806,
      "생겼네": 3807,
      "이유는": 3808,
      "노력하는": 3809,
      "회사는": 3810,
      "전화가": 3811,
      "않아서": 3812,
      "재미가": 3813,
      "어려워요": 3814,
      "인생을": 3815,
      "스트레스가": 3816,
      "달라진": 3817,
      "위로봇": 3818,
      "답답해": 3819,
      "되었습니다": 3820,
      "기대세요": 3821,
      "다음부터": 3822,
      "현실을": 3823,
      "현실적인": 3824,
      "거리를": 3825,
      "소리가": 3826,
      "마지막으로": 3827,
      "보이지": 3828,
      "다르겠죠": 3829,
      "기다리면": 3830,
      "고생했어요": 3831,
      "가끔은": 3832,
      "내려놓": 3833,
      "복잡한": 3834,
      "복잡하겠어요": 3835,
      "직장에서": 3836,
      "배우는": 3837,
      "주변에": 3838,
      "익숙해지": 3839,
      "지났네요": 3840,
      "마련이에요": 3841,
      "마련이죠": 3842,
      "주말에": 3843,
      "자체가": 3844,
      "기간이": 3845,
      "바쁘거나": 3846,
      "어울리는": 3847,
      "헤아리는": 3848,
      "로맨틱한": 3849,
      "로맨틱하네요": 3850,
      "두근거리": 3851,
      "슬프네요": 3852,
      "타이밍이": 3853,
      "흔들리지": 3854,
      "부탁해보세요": 3855,
      "감사합니다": 3856,
      "본인의": 3857,
      "완벽한": 3858,
      "시어머니가": 3859,
      "현재를": 3860,
      "골라보세요": 3861,
      "오랫동안": 3862,
      "꽃다발": 3863,
      "4개월": 3864,
      "가만": 3865,
      "가짐": 3866,
      "가네요": 3867,
      "간단": 3868,
      "감고": 3869,
      "강아지": 3870,
      "갖지": 3871,
      "같다": 3872,
      "거는": 3873,
      "걸어": 3874,
      "걸요": 3875,
      "것같아": 3876,
      "겹살": 3877,
      "공개": 3878,
      "공평": 3879,
      "교통": 3880,
      "구멍": 3881,
      "그를": 3882,
      "그립": 3883,
      "기숙": 3884,
      "기준": 3885,
      "길게": 3886,
      "길러": 3887,
      "김에": 3888,
      "까먹었다": 3889,
      "깨요": 3890,
      "꼬박": 3891,
      "끝에": 3892,
      "남지": 3893,
      "남에게": 3894,
      "내게": 3895,
      "냈어": 3896,
      "너도": 3897,
      "노는": 3898,
      "눈치가": 3899,
      "느낄": 3900,
      "늘어요": 3901,
      "다닐": 3902,
      "단계": 3903,
      "담을": 3904,
      "대해서": 3905,
      "도가": 3906,
      "됐어요": 3907,
      "되겠지": 3908,
      "딸기": 3909,
      "때로": 3910,
      "뛰어": 3911,
      "라이": 3912,
      "럽게": 3913,
      "려나": 3914,
      "렸나봐요": 3915,
      "로또": 3916,
      "리네": 3917,
      "마셨": 3918,
      "만으로": 3919,
      "만드는": 3920,
      "많지": 3921,
      "말해주세요": 3922,
      "말이네요": 3923,
      "말해볼까": 3924,
      "맛나게": 3925,
      "망가": 3926,
      "매너": 3927,
      "먹으": 3928,
      "먹어보세요": 3929,
      "멀리": 3930,
      "메모": 3931,
      "모자": 3932,
      "무색": 3933,
      "문신": 3934,
      "뭐라": 3935,
      "뭐할까": 3936,
      "바다": 3937,
      "반응": 3938,
      "받으세요": 3939,
      "버리는": 3940,
      "보시": 3941,
      "봅시다": 3942,
      "봉사": 3943,
      "봐서": 3944,
      "불안": 3945,
      "불공평": 3946,
      "비난": 3947,
      "비참": 3948,
      "빠져": 3949,
      "빼고": 3950,
      "뻔했어": 3951,
      "사면": 3952,
      "사는게": 3953,
      "사야지": 3954,
      "사정이": 3955,
      "삼겹살": 3956,
      "새해": 3957,
      "성별": 3958,
      "성향": 3959,
      "세포": 3960,
      "센터": 3961,
      "소음": 3962,
      "수면": 3963,
      "순위": 3964,
      "스는": 3965,
      "시는": 3966,
      "시도": 3967,
      "신뢰": 3968,
      "신중": 3969,
      "신나는": 3970,
      "실내": 3971,
      "싸워": 3972,
      "썸인가": 3973,
      "쓰지": 3974,
      "악몽": 3975,
      "애교": 3976,
      "애를": 3977,
      "야할까": 3978,
      "어주세요": 3979,
      "었다": 3980,
      "에너": 3981,
      "여우": 3982,
      "였는데": 3983,
      "왤케": 3984,
      "외국": 3985,
      "요일": 3986,
      "우스": 3987,
      "웃을": 3988,
      "웬수": 3989,
      "위기": 3990,
      "위해서": 3991,
      "육아": 3992,
      "은퇴": 3993,
      "음식을": 3994,
      "의식": 3995,
      "의욕": 3996,
      "이스": 3997,
      "이직": 3998,
      "이세요": 3999,
      "인턴": 4000,
      "일년": 4001,
      "읽어보세요": 4002,
      "입어": 4003,
      "있기": 4004,
      "있나봅니다": 4005,
      "자괴": 4006,
      "잡아": 4007,
      "적금": 4008,
      "점에서": 4009,
      "정류": 4010,
      "정보": 4011,
      "정을": 4012,
      "좋았는데": 4013,
      "주기": 4014,
      "줘보세요": 4015,
      "지갑": 4016,
      "착한": 4017,
      "참견": 4018,
      "찾는": 4019,
      "찾기를": 4020,
      "처리": 4021,
      "천재": 4022,
      "청해보세요": 4023,
      "체육": 4024,
      "쳐다": 4025,
      "쳤어": 4026,
      "충격": 4027,
      "취해보세요": 4028,
      "컨디션": 4029,
      "크림": 4030,
      "탈출": 4031,
      "통수": 4032,
      "특별": 4033,
      "표시": 4034,
      "풀어": 4035,
      "하든": 4036,
      "하겠지": 4037,
      "한숨": 4038,
      "한다는": 4039,
      "해외": 4040,
      "해달라고": 4041,
      "했네요": 4042,
      "했지만": 4043,
      "했나봅니다": 4044,
      "허무": 4045,
      "헛헛": 4046,
      "활동": 4047,
      "흐르고": 4048,
      "사람인가봐요": 4049,
      "좋아하시": 4050,
      "좋아하나봐요": 4051,
      "사랑과": 4052,
      "사랑도": 4053,
      "사랑했나봐요": 4054,
      "생각했는데": 4055,
      "생각했나봐요": 4056,
      "같아서": 4057,
      "좋아하는거": 4058,
      "여자와": 4059,
      "남자한테": 4060,
      "만나도": 4061,
      "오늘이": 4062,
      "오늘따라": 4063,
      "자신감": 4064,
      "에게나": 4065,
      "아니죠": 4066,
      "아니지만": 4067,
      "싶다고": 4068,
      "모르게": 4069,
      "없어도": 4070,
      "들어와": 4071,
      "혼자도": 4072,
      "결혼할": 4073,
      "결혼해도": 4074,
      "행복해지": 4075,
      "사랑이네요": 4076,
      "물어보는게": 4077,
      "고백하면": 4078,
      "짝녀에게": 4079,
      "그럴까": 4080,
      "후회는": 4081,
      "받아보세요": 4082,
      "헤어지자": 4083,
      "여행도": 4084,
      "공부해서": 4085,
      "하루도": 4086,
      "여자친구한테": 4087,
      "걱정이": 4088,
      "싫어하는": 4089,
      "알아보고": 4090,
      "관심사를": 4091,
      "데이트를": 4092,
      "기억이": 4093,
      "머리랑": 4094,
      "어떨까": 4095,
      "나만의": 4096,
      "누구든": 4097,
      "보내주세요": 4098,
      "생겼으면": 4099,
      "궁금해요": 4100,
      "많아서": 4101,
      "어디까지": 4102,
      "아프지": 4103,
      "노력하겠습니다": 4104,
      "회사와": 4105,
      "그러고": 4106,
      "잘못된": 4107,
      "잘못인": 4108,
      "느낌이야": 4109,
      "사이에": 4110,
      "만들고": 4111,
      "답답한": 4112,
      "습관이네요": 4113,
      "챙겨드세요": 4114,
      "현실의": 4115,
      "세상은": 4116,
      "세상에서": 4117,
      "그렇다면": 4118,
      "의미부여": 4119,
      "추천해요": 4120,
      "아침이": 4121,
      "안되네": 4122,
      "영화관": 4123,
      "일어났": 4124,
      "보이는": 4125,
      "그리운": 4126,
      "다르겠지요": 4127,
      "사람들은": 4128,
      "모든걸": 4129,
      "성공할": 4130,
      "기다리지": 4131,
      "기다리는게": 4132,
      "하시군요": 4133,
      "생활이": 4134,
      "관리하세요": 4135,
      "실수를": 4136,
      "가족이": 4137,
      "끝났네": 4138,
      "끝났어": 4139,
      "따뜻할": 4140,
      "아이돌": 4141,
      "놀러가고": 4142,
      "시원하게": 4143,
      "우울해": 4144,
      "나아졌": 4145,
      "나아질": 4146,
      "버렸네": 4147,
      "번호를": 4148,
      "여유가": 4149,
      "끝나고": 4150,
      "부족한": 4151,
      "방학이": 4152,
      "소식이네요": 4153,
      "더라구": 4154,
      "마셔야지": 4155,
      "하늘을": 4156,
      "기회를": 4157,
      "종교가": 4158,
      "2주가": 4159,
      "이번에는": 4160,
      "생각만해도": 4161,
      "거기까지인가봐요": 4162,
      "두달이": 4163,
      "불편해": 4164,
      "생기면": 4165,
      "집안일": 4166,
      "나타날": 4167,
      "잠수이별": 4168,
      "그럼요": 4169,
      "느끼는": 4170,
      "우연히": 4171,
      "괜찮아졌길": 4172,
      "가벼운": 4173,
      "기념일": 4174,
      "목소리를": 4175,
      "보일러": 4176,
      "이루어": 4177,
      "미세먼지": 4178,
      "긍정적인": 4179,
      "나쁘지": 4180,
      "아까워": 4181,
      "유지하는": 4182,
      "단단히": 4183,
      "소화제": 4184,
      "달콤한": 4185,
      "청첩장": 4186,
      "아무렇지도": 4187,
      "발렌타": 4188,
      "회원정보": 4189,
      "기숙사": 4190,
      "0일": 4191,
      "가길": 4192,
      "가려": 4193,
      "가는게": 4194,
      "간대": 4195,
      "간사": 4196,
      "갈거예요": 4197,
      "갔는데": 4198,
      "강렬": 4199,
      "같다고": 4200,
      "거였": 4201,
      "거요": 4202,
      "거라고": 4203,
      "건들": 4204,
      "건조": 4205,
      "걸까요": 4206,
      "검색": 4207,
      "것들이": 4208,
      "것처럼": 4209,
      "겨우": 4210,
      "겼는데": 4211,
      "고가": 4212,
      "고칠": 4213,
      "그저": 4214,
      "그사람": 4215,
      "그분이": 4216,
      "기력": 4217,
      "기한": 4218,
      "깜빡": 4219,
      "깨닫": 4220,
      "꿈은": 4221,
      "끝도": 4222,
      "난방": 4223,
      "남는": 4224,
      "남들이": 4225,
      "낭만": 4226,
      "내기": 4227,
      "냉정": 4228,
      "너는": 4229,
      "노트": 4230,
      "노후": 4231,
      "놀죠": 4232,
      "다정": 4233,
      "단둘이": 4234,
      "답장이": 4235,
      "대리": 4236,
      "도는": 4237,
      "도를": 4238,
      "동료": 4239,
      "동성": 4240,
      "동호": 4241,
      "되겠어요": 4242,
      "될거예요": 4243,
      "뒤에서": 4244,
      "드름": 4245,
      "든든": 4246,
      "듯합니다": 4247,
      "라우": 4248,
      "란게": 4249,
      "랑이": 4250,
      "렸을": 4251,
      "리러": 4252,
      "마침": 4253,
      "막말": 4254,
      "많으면": 4255,
      "말로": 4256,
      "말하고": 4257,
      "말해도": 4258,
      "말라고": 4259,
      "말해줘": 4260,
      "맞을까": 4261,
      "맞을거예요": 4262,
      "매달": 4263,
      "매주": 4264,
      "먹지": 4265,
      "멋져요": 4266,
      "멍청": 4267,
      "못했": 4268,
      "무게": 4269,
      "무기력": 4270,
      "바이": 4271,
      "바라는": 4272,
      "발목": 4273,
      "버티": 4274,
      "변하는": 4275,
      "보게": 4276,
      "보단": 4277,
      "봐야": 4278,
      "부드": 4279,
      "부르": 4280,
      "비싼": 4281,
      "뿐이": 4282,
      "사겨": 4283,
      "사내": 4284,
      "살지": 4285,
      "살아요": 4286,
      "상의": 4287,
      "새출발": 4288,
      "생리": 4289,
      "서툴": 4290,
      "선배가": 4291,
      "섬유": 4292,
      "성숙": 4293,
      "성형": 4294,
      "세워": 4295,
      "셀카": 4296,
      "소모": 4297,
      "속은": 4298,
      "수건": 4299,
      "수다": 4300,
      "술만": 4301,
      "스피": 4302,
      "식으로": 4303,
      "싶었던": 4304,
      "썸에서": 4305,
      "아기": 4306,
      "아깝": 4307,
      "안할": 4308,
      "알기": 4309,
      "앞두고": 4310,
      "약을": 4311,
      "어이": 4312,
      "어필": 4313,
      "언니": 4314,
      "여드름": 4315,
      "였으면": 4316,
      "오니까": 4317,
      "올랐": 4318,
      "올해": 4319,
      "욕심": 4320,
      "우는": 4321,
      "유학": 4322,
      "유효": 4323,
      "을거라": 4324,
      "을텐데": 4325,
      "인다": 4326,
      "인인데": 4327,
      "인스타": 4328,
      "일차": 4329,
      "일들이": 4330,
      "일부터": 4331,
      "읽씹": 4332,
      "입고": 4333,
      "입이": 4334,
      "입지": 4335,
      "잇몸": 4336,
      "자도": 4337,
      "잡으세요": 4338,
      "장에": 4339,
      "적게": 4340,
      "적령": 4341,
      "적을": 4342,
      "적이야": 4343,
      "전혀": 4344,
      "정의": 4345,
      "정해보세요": 4346,
      "제게": 4347,
      "제주": 4348,
      "좋으시": 4349,
      "주의": 4350,
      "주저": 4351,
      "줄어": 4352,
      "중국어": 4353,
      "즐겁": 4354,
      "증거를": 4355,
      "지길": 4356,
      "지울": 4357,
      "지치": 4358,
      "지하": 4359,
      "차례": 4360,
      "참지": 4361,
      "참아보세요": 4362,
      "책을": 4363,
      "철벽": 4364,
      "첫사랑이": 4365,
      "초콜": 4366,
      "최근": 4367,
      "축복": 4368,
      "출퇴근": 4369,
      "침대": 4370,
      "침이": 4371,
      "칼로": 4372,
      "크닉": 4373,
      "키가": 4374,
      "타다": 4375,
      "타던": 4376,
      "타다가": 4377,
      "택배": 4378,
      "터가": 4379,
      "터놓고": 4380,
      "토닥": 4381,
      "트라우": 4382,
      "티를": 4383,
      "풀고": 4384,
      "풀렸": 4385,
      "풀어보세요": 4386,
      "피크닉": 4387,
      "하냐": 4388,
      "하며": 4389,
      "하실": 4390,
      "하자": 4391,
      "하다는": 4392,
      "하우스": 4393,
      "할지": 4394,
      "할거라": 4395,
      "할거야": 4396,
      "해가": 4397,
      "해낼": 4398,
      "해보고": 4399,
      "해줬으면": 4400,
      "향수": 4401,
      "호의": 4402,
      "회복": 4403,
      "후유증": 4404,
      "흥미": 4405,
      "사람인데": 4406,
      "좋아했는데": 4407,
      "사랑에는": 4408,
      "생각날": 4409,
      "생각해도": 4410,
      "생각할까": 4411,
      "생각해봐요": 4412,
      "친구도": 4413,
      "친구라고": 4414,
      "마음과": 4415,
      "마음만": 4416,
      "이별하고": 4417,
      "있을지": 4418,
      "여자는": 4419,
      "여자들이": 4420,
      "힘들지요": 4421,
      "사람이니까요": 4422,
      "사람이라면": 4423,
      "만나러": 4424,
      "해야하는": 4425,
      "이제라도": 4426,
      "좋을까요": 4427,
      "아니고": 4428,
      "아니네요": 4429,
      "연애하고": 4430,
      "필요하겠어요": 4431,
      "필요했을": 4432,
      "모르는게": 4433,
      "혼자만의": 4434,
      "일이죠": 4435,
      "정리하세요": 4436,
      "인데이": 4437,
      "정말로": 4438,
      "지금보다": 4439,
      "결혼적령": 4440,
      "하나라도": 4441,
      "준비하고": 4442,
      "아직은": 4443,
      "선물로": 4444,
      "물어봐요": 4445,
      "고백하는": 4446,
      "고백하고": 4447,
      "이야기해도": 4448,
      "그럴만": 4449,
      "하기로": 4450,
      "시작하세요": 4451,
      "그녀와": 4452,
      "가능해": 4453,
      "가능합니다": 4454,
      "여행은": 4455,
      "하루를": 4456,
      "하루에도": 4457,
      "신경을": 4458,
      "신경이": 4459,
      "다는건": 4460,
      "상대가": 4461,
      "힘들어하지": 4462,
      "기억을": 4463,
      "상처받": 4464,
      "상처받지": 4465,
      "있었는데": 4466,
      "있었나요": 4467,
      "언제까지": 4468,
      "표현하는": 4469,
      "오래된": 4470,
      "하다니": 4471,
      "누구에게나": 4472,
      "결정은": 4473,
      "내일도": 4474,
      "부담스러운": 4475,
      "미련은": 4476,
      "노력하면": 4477,
      "나한테만": 4478,
      "직접적이든": 4479,
      "그러게요": 4480,
      "않았나봐요": 4481,
      "그만하고": 4482,
      "처음에": 4483,
      "사이에서": 4484,
      "우리가": 4485,
      "축하합니다": 4486,
      "답답하네": 4487,
      "되었나봐요": 4488,
      "맞는지": 4489,
      "화장하는": 4490,
      "다음에": 4491,
      "보여주세요": 4492,
      "생각나고": 4493,
      "말씀하세요": 4494,
      "정신이": 4495,
      "그렇죠": 4496,
      "순간이": 4497,
      "만남이었길": 4498,
      "안되는데": 4499,
      "안되겠지": 4500,
      "헤어짐을": 4501,
      "지내는": 4502,
      "정도는": 4503,
      "정도로": 4504,
      "아닐까": 4505,
      "모든게": 4506,
      "성공하길": 4507,
      "잊혀질": 4508,
      "엄마한테": 4509,
      "연습이": 4510,
      "하시네요": 4511,
      "문제로": 4512,
      "떠나고": 4513,
      "떠나보세요": 4514,
      "무시하는": 4515,
      "도와주": 4516,
      "별로라고": 4517,
      "아픔을": 4518,
      "아픔의": 4519,
      "학교에서": 4520,
      "기다려주세요": 4521,
      "받아들이기": 4522,
      "환승은": 4523,
      "운명이": 4524,
      "해줄까": 4525,
      "느껴져": 4526,
      "차이가": 4527,
      "하려는": 4528,
      "하려면": 4529,
      "자존심": 4530,
      "카페에서": 4531,
      "자체로": 4532,
      "태어났": 4533,
      "상담을": 4534,
      "어렵네": 4535,
      "아름답": 4536,
      "바라지": 4537,
      "취미생활": 4538,
      "당연하죠": 4539,
      "거기까지였나봐요": 4540,
      "헤아리지": 4541,
      "키우고": 4542,
      "고마워": 4543,
      "힘내지": 4544,
      "경험이": 4545,
      "버텨보세요": 4546,
      "그랬나봐요": 4547,
      "계획을": 4548,
      "속상해": 4549,
      "없애는": 4550,
      "비교하지": 4551,
      "아빠가": 4552,
      "연락처를": 4553,
      "미친듯이": 4554,
      "차가워": 4555,
      "말투가": 4556,
      "사회생활": 4557,
      "결정이었을텐데": 4558,
      "자세히": 4559,
      "달달한": 4560,
      "기분전환을": 4561,
      "30분": 4562,
      "간접적이든": 4563,
      "억지로라도": 4564,
      "모른척": 4565,
      "밝혀보세요": 4566,
      "빠를수록": 4567,
      "위로봇입니다": 4568,
      "다음부터는": 4569,
      "가만히": 4570,
      "봉사활동": 4571,
      "정류장에서": 4572,
      "주기적으로": 4573,
      "발렌타인데이": 4574,
      "노트북": 4575,
      "동료가": 4576,
      "동호회": 4577,
      "마침표": 4578,
      "제주도": 4579,
      "지하철": 4580,
      "초콜릿": 4581,
      "트라우마": 4582,
      "후유증이": 4583,
      "1주": 4584,
      "3일째": 4585,
      "가게": 4586,
      "가늠": 4587,
      "가득": 4588,
      "가을": 4589,
      "가사가": 4590,
      "간질": 4591,
      "갈때": 4592,
      "감수": 4593,
      "감은": 4594,
      "감히": 4595,
      "갔네": 4596,
      "강습": 4597,
      "거둘": 4598,
      "거에": 4599,
      "거겠지": 4600,
      "건가요": 4601,
      "걸려": 4602,
      "걸음": 4603,
      "것들": 4604,
      "겠음": 4605,
      "겠는데": 4606,
      "겨워": 4607,
      "고고": 4608,
      "고기": 4609,
      "곰곰": 4610,
      "공감": 4611,
      "공원": 4612,
      "관련": 4613,
      "괴로워": 4614,
      "구경": 4615,
      "구해보세요": 4616,
      "구하세요": 4617,
      "군침이": 4618,
      "귀를": 4619,
      "그가": 4620,
      "금연": 4621,
      "기업": 4622,
      "기프": 4623,
      "길에서": 4624,
      "김치": 4625,
      "깊게": 4626,
      "꾸며": 4627,
      "끄러": 4628,
      "끝날": 4629,
      "끼리": 4630,
      "나누": 4631,
      "나빠": 4632,
      "나왔": 4633,
      "나는데": 4634,
      "나오세요": 4635,
      "낫겠지": 4636,
      "났네": 4637,
      "내면": 4638,
      "내일이": 4639,
      "너덜": 4640,
      "넘었네": 4641,
      "놀다": 4642,
      "놓지": 4643,
      "놓으세요": 4644,
      "누굴": 4645,
      "눈썹": 4646,
      "느낀": 4647,
      "늙어": 4648,
      "능력": 4649,
      "능력을": 4650,
      "늦어": 4651,
      "다되": 4652,
      "다툼": 4653,
      "단순": 4654,
      "단호": 4655,
      "달이": 4656,
      "대우": 4657,
      "대중": 4658,
      "대회": 4659,
      "대화가": 4660,
      "더러워": 4661,
      "덜할": 4662,
      "도네요": 4663,
      "도대체": 4664,
      "동감": 4665,
      "두절": 4666,
      "득템": 4667,
      "듣기": 4668,
      "듣는데": 4669,
      "들리": 4670,
      "들면": 4671,
      "들여보세요": 4672,
      "때려": 4673,
      "떠세요": 4674,
      "떠보는": 4675,
      "뜻대로": 4676,
      "라서": 4677,
      "락가락": 4678,
      "런하시네요": 4679,
      "로봇": 4680,
      "막차": 4681,
      "막힌": 4682,
      "많네": 4683,
      "많다": 4684,
      "말한": 4685,
      "말해봐요": 4686,
      "맛도": 4687,
      "맛있을": 4688,
      "맛있어요": 4689,
      "망했어": 4690,
      "맞지": 4691,
      "맞춤": 4692,
      "매번": 4693,
      "머리는": 4694,
      "먹은": 4695,
      "먹었는데": 4696,
      "며칠": 4697,
      "면증": 4698,
      "모임": 4699,
      "모아서": 4700,
      "못하면": 4701,
      "못했던": 4702,
      "못했나봐요": 4703,
      "무릎": 4704,
      "무작": 4705,
      "물이": 4706,
      "미칠": 4707,
      "미팅": 4708,
      "바늘": 4709,
      "바닥": 4710,
      "바디": 4711,
      "바지": 4712,
      "바퀴": 4713,
      "반에": 4714,
      "발이": 4715,
      "버는": 4716,
      "버린": 4717,
      "버림": 4718,
      "법을": 4719,
      "벤트": 4720,
      "변해": 4721,
      "변하지": 4722,
      "보네": 4723,
      "보름": 4724,
      "보며": 4725,
      "보자고": 4726,
      "봐야지": 4727,
      "부부": 4728,
      "불타": 4729,
      "불안해": 4730,
      "불면증": 4731,
      "붙여보세요": 4732,
      "비행": 4733,
      "빌려보세요": 4734,
      "빠른": 4735,
      "뽑기": 4736,
      "사보세요": 4737,
      "살면": 4738,
      "살았": 4739,
      "살면서": 4740,
      "삶의": 4741,
      "새학기": 4742,
      "서류": 4743,
      "선배": 4744,
      "설계": 4745,
      "설명": 4746,
      "성덕": 4747,
      "성적": 4748,
      "세우": 4749,
      "셔요": 4750,
      "셨군요": 4751,
      "소액": 4752,
      "소유": 4753,
      "소주": 4754,
      "소심해": 4755,
      "수를": 4756,
      "수염": 4757,
      "수영": 4758,
      "수증": 4759,
      "수학": 4760,
      "술먹고": 4761,
      "쉽진": 4762,
      "슈퍼": 4763,
      "스터": 4764,
      "스팸": 4765,
      "스크림": 4766,
      "슬쩍": 4767,
      "슬픔": 4768,
      "실례": 4769,
      "싫다고": 4770,
      "심어": 4771,
      "심으로": 4772,
      "심한가봐요": 4773,
      "심하겠네요": 4774,
      "쌩얼": 4775,
      "썸만": 4776,
      "썸일": 4777,
      "썼어": 4778,
      "씻고": 4779,
      "아님": 4780,
      "아련": 4781,
      "아쉬": 4782,
      "아쉽": 4783,
      "아주": 4784,
      "안에": 4785,
      "안주": 4786,
      "않겠어요": 4787,
      "않는게": 4788,
      "않지만": 4789,
      "알뜰": 4790,
      "알았어": 4791,
      "애석": 4792,
      "애틋": 4793,
      "야해요": 4794,
      "야겠지": 4795,
      "야하는데": 4796,
      "양해": 4797,
      "얘기를": 4798,
      "어둠": 4799,
      "어리": 4800,
      "어젯": 4801,
      "없고": 4802,
      "없겠지": 4803,
      "없는게": 4804,
      "었길": 4805,
      "었겠네요": 4806,
      "었습니다": 4807,
      "었나봐": 4808,
      "였던": 4809,
      "였을": 4810,
      "영상": 4811,
      "영수증": 4812,
      "예전": 4813,
      "오길": 4814,
      "오르": 4815,
      "오토": 4816,
      "오히": 4817,
      "오락가락": 4818,
      "올거예요": 4819,
      "옷이": 4820,
      "왕따": 4821,
      "요금": 4822,
      "요리": 4823,
      "우린": 4824,
      "우니까": 4825,
      "웃어": 4826,
      "웃어보세요": 4827,
      "음식": 4828,
      "의견": 4829,
      "의사": 4830,
      "의외로": 4831,
      "이뻐": 4832,
      "이쁜": 4833,
      "이크": 4834,
      "이겠죠": 4835,
      "이벤트": 4836,
      "인건가": 4837,
      "일단": 4838,
      "잃어": 4839,
      "자가": 4840,
      "자를": 4841,
      "자요": 4842,
      "자취": 4843,
      "잖아": 4844,
      "잘라": 4845,
      "잘해주는": 4846,
      "잠재": 4847,
      "적이에요": 4848,
      "적이죠": 4849,
      "전과": 4850,
      "전세": 4851,
      "전역": 4852,
      "절한": 4853,
      "점은": 4854,
      "접어두": 4855,
      "졌는데": 4856,
      "조용": 4857,
      "조카": 4858,
      "좋게": 4859,
      "좋고": 4860,
      "좋습니다": 4861,
      "주름": 4862,
      "주차": 4863,
      "주택": 4864,
      "줄여보세요": 4865,
      "중2": 4866,
      "중고": 4867,
      "증오": 4868,
      "지긋": 4869,
      "지냈": 4870,
      "지옥": 4871,
      "지죠": 4872,
      "지키": 4873,
      "지세요": 4874,
      "지말고": 4875,
      "지르고": 4876,
      "지겨워": 4877,
      "진행": 4878,
      "질러": 4879,
      "질방": 4880,
      "짜장면": 4881,
      "짧지": 4882,
      "찌질": 4883,
      "찜질방": 4884,
      "차갑": 4885,
      "창업": 4886,
      "책임": 4887,
      "첫인상": 4888,
      "쳐보세요": 4889,
      "초기": 4890,
      "최대한": 4891,
      "추석": 4892,
      "추운": 4893,
      "치맥": 4894,
      "치열": 4895,
      "치워": 4896,
      "치유": 4897,
      "케이스": 4898,
      "코가": 4899,
      "키워": 4900,
      "탈퇴": 4901,
      "테리": 4902,
      "통화": 4903,
      "트업": 4904,
      "트콘": 4905,
      "티가": 4906,
      "파먹기": 4907,
      "평온": 4908,
      "푸는": 4909,
      "피자": 4910,
      "필름": 4911,
      "하더니": 4912,
      "학점": 4913,
      "한강": 4914,
      "합격": 4915,
      "해준": 4916,
      "해진": 4917,
      "해하지": 4918,
      "해봐도": 4919,
      "했길": 4920,
      "허리": 4921,
      "형이": 4922,
      "형편": 4923,
      "혼란": 4924,
      "혼술": 4925,
      "화나": 4926,
      "화이트": 4927,
      "효도": 4928,
      "휴식을": 4929,
      "흔적": 4930,
      "희생": 4931,
      "힘껏": 4932,
      "사람만": 4933,
      "좋아질": 4934,
      "좋아하지": 4935,
      "사랑하기": 4936,
      "사랑받고": 4937,
      "마음에서": 4938,
      "이별했습니다": 4939,
      "연락해서": 4940,
      "하지요": 4941,
      "힘들고": 4942,
      "힘들거예요": 4943,
      "힘들지도": 4944,
      "시간표": 4945,
      "사람이다": 4946,
      "만나길": 4947,
      "만나는데": 4948,
      "오늘부터": 4949,
      "해야돼": 4950,
      "자신과": 4951,
      "괜찮다면": 4952,
      "괜찮지만": 4953,
      "아니랍니다": 4954,
      "아니라는": 4955,
      "연애의": 4956,
      "할까봐": 4957,
      "마음이라도": 4958,
      "싶다는": 4959,
      "필요한가봐요": 4960,
      "시간이겠네요": 4961,
      "들어가": 4962,
      "들어도": 4963,
      "들어서": 4964,
      "있어야": 4965,
      "보고싶": 4966,
      "보고싶네": 4967,
      "혼자인": 4968,
      "당신에게": 4969,
      "정리해보세요": 4970,
      "하나봐": 4971,
      "하나봅니다": 4972,
      "중요할": 4973,
      "행복할까": 4974,
      "행복하길": 4975,
      "다가가는": 4976,
      "준비하세요": 4977,
      "고민하게": 4978,
      "찾아가": 4979,
      "힘든데": 4980,
      "물어보고": 4981,
      "이야기해": 4982,
      "그럴지도": 4983,
      "서로가": 4984,
      "받아보는": 4985,
      "사귀면": 4986,
      "사귀어도": 4987,
      "시작해도": 4988,
      "헤어지세요": 4989,
      "헤어지는게": 4990,
      "아닌가봐요": 4991,
      "가능할까": 4992,
      "감정은": 4993,
      "많은가봐요": 4994,
      "여행이": 4995,
      "공부하기": 4996,
      "하루가": 4997,
      "하루에": 4998,
      "하루종일": 4999,
      "기분은": 5000,
      "힘드신가봐요": 5001,
      "걱정은": 5002,
      "걱정되겠네요": 5003,
      "싫어하지": 5004,
      "해주지": 5005,
      "데이트가": 5006,
      "남자친구한테": 5007,
      "상처는": 5008,
      "스러울": 5009,
      "자기도": 5010,
      "언제든": 5011,
      "돌아가고": 5012,
      "않을거예요": 5013,
      "누구도": 5014,
      "이해할": 5015,
      "이해해": 5016,
      "생겼어요": 5017,
      "결정할": 5018,
      "궁금할": 5019,
      "운동으로": 5020,
      "어디로": 5021,
      "아프고": 5022,
      "노력하고": 5023,
      "지나간": 5024,
      "회사에": 5025,
      "회사에는": 5026,
      "전화하는": 5027,
      "그러는": 5028,
      "노래를": 5029,
      "아파트": 5030,
      "재미있어요": 5031,
      "소개시켜": 5032,
      "신경쓰는": 5033,
      "처음에는": 5034,
      "처음부터": 5035,
      "사이인데": 5036,
      "만들려고": 5037,
      "되었길": 5038,
      "추억은": 5039,
      "추억으로": 5040,
      "기대가": 5041,
      "매일매일": 5042,
      "세상에는": 5043,
      "건강이": 5044,
      "의미가": 5045,
      "의미를": 5046,
      "의미있는": 5047,
      "사랑한다는": 5048,
      "만남과": 5049,
      "만남이": 5050,
      "1년이": 5051,
      "추천합니다": 5052,
      "추천해줘": 5053,
      "다니는": 5054,
      "일어날": 5055,
      "상대방도": 5056,
      "보이스피": 5057,
      "재회를": 5058,
      "커피향": 5059,
      "적이고": 5060,
      "나가기": 5061,
      "얼마든지": 5062,
      "진심이": 5063,
      "성공을": 5064,
      "스타일이": 5065,
      "스타트업": 5066,
      "연습해보세요": 5067,
      "인정받고": 5068,
      "이별이란": 5069,
      "되어가네": 5070,
      "문제는": 5071,
      "시켜보세요": 5072,
      "얼굴이": 5073,
      "좋아할거예요": 5074,
      "상관없어요": 5075,
      "실수할": 5076,
      "실수하지": 5077,
      "도와줘": 5078,
      "별로야": 5079,
      "아픔이": 5080,
      "피곤한가봐요": 5081,
      "행복해질": 5082,
      "가야죠": 5083,
      "가야겠죠": 5084,
      "끝났으면": 5085,
      "하셨어요": 5086,
      "마주치": 5087,
      "아이스크림": 5088,
      "안녕히": 5089,
      "안녕하세요": 5090,
      "배우면": 5091,
      "행동이": 5092,
      "익숙해질": 5093,
      "집착해": 5094,
      "집착하는": 5095,
      "나을지도": 5096,
      "도전해": 5097,
      "무엇을": 5098,
      "먹으면서": 5099,
      "잊는다는": 5100,
      "포기하는": 5101,
      "그분의": 5102,
      "응원해요": 5103,
      "소식이": 5104,
      "싸우면": 5105,
      "싸우면서": 5106,
      "전남친이": 5107,
      "월급이": 5108,
      "진정으로": 5109,
      "충전하세요": 5110,
      "비밀번호": 5111,
      "청소를": 5112,
      "경우가": 5113,
      "경우도": 5114,
      "바쁘면": 5115,
      "약속을": 5116,
      "한가봅니다": 5117,
      "사랑할수록": 5118,
      "당연히": 5119,
      "퇴근길": 5120,
      "10년": 5121,
      "드시고": 5122,
      "안경테": 5123,
      "예민한가봐요": 5124,
      "올려달라고": 5125,
      "차분하게": 5126,
      "학원을": 5127,
      "두근거": 5128,
      "쉬어야": 5129,
      "이기적인": 5130,
      "선생님이": 5131,
      "집중이": 5132,
      "집중하세요": 5133,
      "최선을": 5134,
      "프로필": 5135,
      "동생한테": 5136,
      "보냈어": 5137,
      "우선순위": 5138,
      "집안일을": 5139,
      "인상이": 5140,
      "좋아한다고": 5141,
      "고쳐쓰는": 5142,
      "귀엽게": 5143,
      "아는데도": 5144,
      "피부가": 5145,
      "견디고": 5146,
      "괴롭게": 5147,
      "이용해주세요": 5148,
      "거울을": 5149,
      "계절이": 5150,
      "미래에": 5151,
      "신고하세요": 5152,
      "영원한": 5153,
      "선택일거라": 5154,
      "놀아줘": 5155,
      "치과에": 5156,
      "휴가가": 5157,
      "공허함이": 5158,
      "권태기": 5159,
      "남사친이": 5160,
      "택시비": 5161,
      "안타깝네요": 5162,
      "심호흡해보세요": 5163,
      "다양하게": 5164,
      "두번째": 5165,
      "차근차근": 5166,
      "현금영수증": 5167,
      "지나갔길": 5168,
      "각자의": 5169,
      "셀프웨딩": 5170,
      "고맙다": 5171,
      "부딪혔": 5172,
      "애정표현": 5173,
      "혼자서도": 5174,
      "스트레칭을": 5175,
      "달라지는게": 5176,
      "드라이브": 5177,
      "벗어나세요": 5178,
      "깨끗하게": 5179,
      "멋지게": 5180,
      "무거워": 5181,
      "베터리": 5182,
      "부지런하시네요": 5183,
      "센스있는": 5184,
      "심경의": 5185,
      "두근거리겠어요": 5186,
      "가짐에": 5187,
      "교통을": 5188,
      "구멍이": 5189,
      "의욕이": 5190,
      "자괴감": 5191,
      "체육대회": 5192,
      "특별한": 5193,
      "부드럽게": 5194,
      "생리통": 5195,
      "주저리": 5196,
      "최근에": 5197,
      "칼로리": 5198,
      "흥미를": 5199,
      "곰곰히": 5200,
      "기프트콘": 5201,
      "꾸며보세요": 5202,
      "대중교통을": 5203,
      "무작정": 5204,
      "비행기": 5205,
      "스터디": 5206,
      "양해를": 5207,
      "오토바이": 5208,
      "오히려": 5209,
      "화이트데이": 5210,
      "보이스피싱": 5211,
      ".?": 5212,
      "1달": 5213,
      "20": 5214,
      "9년": 5215,
      "ㅋㅋ": 5216,
      "가라": 5217,
      "가볍": 5218,
      "가스": 5219,
      "가입": 5220,
      "가려고": 5221,
      "각이": 5222,
      "간식": 5223,
      "간소음": 5224,
      "갈수록": 5225,
      "감싸": 5226,
      "같았": 5227,
      "같으면": 5228,
      "갚아": 5229,
      "개념": 5230,
      "거르세요": 5231,
      "건가봐요": 5232,
      "걸린": 5233,
      "것에": 5234,
      "것입니다": 5235,
      "것들을": 5236,
      "겠다고": 5237,
      "격려": 5238,
      "경제": 5239,
      "고장": 5240,
      "고치고": 5241,
      "곳을": 5242,
      "공간": 5243,
      "괜한": 5244,
      "괴로": 5245,
      "구분": 5246,
      "구속": 5247,
      "그것": 5248,
      "긁었어": 5249,
      "금수": 5250,
      "기네": 5251,
      "기댈": 5252,
      "기름": 5253,
      "기술": 5254,
      "기지": 5255,
      "길은": 5256,
      "꺼내": 5257,
      "꼼꼼": 5258,
      "끄는": 5259,
      "끄러워": 5260,
      "끓여": 5261,
      "끝낼": 5262,
      "끝일": 5263,
      "끝인가": 5264,
      "나날": 5265,
      "나니": 5266,
      "나약": 5267,
      "나갔어": 5268,
      "낚시": 5269,
      "난히": 5270,
      "남들": 5271,
      "남았나봐요": 5272,
      "납니다": 5273,
      "내길": 5274,
      "내내": 5275,
      "냈어요": 5276,
      "냐구": 5277,
      "너한테": 5278,
      "넘었는데": 5279,
      "높아": 5280,
      "눈은": 5281,
      "눈에서": 5282,
      "느냐에": 5283,
      "능에": 5284,
      "늦는": 5285,
      "늦잠": 5286,
      "다운": 5287,
      "다짐": 5288,
      "단톡": 5289,
      "달래": 5290,
      "달콩": 5291,
      "담긴": 5292,
      "담해보세요": 5293,
      "답은": 5294,
      "당분": 5295,
      "대해보세요": 5296,
      "더욱": 5297,
      "독한": 5298,
      "돈은": 5299,
      "돌려": 5300,
      "동산": 5301,
      "됐습니다": 5302,
      "되게": 5303,
      "되돌": 5304,
      "두셨네요": 5305,
      "뒤숭": 5306,
      "뒤통수": 5307,
      "뒷담": 5308,
      "드가": 5309,
      "드레": 5310,
      "드려": 5311,
      "들까": 5312,
      "들려": 5313,
      "들으면": 5314,
      "등산": 5315,
      "등을": 5316,
      "따르": 5317,
      "때매": 5318,
      "때예요": 5319,
      "떠났": 5320,
      "떨쳐": 5321,
      "똑같아": 5322,
      "뜨려": 5323,
      "라는게": 5324,
      "랜선": 5325,
      "력은": 5326,
      "련만": 5327,
      "롭게": 5328,
      "릅니다": 5329,
      "리폼": 5330,
      "마디": 5331,
      "마자": 5332,
      "만드": 5333,
      "말걸": 5334,
      "말자": 5335,
      "말했어": 5336,
      "맘을": 5337,
      "망한": 5338,
      "망했다": 5339,
      "맞나": 5340,
      "맞아": 5341,
      "맞으면": 5342,
      "맞아요": 5343,
      "맡겨보세요": 5344,
      "매력이": 5345,
      "먹는데": 5346,
      "먹자고": 5347,
      "먼지": 5348,
      "먼지가": 5349,
      "면허": 5350,
      "명품": 5351,
      "몇일": 5352,
      "모를": 5353,
      "모쏠": 5354,
      "목이": 5355,
      "몸에": 5356,
      "몸무게": 5357,
      "못난": 5358,
      "못해서": 5359,
      "못하는게": 5360,
      "못참고": 5361,
      "무한": 5362,
      "문을": 5363,
      "문이": 5364,
      "물가": 5365,
      "뭐임": 5366,
      "뭐하는": 5367,
      "미용": 5368,
      "미화": 5369,
      "미끄러": 5370,
      "믿으세요": 5371,
      "믿음을": 5372,
      "바르고": 5373,
      "밖은": 5374,
      "밖에서": 5375,
      "반갑": 5376,
      "반년": 5377,
      "받기": 5378,
      "방문": 5379,
      "배달": 5380,
      "배울": 5381,
      "배정": 5382,
      "배터": 5383,
      "버시": 5384,
      "번씩": 5385,
      "번의": 5386,
      "벌고": 5387,
      "벽에": 5388,
      "변한": 5389,
      "보는데": 5390,
      "보니까": 5391,
      "보기만": 5392,
      "복전": 5393,
      "볼게요": 5394,
      "봄은": 5395,
      "봐보세요": 5396,
      "봤네": 5397,
      "부디": 5398,
      "분노": 5399,
      "불금": 5400,
      "비하": 5401,
      "빌어요": 5402,
      "빠졌": 5403,
      "빠지는": 5404,
      "빨래": 5405,
      "사냐": 5406,
      "사도": 5407,
      "사에": 5408,
      "사탕": 5409,
      "살찐": 5410,
      "살다보면": 5411,
      "상메": 5412,
      "상종": 5413,
      "상하지": 5414,
      "생인데": 5415,
      "생일이네": 5416,
      "서서": 5417,
      "서야": 5418,
      "서툰": 5419,
      "선에서": 5420,
      "설렜": 5421,
      "세월": 5422,
      "셨나": 5423,
      "셨겠어요": 5424,
      "속도를": 5425,
      "손에": 5426,
      "손톱": 5427,
      "손해": 5428,
      "수상": 5429,
      "수준": 5430,
      "술은": 5431,
      "술한잔": 5432,
      "시골": 5433,
      "시겠네요": 5434,
      "식단": 5435,
      "식에": 5436,
      "식은": 5437,
      "신기": 5438,
      "신이": 5439,
      "신가요": 5440,
      "심한": 5441,
      "심장이": 5442,
      "싸웠": 5443,
      "썸인": 5444,
      "쏟아": 5445,
      "쓸쓸": 5446,
      "씁쓸": 5447,
      "아마": 5448,
      "아팠": 5449,
      "안한": 5450,
      "안하지": 5451,
      "안좋은": 5452,
      "알지": 5453,
      "알콩": 5454,
      "았습니다": 5455,
      "애기": 5456,
      "애인": 5457,
      "액션": 5458,
      "야하나": 5459,
      "어깨": 5460,
      "어른": 5461,
      "어리게": 5462,
      "어렸을": 5463,
      "없겠지요": 5464,
      "었나요": 5465,
      "었으니까요": 5466,
      "연속": 5467,
      "연제": 5468,
      "연휴": 5469,
      "염탐": 5470,
      "옆에서": 5471,
      "예약": 5472,
      "오게": 5473,
      "오려": 5474,
      "오를": 5475,
      "오셨": 5476,
      "오죠": 5477,
      "오는데": 5478,
      "오라고": 5479,
      "올게": 5480,
      "옷을": 5481,
      "와닿": 5482,
      "와의": 5483,
      "왔나봐요": 5484,
      "우니": 5485,
      "웃겨": 5486,
      "웃음": 5487,
      "유행": 5488,
      "유난히": 5489,
      "유연제": 5490,
      "으며": 5491,
      "으련만": 5492,
      "은행": 5493,
      "을때": 5494,
      "의금": 5495,
      "이모": 5496,
      "이틀": 5497,
      "인걸까": 5498,
      "인테리": 5499,
      "일반": 5500,
      "일시": 5501,
      "일요": 5502,
      "입에": 5503,
      "입어도": 5504,
      "잊기": 5505,
      "잊으려고": 5506,
      "작아": 5507,
      "잔인": 5508,
      "잘해주세요": 5509,
      "잘하는게": 5510,
      "쟁취": 5511,
      "저분": 5512,
      "적어": 5513,
      "적은": 5514,
      "적이네요": 5515,
      "전기": 5516,
      "전해": 5517,
      "정적인": 5518,
      "제안": 5519,
      "졌네": 5520,
      "좋네요": 5521,
      "좋지요": 5522,
      "좋으련만": 5523,
      "주가": 5524,
      "주려고": 5525,
      "주면서": 5526,
      "주제를": 5527,
      "주식으로": 5528,
      "준다면": 5529,
      "중국": 5530,
      "중이야": 5531,
      "지낼": 5532,
      "지루": 5533,
      "지겠네요": 5534,
      "지저분": 5535,
      "질거": 5536,
      "질이": 5537,
      "질질": 5538,
      "짐을": 5539,
      "집니다": 5540,
      "짧게": 5541,
      "찍고": 5542,
      "찍어": 5543,
      "차리": 5544,
      "착잡": 5545,
      "참석": 5546,
      "참을": 5547,
      "추스": 5548,
      "축제": 5549,
      "축의금": 5550,
      "층간소음": 5551,
      "치기": 5552,
      "친해지": 5553,
      "친해질": 5554,
      "카락": 5555,
      "컴퓨": 5556,
      "코인": 5557,
      "큰일이네요": 5558,
      "키울": 5559,
      "털어": 5560,
      "테니까요": 5561,
      "특징": 5562,
      "틀린": 5563,
      "편의": 5564,
      "편하고": 5565,
      "편하겠죠": 5566,
      "포장": 5567,
      "표정": 5568,
      "프라이": 5569,
      "플라": 5570,
      "하진": 5571,
      "하신가봐요": 5572,
      "하더라고요": 5573,
      "하냐고": 5574,
      "하느냐에": 5575,
      "한계": 5576,
      "한창": 5577,
      "한켠": 5578,
      "한건가": 5579,
      "한순간": 5580,
      "할래": 5581,
      "할줄": 5582,
      "할수록": 5583,
      "함부로": 5584,
      "해보면": 5585,
      "해졌어": 5586,
      "해드릴게요": 5587,
      "했을까": 5588,
      "했나요": 5589,
      "행운": 5590,
      "행운을": 5591,
      "호칭": 5592,
      "활용": 5593,
      "휴가를": 5594,
      "흑역": 5595,
      "좋아서": 5596,
      "좋아했으면": 5597,
      "사랑해요": 5598,
      "생각으로": 5599,
      "생각해서": 5600,
      "친구네": 5601,
      "친구는": 5602,
      "친구와": 5603,
      "친구인데": 5604,
      "하고싶었던": 5605,
      "마음인가봐요": 5606,
      "너무너무": 5607,
      "연락할": 5608,
      "연락했는데": 5609,
      "연락해볼까": 5610,
      "연락두절": 5611,
      "하지도": 5612,
      "있을게요": 5613,
      "여자도": 5614,
      "남자도": 5615,
      "남자애한테": 5616,
      "만나요": 5617,
      "해야겠죠": 5618,
      "자신으로": 5619,
      "좋을거": 5620,
      "좋을지": 5621,
      "아니었을": 5622,
      "연애하는": 5623,
      "연애하면": 5624,
      "연애하는데": 5625,
      "모르겠네": 5626,
      "어떻게든": 5627,
      "어떻게해": 5628,
      "들어줄": 5629,
      "들어주세요": 5630,
      "들어왔어": 5631,
      "짝남에게": 5632,
      "정리될": 5633,
      "정리하고": 5634,
      "인데요": 5635,
      "결혼하는데": 5636,
      "기다렸": 5637,
      "기다림": 5638,
      "준비하는데": 5639,
      "보다는": 5640,
      "보는건": 5641,
      "찾아온": 5642,
      "힘든가봐요": 5643,
      "물어보면": 5644,
      "고백은": 5645,
      "고백할": 5646,
      "이라서": 5647,
      "짝사랑을": 5648,
      "하기가": 5649,
      "후회를": 5650,
      "후회해도": 5651,
      "후회하기": 5652,
      "받아서": 5653,
      "받아야": 5654,
      "사귀던": 5655,
      "시작하기": 5656,
      "시작이죠": 5657,
      "헤어지기": 5658,
      "헤어지는": 5659,
      "아닌거": 5660,
      "아닌가요": 5661,
      "가능하면": 5662,
      "가능하겠죠": 5663,
      "여행가": 5664,
      "공부할": 5665,
      "여자친구를": 5666,
      "여친이랑": 5667,
      "신경써": 5668,
      "걱정할": 5669,
      "걱정된다고": 5670,
      "싫어도": 5671,
      "해주는게": 5672,
      "해주면서": 5673,
      "남자친구를": 5674,
      "남자친구에게": 5675,
      "기억의": 5676,
      "기억에서": 5677,
      "남친이랑": 5678,
      "머리카락": 5679,
      "상처도": 5680,
      "있었을": 5681,
      "표현해": 5682,
      "카톡을": 5683,
      "카톡이": 5684,
      "카톡으로": 5685,
      "함께한": 5686,
      "함께할": 5687,
      "돌아올": 5688,
      "이었나봐요": 5689,
      "이었나봅니다": 5690,
      "누구랑": 5691,
      "보내지": 5692,
      "생겼네요": 5693,
      "어디든": 5694,
      "선택할": 5695,
      "선택이길": 5696,
      "한달하고": 5697,
      "미련도": 5698,
      "지나면": 5699,
      "때문일": 5700,
      "전화해보세요": 5701,
      "그러게": 5702,
      "인연은": 5703,
      "재미없어": 5704,
      "재미있게": 5705,
      "어려울": 5706,
      "인생이죠": 5707,
      "잘못을": 5708,
      "잘못이": 5709,
      "신경쓰여": 5710,
      "해지세요": 5711,
      "상황이네요": 5712,
      "해줘서": 5713,
      "사이로": 5714,
      "중요한데": 5715,
      "되었네": 5716,
      "되었을": 5717,
      "습관이": 5718,
      "추억에": 5719,
      "이어나가": 5720,
      "화장품": 5721,
      "기대를": 5722,
      "기대하지": 5723,
      "현실과": 5724,
      "세상이": 5725,
      "요즘은": 5726,
      "순간이네요": 5727,
      "순간이었을": 5728,
      "만남에": 5729,
      "먹어야겠다": 5730,
      "1년째": 5731,
      "언젠가는": 5732,
      "만들어서": 5733,
      "일어나는": 5734,
      "일어나서": 5735,
      "헤어짐이": 5736,
      "상대방에": 5737,
      "상대방에게": 5738,
      "보이네": 5739,
      "지내길": 5740,
      "귀찮은": 5741,
      "그리울": 5742,
      "그리움": 5743,
      "다르죠": 5744,
      "어제와": 5745,
      "재회는": 5746,
      "나가야": 5747,
      "나가볼까": 5748,
      "성공하고": 5749,
      "잊혀지지": 5750,
      "없을거예요": 5751,
      "인정하고": 5752,
      "인정해주세요": 5753,
      "되어야": 5754,
      "재밌는": 5755,
      "재밌다": 5756,
      "재밌어": 5757,
      "필요한게": 5758,
      "후폭풍은": 5759,
      "관리하는": 5760,
      "짜증날": 5761,
      "아픔은": 5762,
      "게임을": 5763,
      "가야돼": 5764,
      "하셨군요": 5765,
      "마주치는": 5766,
      "마주쳐보세요": 5767,
      "두려움을": 5768,
      "운명적인": 5769,
      "주변에서": 5770,
      "힘들었죠": 5771,
      "도전하는": 5772,
      "차이는": 5773,
      "이겨내세요": 5774,
      "자존감": 5775,
      "자존감을": 5776,
      "거짓말이": 5777,
      "연인은": 5778,
      "연인으로": 5779,
      "한다는데": 5780,
      "좋아해줬으면": 5781,
      "이상형은": 5782,
      "이상형이": 5783,
      "싸우는": 5784,
      "대화로": 5785,
      "대화하는": 5786,
      "마셔도": 5787,
      "버려야지": 5788,
      "어렵죠": 5789,
      "맞춰보세요": 5790,
      "미치겠어": 5791,
      "미치겠습니다": 5792,
      "미치겠네": 5793,
      "즐기면서": 5794,
      "받아들일": 5795,
      "당연한": 5796,
      "퇴근하고": 5797,
      "드시면": 5798,
      "미워하지": 5799,
      "예민한": 5800,
      "두려워하지": 5801,
      "그대로의": 5802,
      "기본이": 5803,
      "서운해": 5804,
      "슬프게": 5805,
      "어쩔수": 5806,
      "부담스러워하지": 5807,
      "끝내고": 5808,
      "당황했겠어요": 5809,
      "사과하세요": 5810,
      "적응해야": 5811,
      "좋았던": 5812,
      "좋았으면": 5813,
      "지우고": 5814,
      "고마운": 5815,
      "놀이동산": 5816,
      "삭제하세요": 5817,
      "오빠가": 5818,
      "피해를": 5819,
      "버텨요": 5820,
      "좋아한다는": 5821,
      "잊혀지기도": 5822,
      "아름다워요": 5823,
      "....": 5824,
      "바꿔보세요": 5825,
      "바빠도": 5826,
      "바빠서": 5827,
      "점심시간": 5828,
      "조절을": 5829,
      "존재를": 5830,
      "과정이에요": 5831,
      "바뀌게": 5832,
      "배고프": 5833,
      "애매하네요": 5834,
      "이름이": 5835,
      "좋을텐데요": 5836,
      "가까운": 5837,
      "거절의": 5838,
      "사라질": 5839,
      "상사가": 5840,
      "슬퍼하고": 5841,
      "신혼여행": 5842,
      "쓰레기야": 5843,
      "소문이": 5844,
      "있으니까": 5845,
      "있으신가봐요": 5846,
      "차별해": 5847,
      "희망이": 5848,
      "미세먼지가": 5849,
      "권태기가": 5850,
      "선톡을": 5851,
      "시계는": 5852,
      "여사친이": 5853,
      "정확하게": 5854,
      "평소에": 5855,
      "해보려고": 5856,
      "심호흡을": 5857,
      "생겨서": 5858,
      "가치관이": 5859,
      "sns를": 5860,
      "막히는": 5861,
      "바꿀까": 5862,
      "소원을": 5863,
      "걸리겠지만": 5864,
      "마실까": 5865,
      "물리적": 5866,
      "필요하다면요": 5867,
      "기원합니다": 5868,
      "낭비하지": 5869,
      "떠오르는": 5870,
      "맞추세요": 5871,
      "콩깍지가": 5872,
      "달라진게": 5873,
      "반응이": 5874,
      "보시면": 5875,
      "비난하지": 5876,
      "신중하게": 5877,
      "외국인인데": 5878,
      "한숨만": 5879,
      "나아졌길": 5880,
      "강렬한": 5881,
      "사겨도": 5882,
      "서툴러": 5883,
      "섬유유연제": 5884,
      "소모가": 5885,
      "어필해보세요": 5886,
      "줄어들": 5887,
      "막힌다": 5888,
      "서류에서": 5889,
      "잃어버렸어": 5890,
      "차갑게": 5891,
      "금수저": 5892,
      "당분간": 5893,
      "뒤숭숭": 5894,
      "드레스": 5895,
      "알콩달콩": 5896,
      "인테리어": 5897,
      "프라이버시": 5898
    },
    "merges": [
      [
        "세",
        "요"
      ],
      [
        "하",
        "는"
      ],
      [
        "보",
        "세요"
      ],
      [
        "사",
        "람"
      ],
      [
        "예",
        "요"
      ],
      [
        "거",
        "예요"
      ],
      [
        "좋",
        "아"
      ],
      [
        "어",
        "요"
      ],
      [
        "사",
        "랑"
      ],
      [
        "네",
        "요"
      ],
      [
        "니",
        "다"
      ],
      [
        "생",
        "각"
      ],
      [
        "친",
        "구"
      ],
      [
        "해",
        "보세요"
      ],
      [
        "봐",
        "요"
      ],
      [
        "는",
        "데"
      ],
      [
        "하",
        "고"
      ],
      [
        "마",
        "음"
      ],
      [
        "같",
        "아"
      ],
      [
        "너",
        "무"
      ],
      [
        "좋아",
        "하는"
      ],
      [
        "이",
        "별"
      ],
      [
        "연",
        "락"
      ],
      [
        "하",
        "지"
      ],
      [
        "헤",
        "어"
      ],
      [
        "있",
        "을"
      ],
      [
        "여",
        "자"
      ],
      [
        "남",
        "자"
      ],
      [
        "으",
        "면"
      ],
      [
        "힘",
        "들"
      ],
      [
        "시",
        "간"
      ],
      [
        "해",
        "요"
      ],
      [
        "좋",
        "은"
      ],
      [
        "나",
        "봐요"
      ],
      [
        "많",
        "이"
      ],
      [
        "사람",
        "이"
      ],
      [
        "하",
        "면"
      ],
      [
        "하",
        "세요"
      ],
      [
        "에",
        "요"
      ],
      [
        "싶",
        "어"
      ],
      [
        "으",
        "로"
      ],
      [
        "한",
        "테"
      ],
      [
        "에",
        "서"
      ],
      [
        "같아",
        "요"
      ],
      [
        "있",
        "어요"
      ],
      [
        "까",
        "요"
      ],
      [
        "주",
        "세요"
      ],
      [
        "겠",
        "어요"
      ],
      [
        "아",
        "요"
      ],
      [
        "친구",
        "가"
      ],
      [
        "있",
        "는"
      ],
      [
        "만",
        "나"
      ],
      [
        "오",
        "늘"
      ],
      [
        "마",
        "세요"
      ],
      [
        "하",
        "게"
      ],
      [
        "해",
        "야"
      ],
      [
        "이",
        "에요"
      ],
      [
        "겠",
        "네요"
      ],
      [
        "자",
        "신"
      ],
      [
        "해",
        "도"
      ],
      [
        "이",
        "제"
      ],
      [
        "에",
        "게"
      ],
      [
        "겠",
        "지"
      ],
      [
        "좋",
        "을"
      ],
      [
        "습",
        "니다"
      ],
      [
        "괜",
        "찮"
      ],
      [
        "아",
        "니"
      ],
      [
        "연",
        "애"
      ],
      [
        "이",
        "야"
      ],
      [
        "라",
        "고"
      ],
      [
        "할",
        "까"
      ],
      [
        "마음",
        "이"
      ],
      [
        "싶",
        "다"
      ],
      [
        "게",
        "요"
      ],
      [
        "내",
        "가"
      ],
      [
        "필",
        "요"
      ],
      [
        "는",
        "게"
      ],
      [
        "모",
        "르"
      ],
      [
        "다",
        "른"
      ],
      [
        "가",
        "봐요"
      ],
      [
        "어",
        "떻"
      ],
      [
        "다",
        "면"
      ],
      [
        "시간",
        "이"
      ],
      [
        "없",
        "어"
      ],
      [
        "어떻",
        "게"
      ],
      [
        "들",
        "어"
      ],
      [
        "것",
        "도"
      ],
      [
        "짝",
        "남"
      ],
      [
        "헤어",
        "진"
      ],
      [
        "있",
        "어"
      ],
      [
        "보",
        "고"
      ],
      [
        "혼",
        "자"
      ],
      [
        "당",
        "신"
      ],
      [
        "겠",
        "어"
      ],
      [
        "겠",
        "죠"
      ],
      [
        "다",
        "고"
      ],
      [
        "다",
        "시"
      ],
      [
        "일",
        "이"
      ],
      [
        "수",
        "도"
      ],
      [
        "들",
        "이"
      ],
      [
        "정",
        "리"
      ],
      [
        "인",
        "데"
      ],
      [
        "정",
        "말"
      ],
      [
        "지",
        "금"
      ],
      [
        "결",
        "혼"
      ],
      [
        "하",
        "나"
      ],
      [
        "기",
        "다"
      ],
      [
        "같",
        "이"
      ],
      [
        "같",
        "은"
      ],
      [
        "그",
        "런"
      ],
      [
        "중",
        "요"
      ],
      [
        "제",
        "가"
      ],
      [
        "행",
        "복"
      ],
      [
        "조",
        "금"
      ],
      [
        "다",
        "가"
      ],
      [
        "준",
        "비"
      ],
      [
        "렇",
        "게"
      ],
      [
        "보",
        "다"
      ],
      [
        "고",
        "민"
      ],
      [
        "아",
        "직"
      ],
      [
        "해",
        "서"
      ],
      [
        "사랑",
        "이"
      ],
      [
        "라",
        "요"
      ],
      [
        "보",
        "는"
      ],
      [
        "선",
        "물"
      ],
      [
        "없",
        "는"
      ],
      [
        "지",
        "도"
      ],
      [
        "해",
        "주세요"
      ],
      [
        "없",
        "어요"
      ],
      [
        "자",
        "꾸"
      ],
      [
        "찾",
        "아"
      ],
      [
        "힘",
        "든"
      ],
      [
        "돼",
        "요"
      ],
      [
        "방",
        "법"
      ],
      [
        "아",
        "무"
      ],
      [
        "합",
        "니다"
      ],
      [
        "물",
        "어"
      ],
      [
        "저",
        "도"
      ],
      [
        "고",
        "백"
      ],
      [
        "까",
        "지"
      ],
      [
        "볼",
        "까"
      ],
      [
        "이",
        "라"
      ],
      [
        "지",
        "만"
      ],
      [
        "이야",
        "기"
      ],
      [
        "짝",
        "녀"
      ],
      [
        "했",
        "어"
      ],
      [
        "그",
        "럴"
      ],
      [
        "니",
        "까요"
      ],
      [
        "바",
        "랄"
      ],
      [
        "싶",
        "은"
      ],
      [
        "이",
        "네요"
      ],
      [
        "짝",
        "사랑"
      ],
      [
        "가",
        "는"
      ],
      [
        "대",
        "로"
      ],
      [
        "진",
        "짜"
      ],
      [
        "하",
        "기"
      ],
      [
        "겠",
        "다"
      ],
      [
        "서",
        "로"
      ],
      [
        "후",
        "회"
      ],
      [
        "먼",
        "저"
      ],
      [
        "받",
        "아"
      ],
      [
        "바랄",
        "게요"
      ],
      [
        "사",
        "귀"
      ],
      [
        "봅",
        "니다"
      ],
      [
        "될",
        "까"
      ],
      [
        "먹",
        "고"
      ],
      [
        "시",
        "작"
      ],
      [
        "헤어",
        "지"
      ],
      [
        "있을",
        "까"
      ],
      [
        "이",
        "죠"
      ],
      [
        "드",
        "세요"
      ],
      [
        "을",
        "까"
      ],
      [
        "헤어진",
        "지"
      ],
      [
        "하",
        "죠"
      ],
      [
        "인",
        "가"
      ],
      [
        "그",
        "녀"
      ],
      [
        "야",
        "지"
      ],
      [
        "에",
        "는"
      ],
      [
        "계",
        "속"
      ],
      [
        "아",
        "닌"
      ],
      [
        "자",
        "고"
      ],
      [
        "좋아",
        "요"
      ],
      [
        "가",
        "능"
      ],
      [
        "감",
        "정"
      ],
      [
        "나",
        "를"
      ],
      [
        "만",
        "큼"
      ],
      [
        "많",
        "은"
      ],
      [
        "여",
        "행"
      ],
      [
        "하는",
        "게"
      ],
      [
        "공",
        "부"
      ],
      [
        "하",
        "루"
      ],
      [
        "마음",
        "을"
      ],
      [
        "여자",
        "친구가"
      ],
      [
        "이",
        "트"
      ],
      [
        "지",
        "는"
      ],
      [
        "거",
        "라"
      ],
      [
        "기",
        "분"
      ],
      [
        "여자",
        "친구"
      ],
      [
        "힘",
        "드"
      ],
      [
        "하는",
        "데"
      ],
      [
        "려",
        "고"
      ],
      [
        "여",
        "친"
      ],
      [
        "이",
        "상"
      ],
      [
        "남자",
        "친구가"
      ],
      [
        "랍",
        "니다"
      ],
      [
        "가",
        "고"
      ],
      [
        "신",
        "경"
      ],
      [
        "않",
        "아요"
      ],
      [
        "기",
        "가"
      ],
      [
        "좋",
        "죠"
      ],
      [
        "다",
        "는"
      ],
      [
        "리",
        "는"
      ],
      [
        "했",
        "는데"
      ],
      [
        "니",
        "까"
      ],
      [
        "걱",
        "정"
      ],
      [
        "싫",
        "어"
      ],
      [
        "그",
        "래"
      ],
      [
        "나",
        "는"
      ],
      [
        "바",
        "랍니다"
      ],
      [
        "알",
        "아"
      ],
      [
        "관",
        "심"
      ],
      [
        "입",
        "니다"
      ],
      [
        "해",
        "주"
      ],
      [
        "데",
        "이트"
      ],
      [
        "상",
        "대"
      ],
      [
        "면",
        "서"
      ],
      [
        "남자",
        "친구"
      ],
      [
        "힘들",
        "어"
      ],
      [
        "기",
        "억"
      ],
      [
        "나",
        "요"
      ],
      [
        "남",
        "친"
      ],
      [
        "머",
        "리"
      ],
      [
        "되",
        "는"
      ],
      [
        "하",
        "네"
      ],
      [
        "화",
        "를"
      ],
      [
        "말",
        "해보세요"
      ],
      [
        "상",
        "처"
      ],
      [
        "적",
        "인"
      ],
      [
        "생각",
        "해요"
      ],
      [
        "사람",
        "은"
      ],
      [
        "로",
        "운"
      ],
      [
        "무",
        "슨"
      ],
      [
        "스",
        "러"
      ],
      [
        "이",
        "랑"
      ],
      [
        "있",
        "었"
      ],
      [
        "자",
        "기"
      ],
      [
        "타",
        "는"
      ],
      [
        "했",
        "던"
      ],
      [
        "어",
        "떨"
      ],
      [
        "이",
        "렇게"
      ],
      [
        "인",
        "지"
      ],
      [
        "좋",
        "겠어요"
      ],
      [
        "충",
        "분"
      ],
      [
        "걸",
        "까"
      ],
      [
        "어",
        "떤"
      ],
      [
        "언",
        "제"
      ],
      [
        "표",
        "현"
      ],
      [
        "말",
        "고"
      ],
      [
        "오",
        "래"
      ],
      [
        "있",
        "으면"
      ],
      [
        "카",
        "톡"
      ],
      [
        "하",
        "다"
      ],
      [
        "그",
        "냥"
      ],
      [
        "텐",
        "데"
      ],
      [
        "함",
        "께"
      ],
      [
        "부",
        "터"
      ],
      [
        "않",
        "는"
      ],
      [
        "헤어",
        "졌"
      ],
      [
        "나",
        "만"
      ],
      [
        "돌",
        "아"
      ],
      [
        "않",
        "을"
      ],
      [
        "어",
        "보세요"
      ],
      [
        "이",
        "었"
      ],
      [
        "힘드",
        "네"
      ],
      [
        "누",
        "구"
      ],
      [
        "몰",
        "라요"
      ],
      [
        "사랑",
        "은"
      ],
      [
        "왔",
        "어"
      ],
      [
        "이",
        "해"
      ],
      [
        "라",
        "도"
      ],
      [
        "보",
        "내"
      ],
      [
        "생",
        "겼"
      ],
      [
        "있",
        "는데"
      ],
      [
        "사람",
        "을"
      ],
      [
        "사랑",
        "하는"
      ],
      [
        "자신",
        "을"
      ],
      [
        "겠지",
        "만"
      ],
      [
        "결",
        "정"
      ],
      [
        "스",
        "트"
      ],
      [
        "이",
        "유"
      ],
      [
        "궁",
        "금"
      ],
      [
        "따",
        "라"
      ],
      [
        "리",
        "고"
      ],
      [
        "많",
        "아"
      ],
      [
        "보",
        "면"
      ],
      [
        "썸",
        "남"
      ],
      [
        "운",
        "동"
      ],
      [
        "내",
        "일"
      ],
      [
        "새",
        "로운"
      ],
      [
        "어",
        "디"
      ],
      [
        "가",
        "요"
      ],
      [
        "가",
        "지"
      ],
      [
        "선",
        "택"
      ],
      [
        "아",
        "프"
      ],
      [
        "애",
        "가"
      ],
      [
        "한",
        "달"
      ],
      [
        "어떨",
        "까요"
      ],
      [
        "부",
        "담"
      ],
      [
        "생각",
        "해보세요"
      ],
      [
        "스트",
        "레"
      ],
      [
        "미",
        "련"
      ],
      [
        "안",
        "돼"
      ],
      [
        "노",
        "력"
      ],
      [
        "지",
        "나"
      ],
      [
        "해",
        "볼까"
      ],
      [
        "기",
        "도"
      ],
      [
        "나",
        "한테"
      ],
      [
        "었",
        "어"
      ],
      [
        "처",
        "럼"
      ],
      [
        "회",
        "사"
      ],
      [
        "때",
        "문"
      ],
      [
        "전",
        "화"
      ],
      [
        "생각",
        "이"
      ],
      [
        "개",
        "월"
      ],
      [
        "직",
        "접"
      ],
      [
        "아니",
        "에요"
      ],
      [
        "가",
        "보세요"
      ],
      [
        "거",
        "나"
      ],
      [
        "않",
        "아"
      ],
      [
        "어",
        "도"
      ],
      [
        "오",
        "세요"
      ],
      [
        "조",
        "심"
      ],
      [
        "그",
        "러"
      ],
      [
        "았",
        "는데"
      ],
      [
        "인",
        "연"
      ],
      [
        "좋",
        "겠네요"
      ],
      [
        "하",
        "네요"
      ],
      [
        "연락",
        "이"
      ],
      [
        "같은",
        "데"
      ],
      [
        "노",
        "래"
      ],
      [
        "않",
        "았"
      ],
      [
        "어",
        "떡"
      ],
      [
        "없",
        "이"
      ],
      [
        "생각",
        "을"
      ],
      [
        "만",
        "날"
      ],
      [
        "아",
        "파"
      ],
      [
        "움",
        "이"
      ],
      [
        "이",
        "젠"
      ],
      [
        "재",
        "미"
      ],
      [
        "군",
        "요"
      ],
      [
        "그",
        "게"
      ],
      [
        "소",
        "개"
      ],
      [
        "쉽",
        "지"
      ],
      [
        "어",
        "려"
      ],
      [
        "으",
        "세요"
      ],
      [
        "인",
        "생"
      ],
      [
        "잘",
        "못"
      ],
      [
        "항",
        "상"
      ],
      [
        "이별",
        "을"
      ],
      [
        "괜찮",
        "아"
      ],
      [
        "신경",
        "쓰"
      ],
      [
        "스트레",
        "스"
      ],
      [
        "가",
        "세요"
      ],
      [
        "그",
        "렇게"
      ],
      [
        "동",
        "안"
      ],
      [
        "저",
        "는"
      ],
      [
        "해",
        "지"
      ],
      [
        "마음",
        "에"
      ],
      [
        "짝남",
        "이"
      ],
      [
        "그",
        "만"
      ],
      [
        "달",
        "라"
      ],
      [
        "이",
        "나"
      ],
      [
        "적",
        "으로"
      ],
      [
        "좋",
        "겠다"
      ],
      [
        "모르",
        "겠어"
      ],
      [
        "싶은",
        "데"
      ],
      [
        "느",
        "낌"
      ],
      [
        "말",
        "을"
      ],
      [
        "바",
        "라요"
      ],
      [
        "인",
        "가봐요"
      ],
      [
        "처",
        "음"
      ],
      [
        "기",
        "를"
      ],
      [
        "때",
        "가"
      ],
      [
        "상",
        "황"
      ],
      [
        "어",
        "때"
      ],
      [
        "해",
        "줘"
      ],
      [
        "사랑",
        "을"
      ],
      [
        "나",
        "봅니다"
      ],
      [
        "려",
        "보세요"
      ],
      [
        "리",
        "세요"
      ],
      [
        "사",
        "이"
      ],
      [
        "우",
        "리"
      ],
      [
        "위",
        "로"
      ],
      [
        "있",
        "죠"
      ],
      [
        "축",
        "하"
      ],
      [
        "나",
        "이"
      ],
      [
        "만",
        "났"
      ],
      [
        "만",
        "들"
      ],
      [
        "졌",
        "어"
      ],
      [
        "해",
        "봐요"
      ],
      [
        "중요",
        "한"
      ],
      [
        "찾아",
        "보세요"
      ],
      [
        "답",
        "답"
      ],
      [
        "되",
        "었"
      ],
      [
        "만",
        "에"
      ],
      [
        "맞",
        "는"
      ],
      [
        "스",
        "럽"
      ],
      [
        "습",
        "관"
      ],
      [
        "추",
        "억"
      ],
      [
        "했",
        "나봐요"
      ],
      [
        "확",
        "실"
      ],
      [
        "이별",
        "은"
      ],
      [
        "하면",
        "서"
      ],
      [
        "결",
        "국"
      ],
      [
        "나",
        "봐"
      ],
      [
        "이",
        "어"
      ],
      [
        "챙",
        "겨"
      ],
      [
        "화",
        "가"
      ],
      [
        "화",
        "장"
      ],
      [
        "관",
        "계"
      ],
      [
        "기",
        "대"
      ],
      [
        "다",
        "음"
      ],
      [
        "매",
        "일"
      ],
      [
        "보",
        "여"
      ],
      [
        "않",
        "은"
      ],
      [
        "잊",
        "어"
      ],
      [
        "현",
        "실"
      ],
      [
        "생각",
        "나"
      ],
      [
        "괜찮",
        "아요"
      ],
      [
        "감",
        "이"
      ],
      [
        "거",
        "리"
      ],
      [
        "내",
        "세요"
      ],
      [
        "달",
        "라고"
      ],
      [
        "말",
        "씀"
      ],
      [
        "세",
        "상"
      ],
      [
        "요",
        "즘"
      ],
      [
        "있",
        "게"
      ],
      [
        "정",
        "신"
      ],
      [
        "좋",
        "겠어"
      ],
      [
        "중",
        "에"
      ],
      [
        "집",
        "에"
      ],
      [
        "편",
        "이"
      ],
      [
        "충분",
        "히"
      ],
      [
        "건",
        "가"
      ],
      [
        "건",
        "강"
      ],
      [
        "그",
        "렇"
      ],
      [
        "대",
        "한"
      ],
      [
        "대",
        "화를"
      ],
      [
        "도",
        "움이"
      ],
      [
        "받",
        "고"
      ],
      [
        "수",
        "록"
      ],
      [
        "순",
        "간"
      ],
      [
        "의",
        "미"
      ],
      [
        "사랑",
        "한"
      ],
      [
        "좋을",
        "까"
      ],
      [
        "가",
        "져"
      ],
      [
        "마",
        "지"
      ],
      [
        "만",
        "남"
      ],
      [
        "먹",
        "어"
      ],
      [
        "소",
        "리"
      ],
      [
        "심",
        "히"
      ],
      [
        "열",
        "심히"
      ],
      [
        "있",
        "나봐요"
      ],
      [
        "아직",
        "도"
      ],
      [
        "물어",
        "보세요"
      ],
      [
        "때문",
        "에"
      ],
      [
        "마지",
        "막"
      ],
      [
        "1",
        "년"
      ],
      [
        "건",
        "지"
      ],
      [
        "나",
        "쁜"
      ],
      [
        "았",
        "어"
      ],
      [
        "언",
        "젠"
      ],
      [
        "주",
        "는"
      ],
      [
        "지",
        "요"
      ],
      [
        "추",
        "천"
      ],
      [
        "확",
        "인"
      ],
      [
        "마음",
        "의"
      ],
      [
        "연락",
        "을"
      ],
      [
        "가",
        "슴"
      ],
      [
        "거",
        "야"
      ],
      [
        "나",
        "서"
      ],
      [
        "다",
        "니"
      ],
      [
        "만",
        "들어"
      ],
      [
        "말",
        "아요"
      ],
      [
        "부",
        "모"
      ],
      [
        "살",
        "고"
      ],
      [
        "아",
        "침"
      ],
      [
        "얼",
        "른"
      ],
      [
        "마",
        "시"
      ],
      [
        "말",
        "이"
      ],
      [
        "안",
        "되"
      ],
      [
        "영",
        "화"
      ],
      [
        "일",
        "까"
      ],
      [
        "일",
        "어"
      ],
      [
        "사랑",
        "의"
      ],
      [
        "연락",
        "해보세요"
      ],
      [
        "헤어",
        "짐"
      ],
      [
        "시간",
        "을"
      ],
      [
        "오늘",
        "도"
      ],
      [
        "상대",
        "방"
      ],
      [
        "같",
        "애"
      ],
      [
        "보",
        "이"
      ],
      [
        "워",
        "요"
      ],
      [
        "으",
        "니까요"
      ],
      [
        "이",
        "런"
      ],
      [
        "지",
        "내"
      ],
      [
        "한",
        "번"
      ],
      [
        "한",
        "가봐요"
      ],
      [
        "생각",
        "해"
      ],
      [
        "짝녀",
        "가"
      ],
      [
        "가",
        "장"
      ],
      [
        "귀",
        "찮"
      ],
      [
        "그",
        "리"
      ],
      [
        "다",
        "르"
      ],
      [
        "드",
        "릴"
      ],
      [
        "마",
        "다"
      ],
      [
        "안",
        "해"
      ],
      [
        "어",
        "느"
      ],
      [
        "어",
        "제"
      ],
      [
        "완",
        "전"
      ],
      [
        "재",
        "회"
      ],
      [
        "정",
        "도"
      ],
      [
        "제",
        "일"
      ],
      [
        "커",
        "피"
      ],
      [
        "사람",
        "들"
      ],
      [
        "당신",
        "의"
      ],
      [
        "조금",
        "만"
      ],
      [
        "이라",
        "도"
      ],
      [
        "조심",
        "하세요"
      ],
      [
        "부모",
        "님"
      ],
      [
        "떨",
        "어"
      ],
      [
        "라",
        "면"
      ],
      [
        "못",
        "하"
      ],
      [
        "바",
        "람"
      ],
      [
        "사",
        "는"
      ],
      [
        "아",
        "닐"
      ],
      [
        "적",
        "이"
      ],
      [
        "한",
        "지"
      ],
      [
        "핸",
        "드"
      ],
      [
        "조금",
        "씩"
      ],
      [
        "헤어지",
        "고"
      ],
      [
        "감",
        "을"
      ],
      [
        "나",
        "가"
      ],
      [
        "사",
        "진"
      ],
      [
        "알",
        "려"
      ],
      [
        "얼",
        "마"
      ],
      [
        "없",
        "네"
      ],
      [
        "지",
        "지"
      ],
      [
        "진",
        "심"
      ],
      [
        "남자",
        "가"
      ],
      [
        "더",
        "니"
      ],
      [
        "많",
        "았"
      ],
      [
        "모",
        "든"
      ],
      [
        "살",
        "아"
      ],
      [
        "성",
        "공"
      ],
      [
        "쉬",
        "운"
      ],
      [
        "스",
        "타"
      ],
      [
        "잊",
        "혀"
      ],
      [
        "자",
        "연"
      ],
      [
        "잘",
        "할"
      ],
      [
        "사람이",
        "랑"
      ],
      [
        "기다",
        "리"
      ],
      [
        "그래",
        "도"
      ],
      [
        "핸드",
        "폰"
      ],
      [
        "갑",
        "자기"
      ],
      [
        "거",
        "죠"
      ],
      [
        "고",
        "생"
      ],
      [
        "모",
        "습"
      ],
      [
        "스",
        "로"
      ],
      [
        "알",
        "았는데"
      ],
      [
        "엄",
        "마"
      ],
      [
        "없",
        "을"
      ],
      [
        "연",
        "습"
      ],
      [
        "인",
        "정"
      ],
      [
        "하",
        "시"
      ],
      [
        "하",
        "겠어요"
      ],
      [
        "이별",
        "이"
      ],
      [
        "만나",
        "고"
      ],
      [
        "자신",
        "의"
      ],
      [
        "중요",
        "해요"
      ],
      [
        "스러",
        "운"
      ],
      [
        "되",
        "어"
      ],
      [
        "모",
        "두"
      ],
      [
        "문",
        "제"
      ],
      [
        "생",
        "활"
      ],
      [
        "시",
        "켜"
      ],
      [
        "싶",
        "어요"
      ],
      [
        "엄",
        "청"
      ],
      [
        "예",
        "의"
      ],
      [
        "오",
        "는"
      ],
      [
        "폭",
        "풍"
      ],
      [
        "확",
        "신"
      ],
      [
        "사람",
        "들이"
      ],
      [
        "여자",
        "가"
      ],
      [
        "모르",
        "는"
      ],
      [
        "드릴",
        "게요"
      ],
      [
        "가",
        "끔"
      ],
      [
        "나",
        "도"
      ],
      [
        "나",
        "와"
      ],
      [
        "날",
        "씨"
      ],
      [
        "내",
        "려"
      ],
      [
        "복",
        "잡"
      ],
      [
        "스",
        "스로"
      ],
      [
        "얼",
        "굴"
      ],
      [
        "예",
        "뻐"
      ],
      [
        "재",
        "밌"
      ],
      [
        "했",
        "으면"
      ],
      [
        "좋아",
        "할"
      ],
      [
        "해야",
        "지"
      ],
      [
        "필요",
        "한"
      ],
      [
        "짝남",
        "한테"
      ],
      [
        "가",
        "서"
      ],
      [
        "눈",
        "물"
      ],
      [
        "상",
        "관"
      ],
      [
        "일",
        "을"
      ],
      [
        "자",
        "주"
      ],
      [
        "후",
        "폭풍"
      ],
      [
        "사람",
        "한테"
      ],
      [
        "정리",
        "가"
      ],
      [
        "소개",
        "팅"
      ],
      [
        "것",
        "이"
      ],
      [
        "관",
        "리"
      ],
      [
        "됐",
        "어"
      ],
      [
        "되",
        "길"
      ],
      [
        "되",
        "나"
      ],
      [
        "떠",
        "나"
      ],
      [
        "무",
        "시"
      ],
      [
        "뭘",
        "까"
      ],
      [
        "실",
        "수"
      ],
      [
        "심",
        "해"
      ],
      [
        "아",
        "픈"
      ],
      [
        "알",
        "바"
      ],
      [
        "저",
        "랑"
      ],
      [
        "전",
        "에"
      ],
      [
        "짜",
        "증"
      ],
      [
        "당신",
        "이"
      ],
      [
        "기분",
        "이"
      ],
      [
        "감",
        "기"
      ],
      [
        "날",
        "이"
      ],
      [
        "도",
        "와"
      ],
      [
        "력",
        "이"
      ],
      [
        "무",
        "서"
      ],
      [
        "별",
        "로"
      ],
      [
        "아",
        "픔"
      ],
      [
        "있",
        "다면"
      ],
      [
        "잘",
        "하는"
      ],
      [
        "차",
        "단"
      ],
      [
        "피",
        "곤"
      ],
      [
        "학",
        "교"
      ],
      [
        "생각",
        "보다"
      ],
      [
        "괜찮",
        "은"
      ],
      [
        "모르",
        "겠어요"
      ],
      [
        "지금",
        "도"
      ],
      [
        "기다",
        "려"
      ],
      [
        "어떡",
        "해"
      ],
      [
        "게",
        "임"
      ],
      [
        "극",
        "복"
      ],
      [
        "다",
        "녀"
      ],
      [
        "되",
        "지"
      ],
      [
        "분",
        "이"
      ],
      [
        "빨",
        "리"
      ],
      [
        "뿐",
        "이에요"
      ],
      [
        "쁘",
        "게"
      ],
      [
        "자",
        "리"
      ],
      [
        "오늘",
        "은"
      ],
      [
        "행복",
        "해"
      ],
      [
        "받아",
        "들이"
      ],
      [
        "!",
        "!"
      ],
      [
        "가",
        "면"
      ],
      [
        "가",
        "야"
      ],
      [
        "가",
        "족"
      ],
      [
        "끝",
        "났"
      ],
      [
        "라",
        "는"
      ],
      [
        "만",
        "난"
      ],
      [
        "뭐",
        "가"
      ],
      [
        "붙",
        "잡"
      ],
      [
        "솔",
        "직"
      ],
      [
        "었",
        "는데"
      ],
      [
        "일",
        "째"
      ],
      [
        "있",
        "나"
      ],
      [
        "잘",
        "하고"
      ],
      [
        "지",
        "켜"
      ],
      [
        "천",
        "천"
      ],
      [
        "하",
        "셨"
      ],
      [
        "사람",
        "도"
      ],
      [
        "사랑",
        "에"
      ],
      [
        "친구",
        "랑"
      ],
      [
        "해주",
        "는"
      ],
      [
        "천천",
        "히"
      ],
      [
        "기",
        "는"
      ],
      [
        "기",
        "로"
      ],
      [
        "기",
        "까지"
      ],
      [
        "끝",
        "이"
      ],
      [
        "따",
        "뜻"
      ],
      [
        "려",
        "요"
      ],
      [
        "마",
        "주"
      ],
      [
        "맛",
        "있게"
      ],
      [
        "벌",
        "써"
      ],
      [
        "설",
        "레"
      ],
      [
        "외",
        "로"
      ],
      [
        "점",
        "점"
      ],
      [
        "지",
        "가"
      ],
      [
        "직",
        "장"
      ],
      [
        "하",
        "겠네요"
      ],
      [
        "했",
        "어요"
      ],
      [
        "환",
        "승"
      ],
      [
        "자신",
        "이"
      ],
      [
        "인연",
        "이"
      ],
      [
        "확신",
        "이"
      ],
      [
        "는",
        "지"
      ],
      [
        "두",
        "려"
      ],
      [
        "드",
        "는"
      ],
      [
        "때",
        "는"
      ],
      [
        "마",
        "스"
      ],
      [
        "받",
        "는"
      ],
      [
        "사",
        "세요"
      ],
      [
        "살",
        "펴"
      ],
      [
        "아",
        "는"
      ],
      [
        "아",
        "이"
      ],
      [
        "안",
        "녕"
      ],
      [
        "운",
        "명"
      ],
      [
        "힘",
        "이"
      ],
      [
        "겠지",
        "요"
      ],
      [
        "당신",
        "을"
      ],
      [
        "놓",
        "아"
      ],
      [
        "들",
        "을"
      ],
      [
        "배",
        "우"
      ],
      [
        "버",
        "리세요"
      ],
      [
        "오",
        "네"
      ],
      [
        "이",
        "면"
      ],
      [
        "잠",
        "시"
      ],
      [
        "주",
        "변"
      ],
      [
        "해",
        "보는"
      ],
      [
        "행",
        "동"
      ],
      [
        "힘",
        "내세요"
      ],
      [
        "연락",
        "하고"
      ],
      [
        "힘들",
        "었"
      ],
      [
        "하나",
        "씩"
      ],
      [
        "이유",
        "가"
      ],
      [
        "2",
        "년"
      ],
      [
        "놀",
        "러"
      ],
      [
        "눈",
        "을"
      ],
      [
        "믿",
        "어요"
      ],
      [
        "성",
        "격"
      ],
      [
        "시",
        "원"
      ],
      [
        "익",
        "숙"
      ],
      [
        "일",
        "찍"
      ],
      [
        "지",
        "났"
      ],
      [
        "집",
        "착"
      ],
      [
        "하",
        "길"
      ],
      [
        "해",
        "줄"
      ],
      [
        "만나",
        "는"
      ],
      [
        "서로",
        "에게"
      ],
      [
        "사귀",
        "고"
      ],
      [
        "아닌",
        "데"
      ],
      [
        "스러",
        "워"
      ],
      [
        "신경쓰",
        "지"
      ],
      [
        "언젠",
        "간"
      ],
      [
        "많았",
        "어요"
      ],
      [
        "나",
        "을"
      ],
      [
        "느",
        "껴"
      ],
      [
        "도",
        "전"
      ],
      [
        "마",
        "련"
      ],
      [
        "무",
        "엇"
      ],
      [
        "보",
        "지"
      ],
      [
        "슬",
        "픈"
      ],
      [
        "않",
        "죠"
      ],
      [
        "우",
        "울"
      ],
      [
        "정",
        "이"
      ],
      [
        "주",
        "말"
      ],
      [
        "즐",
        "거"
      ],
      [
        "차",
        "이"
      ],
      [
        "하",
        "던"
      ],
      [
        "하",
        "려"
      ],
      [
        "했",
        "습니다"
      ],
      [
        "힘들",
        "다"
      ],
      [
        "못하",
        "겠어"
      ],
      [
        "가",
        "기"
      ],
      [
        "곳",
        "으로"
      ],
      [
        "나",
        "아"
      ],
      [
        "놓",
        "고"
      ],
      [
        "다",
        "를"
      ],
      [
        "되",
        "겠네요"
      ],
      [
        "래",
        "도"
      ],
      [
        "리",
        "지"
      ],
      [
        "먹",
        "으면"
      ],
      [
        "받",
        "을"
      ],
      [
        "버",
        "렸"
      ],
      [
        "번",
        "호"
      ],
      [
        "싶",
        "네요"
      ],
      [
        "에",
        "도"
      ],
      [
        "여",
        "유"
      ],
      [
        "오",
        "랜"
      ],
      [
        "원",
        "하는"
      ],
      [
        "위",
        "해"
      ],
      [
        "이",
        "겨"
      ],
      [
        "잊",
        "는"
      ],
      [
        "잊",
        "지"
      ],
      [
        "자",
        "존"
      ],
      [
        "주",
        "고"
      ],
      [
        "주",
        "무"
      ],
      [
        "카",
        "페"
      ],
      [
        "한",
        "데"
      ],
      [
        "후",
        "련"
      ],
      [
        "힘들",
        "게"
      ],
      [
        "있었",
        "나봐요"
      ],
      [
        "간",
        "다"
      ],
      [
        "거",
        "짓"
      ],
      [
        "꿈",
        "에"
      ],
      [
        "끝",
        "나"
      ],
      [
        "눈",
        "이"
      ],
      [
        "다",
        "행"
      ],
      [
        "때",
        "까지"
      ],
      [
        "뭐",
        "야"
      ],
      [
        "보",
        "는게"
      ],
      [
        "부",
        "러"
      ],
      [
        "알",
        "게"
      ],
      [
        "애",
        "한테"
      ],
      [
        "없",
        "죠"
      ],
      [
        "연",
        "인"
      ],
      [
        "용",
        "기"
      ],
      [
        "자",
        "체"
      ],
      [
        "주",
        "지"
      ],
      [
        "최",
        "고"
      ],
      [
        "포",
        "기"
      ],
      [
        "한",
        "다"
      ],
      [
        "헷",
        "갈"
      ],
      [
        "좋아",
        "해"
      ],
      [
        "생각",
        "할"
      ],
      [
        "이별",
        "한지"
      ],
      [
        "아무",
        "것도"
      ],
      [
        "아무",
        "래도"
      ],
      [
        "여친",
        "이"
      ],
      [
        "이상",
        "형"
      ],
      [
        "이었",
        "을"
      ],
      [
        "그",
        "분"
      ],
      [
        "들",
        "은"
      ],
      [
        "르",
        "고"
      ],
      [
        "마",
        "요"
      ],
      [
        "맨",
        "날"
      ],
      [
        "미",
        "리"
      ],
      [
        "봐",
        "도"
      ],
      [
        "부",
        "족"
      ],
      [
        "비",
        "싸"
      ],
      [
        "사",
        "를"
      ],
      [
        "소",
        "중"
      ],
      [
        "속",
        "이"
      ],
      [
        "여",
        "보세요"
      ],
      [
        "응",
        "원"
      ],
      [
        "타",
        "고"
      ],
      [
        "하",
        "겠죠"
      ],
      [
        "사랑",
        "했던"
      ],
      [
        "이별",
        "후"
      ],
      [
        "지금",
        "은"
      ],
      [
        "사귀",
        "는"
      ],
      [
        "먹어",
        "야지"
      ],
      [
        "귀찮",
        "아"
      ],
      [
        "주무",
        "세요"
      ],
      [
        "갈",
        "까"
      ],
      [
        "금",
        "방"
      ],
      [
        "기",
        "간"
      ],
      [
        "나",
        "중에"
      ],
      [
        "늦",
        "지"
      ],
      [
        "데",
        "려"
      ],
      [
        "되",
        "네"
      ],
      [
        "많",
        "아요"
      ],
      [
        "먹",
        "을"
      ],
      [
        "방",
        "학"
      ],
      [
        "보",
        "통"
      ],
      [
        "소",
        "식"
      ],
      [
        "싸",
        "우"
      ],
      [
        "앞",
        "에"
      ],
      [
        "어",
        "서"
      ],
      [
        "일",
        "은"
      ],
      [
        "있",
        "습니다"
      ],
      [
        "자",
        "는"
      ],
      [
        "장",
        "이"
      ],
      [
        "전",
        "남친"
      ],
      [
        "져",
        "요"
      ],
      [
        "죽",
        "을"
      ],
      [
        "태",
        "어"
      ],
      [
        "하",
        "니"
      ],
      [
        "하",
        "나봐요"
      ],
      [
        "해",
        "질"
      ],
      [
        "좋아",
        "하면"
      ],
      [
        "좋아",
        "하게"
      ],
      [
        "친구",
        "를"
      ],
      [
        "만나",
        "지"
      ],
      [
        "괜찮",
        "을까"
      ],
      [
        "아니",
        "라"
      ],
      [
        "필요",
        "해"
      ],
      [
        "필요",
        "해요"
      ],
      [
        "그녀",
        "를"
      ],
      [
        "관심",
        "이"
      ],
      [
        "않아",
        "도"
      ],
      [
        "가져",
        "보세요"
      ],
      [
        "예의",
        "가"
      ],
      [
        "겠",
        "습니다"
      ],
      [
        "나",
        "면"
      ],
      [
        "남",
        "편이"
      ],
      [
        "내",
        "는"
      ],
      [
        "대",
        "화"
      ],
      [
        "더",
        "라"
      ],
      [
        "마",
        "셔"
      ],
      [
        "맛",
        "있는"
      ],
      [
        "무",
        "리"
      ],
      [
        "버",
        "려"
      ],
      [
        "사",
        "친"
      ],
      [
        "상",
        "담"
      ],
      [
        "시",
        "험"
      ],
      [
        "야",
        "겠다"
      ],
      [
        "어",
        "렵"
      ],
      [
        "어",
        "머"
      ],
      [
        "없",
        "네요"
      ],
      [
        "었",
        "나봐요"
      ],
      [
        "우",
        "산"
      ],
      [
        "움",
        "을"
      ],
      [
        "월",
        "급"
      ],
      [
        "이",
        "네"
      ],
      [
        "이",
        "러"
      ],
      [
        "작",
        "은"
      ],
      [
        "잠",
        "깐"
      ],
      [
        "잠",
        "이"
      ],
      [
        "중",
        "인데"
      ],
      [
        "진",
        "정"
      ],
      [
        "충",
        "전"
      ],
      [
        "하",
        "늘"
      ],
      [
        "하",
        "려고"
      ],
      [
        "한",
        "거"
      ],
      [
        "했",
        "다"
      ],
      [
        "흘",
        "렀"
      ],
      [
        "친구",
        "한테"
      ],
      [
        "이별",
        "의"
      ],
      [
        "당신",
        "은"
      ],
      [
        "중요",
        "하지"
      ],
      [
        "짝녀",
        "한테"
      ],
      [
        "감정",
        "을"
      ],
      [
        "헤어졌",
        "습니다"
      ],
      [
        "만났",
        "어"
      ],
      [
        "스럽",
        "게"
      ],
      [
        "확인",
        "해보세요"
      ],
      [
        "살펴",
        "보세요"
      ],
      [
        "?",
        "?"
      ],
      [
        "ㅠ",
        "ㅠ"
      ],
      [
        "기",
        "회"
      ],
      [
        "대",
        "요"
      ],
      [
        "동",
        "거"
      ],
      [
        "되",
        "고"
      ],
      [
        "드",
        "려요"
      ],
      [
        "로",
        "맨"
      ],
      [
        "바",
        "쁜"
      ],
      [
        "밖",
        "에"
      ],
      [
        "받",
        "았어"
      ],
      [
        "변",
        "화가"
      ],
      [
        "보",
        "러"
      ],
      [
        "비",
        "밀"
      ],
      [
        "생",
        "길"
      ],
      [
        "쇼",
        "핑"
      ],
      [
        "쉬",
        "고"
      ],
      [
        "아",
        "름"
      ],
      [
        "안",
        "나"
      ],
      [
        "알",
        "고"
      ],
      [
        "예",
        "쁘게"
      ],
      [
        "으",
        "니"
      ],
      [
        "자",
        "책"
      ],
      [
        "장",
        "난"
      ],
      [
        "전",
        "여친"
      ],
      [
        "종",
        "교"
      ],
      [
        "지",
        "고"
      ],
      [
        "청",
        "소"
      ],
      [
        "사랑",
        "해주세요"
      ],
      [
        "친구",
        "들"
      ],
      [
        "좋아하는",
        "데"
      ],
      [
        "연락",
        "해"
      ],
      [
        "연락",
        "해도"
      ],
      [
        "하지",
        "마세요"
      ],
      [
        "남자",
        "애가"
      ],
      [
        "힘들",
        "죠"
      ],
      [
        "해야",
        "할"
      ],
      [
        "고민",
        "이야"
      ],
      [
        "언제",
        "나"
      ],
      [
        "누구",
        "나"
      ],
      [
        "확실",
        "한"
      ],
      [
        "2",
        "주"
      ],
      [
        "5",
        "년"
      ],
      [
        "가",
        "네"
      ],
      [
        "같",
        "습니다"
      ],
      [
        "걸",
        "로"
      ],
      [
        "겠",
        "네"
      ],
      [
        "경",
        "우"
      ],
      [
        "그",
        "리고"
      ],
      [
        "기",
        "만"
      ],
      [
        "꾸",
        "준"
      ],
      [
        "당",
        "히"
      ],
      [
        "돈",
        "이"
      ],
      [
        "됐",
        "는데"
      ],
      [
        "되",
        "면"
      ],
      [
        "두",
        "고"
      ],
      [
        "때",
        "도"
      ],
      [
        "리",
        "게"
      ],
      [
        "맞",
        "춰"
      ],
      [
        "멋",
        "진"
      ],
      [
        "못",
        "하는"
      ],
      [
        "문",
        "자"
      ],
      [
        "미",
        "치"
      ],
      [
        "바",
        "라"
      ],
      [
        "바",
        "로"
      ],
      [
        "바",
        "쁘"
      ],
      [
        "분",
        "위"
      ],
      [
        "비",
        "가"
      ],
      [
        "안",
        "되는"
      ],
      [
        "않",
        "고"
      ],
      [
        "약",
        "속"
      ],
      [
        "없",
        "다면"
      ],
      [
        "이",
        "번"
      ],
      [
        "자",
        "격"
      ],
      [
        "주",
        "면"
      ],
      [
        "즐",
        "기"
      ],
      [
        "취",
        "미"
      ],
      [
        "커",
        "플"
      ],
      [
        "타",
        "이"
      ],
      [
        "한",
        "가"
      ],
      [
        "허",
        "전"
      ],
      [
        "사랑",
        "할"
      ],
      [
        "사랑",
        "하고"
      ],
      [
        "생각",
        "만"
      ],
      [
        "힘들",
        "어요"
      ],
      [
        "있는",
        "지"
      ],
      [
        "짝남",
        "이랑"
      ],
      [
        "고민",
        "이"
      ],
      [
        "방법",
        "이"
      ],
      [
        "이라",
        "면"
      ],
      [
        "받아",
        "들"
      ],
      [
        "아닌",
        "지"
      ],
      [
        "그래",
        "요"
      ],
      [
        "궁금",
        "해"
      ],
      [
        "가지",
        "고"
      ],
      [
        "알려",
        "줘"
      ],
      [
        "즐거",
        "운"
      ],
      [
        "같",
        "네요"
      ],
      [
        "곳",
        "이"
      ],
      [
        "당",
        "연"
      ],
      [
        "더",
        "라고"
      ],
      [
        "되",
        "는데"
      ],
      [
        "드",
        "디"
      ],
      [
        "드",
        "라"
      ],
      [
        "못",
        "해"
      ],
      [
        "받",
        "지"
      ],
      [
        "스",
        "킨"
      ],
      [
        "싫",
        "다"
      ],
      [
        "싫",
        "은"
      ],
      [
        "애",
        "랑"
      ],
      [
        "어",
        "울"
      ],
      [
        "어",
        "쩌"
      ],
      [
        "여",
        "러"
      ],
      [
        "왔",
        "는데"
      ],
      [
        "일",
        "도"
      ],
      [
        "잊",
        "고"
      ],
      [
        "잖",
        "아요"
      ],
      [
        "절",
        "대"
      ],
      [
        "조",
        "언"
      ],
      [
        "존",
        "중"
      ],
      [
        "좋",
        "겠죠"
      ],
      [
        "줬",
        "으면"
      ],
      [
        "칭",
        "찬"
      ],
      [
        "통",
        "보"
      ],
      [
        "퇴",
        "근"
      ],
      [
        "해",
        "결"
      ],
      [
        "사람",
        "에게"
      ],
      [
        "친구",
        "들이"
      ],
      [
        "여자",
        "애가"
      ],
      [
        "힘들",
        "겠지만"
      ],
      [
        "좋은",
        "데"
      ],
      [
        "이제",
        "는"
      ],
      [
        "가슴",
        "이"
      ],
      [
        "드디",
        "어"
      ],
      [
        "1",
        "0"
      ],
      [
        "가",
        "를"
      ],
      [
        "거",
        "기까지"
      ],
      [
        "것",
        "을"
      ],
      [
        "내",
        "서"
      ],
      [
        "드",
        "시"
      ],
      [
        "말",
        "해"
      ],
      [
        "몸",
        "이"
      ],
      [
        "뭐",
        "라고"
      ],
      [
        "뭔",
        "가"
      ],
      [
        "뭔",
        "지"
      ],
      [
        "미",
        "워"
      ],
      [
        "성",
        "이"
      ],
      [
        "수",
        "가"
      ],
      [
        "신",
        "가봐요"
      ],
      [
        "안",
        "경"
      ],
      [
        "안",
        "하고"
      ],
      [
        "않",
        "길"
      ],
      [
        "야",
        "죠"
      ],
      [
        "예",
        "민"
      ],
      [
        "예",
        "쁜"
      ],
      [
        "오",
        "면"
      ],
      [
        "올",
        "려"
      ],
      [
        "있",
        "네요"
      ],
      [
        "잊",
        "을"
      ],
      [
        "잠",
        "을"
      ],
      [
        "전",
        "환"
      ],
      [
        "줄",
        "까"
      ],
      [
        "지",
        "쳤"
      ],
      [
        "차",
        "분"
      ],
      [
        "취",
        "직"
      ],
      [
        "학",
        "원"
      ],
      [
        "한",
        "잔"
      ],
      [
        "헤",
        "아"
      ],
      [
        "사람",
        "에"
      ],
      [
        "시간",
        "은"
      ],
      [
        "괜찮",
        "을"
      ],
      [
        "않는",
        "다면"
      ],
      [
        "미련",
        "이"
      ],
      [
        "어려",
        "워"
      ],
      [
        "어느",
        "덧"
      ],
      [
        "아닐",
        "까요"
      ],
      [
        "두려",
        "워"
      ],
      [
        "로맨",
        "틱"
      ],
      [
        "더라고",
        "요"
      ],
      [
        "가",
        "야지"
      ],
      [
        "같",
        "네"
      ],
      [
        "거",
        "겠죠"
      ],
      [
        "그",
        "대로"
      ],
      [
        "기",
        "본"
      ],
      [
        "나",
        "랑"
      ],
      [
        "답",
        "니다"
      ],
      [
        "두",
        "근"
      ],
      [
        "두",
        "달"
      ],
      [
        "만",
        "의"
      ],
      [
        "말",
        "도"
      ],
      [
        "먹",
        "었"
      ],
      [
        "문",
        "제가"
      ],
      [
        "바",
        "보"
      ],
      [
        "생",
        "긴"
      ],
      [
        "서",
        "운"
      ],
      [
        "쉬",
        "어"
      ],
      [
        "슬",
        "프"
      ],
      [
        "썸",
        "녀"
      ],
      [
        "쓰",
        "는"
      ],
      [
        "어",
        "쩔"
      ],
      [
        "음",
        "이"
      ],
      [
        "이",
        "기"
      ],
      [
        "전",
        "히"
      ],
      [
        "첫",
        "사랑"
      ],
      [
        "치",
        "고"
      ],
      [
        "키",
        "우"
      ],
      [
        "편",
        "지"
      ],
      [
        "한",
        "게"
      ],
      [
        "해",
        "져"
      ],
      [
        "해",
        "졌"
      ],
      [
        "했",
        "을"
      ],
      [
        "사람",
        "과"
      ],
      [
        "사랑",
        "하면"
      ],
      [
        "생각",
        "하고"
      ],
      [
        "마음",
        "도"
      ],
      [
        "마음",
        "은"
      ],
      [
        "좋아하는",
        "게"
      ],
      [
        "헤어",
        "져"
      ],
      [
        "기다",
        "릴"
      ],
      [
        "물어",
        "보는"
      ],
      [
        "부담",
        "스러워"
      ],
      [
        "그러",
        "면"
      ],
      [
        "축하",
        "해요"
      ],
      [
        "자연",
        "스러운"
      ],
      [
        "짜증",
        "나"
      ],
      [
        "받아들이",
        "는"
      ],
      [
        "다행",
        "이에요"
      ],
      [
        "타이",
        "밍"
      ],
      [
        "갖",
        "고"
      ],
      [
        "거",
        "지"
      ],
      [
        "것",
        "보다"
      ],
      [
        "군",
        "대"
      ],
      [
        "귀",
        "여"
      ],
      [
        "끝",
        "내"
      ],
      [
        "나",
        "오"
      ],
      [
        "나",
        "온"
      ],
      [
        "능",
        "력이"
      ],
      [
        "니",
        "가"
      ],
      [
        "당",
        "황"
      ],
      [
        "덤",
        "덤"
      ],
      [
        "두",
        "세요"
      ],
      [
        "떨",
        "려"
      ],
      [
        "리",
        "스"
      ],
      [
        "말",
        "하세요"
      ],
      [
        "못",
        "한"
      ],
      [
        "못",
        "하고"
      ],
      [
        "뭐",
        "든"
      ],
      [
        "배",
        "워"
      ],
      [
        "변",
        "화"
      ],
      [
        "불",
        "편"
      ],
      [
        "사",
        "과"
      ],
      [
        "상",
        "이에요"
      ],
      [
        "생",
        "님"
      ],
      [
        "생",
        "일"
      ],
      [
        "선",
        "생님"
      ],
      [
        "아",
        "서"
      ],
      [
        "용",
        "기를"
      ],
      [
        "워",
        "질"
      ],
      [
        "이",
        "지"
      ],
      [
        "이",
        "라고"
      ],
      [
        "일",
        "주"
      ],
      [
        "있",
        "고"
      ],
      [
        "있",
        "지"
      ],
      [
        "있",
        "나요"
      ],
      [
        "자",
        "유"
      ],
      [
        "저",
        "를"
      ],
      [
        "적",
        "응"
      ],
      [
        "적",
        "당히"
      ],
      [
        "졸",
        "업"
      ],
      [
        "좋",
        "았"
      ],
      [
        "지",
        "우"
      ],
      [
        "집",
        "중"
      ],
      [
        "최",
        "선"
      ],
      [
        "출",
        "근"
      ],
      [
        "치",
        "가"
      ],
      [
        "프",
        "로"
      ],
      [
        "하",
        "니까"
      ],
      [
        "흔",
        "들"
      ],
      [
        "사람",
        "마다"
      ],
      [
        "힘들",
        "겠어요"
      ],
      [
        "사람이",
        "네요"
      ],
      [
        "보고",
        "싶어"
      ],
      [
        "기다",
        "리고"
      ],
      [
        "준비",
        "가"
      ],
      [
        "후회",
        "하지"
      ],
      [
        "관심",
        "을"
      ],
      [
        "충분",
        "한"
      ],
      [
        "헤어졌",
        "어"
      ],
      [
        "썸남",
        "이"
      ],
      [
        "않았",
        "으면"
      ],
      [
        "어려",
        "운"
      ],
      [
        "화장",
        "실"
      ],
      [
        "다음",
        "에는"
      ],
      [
        "진심",
        "으로"
      ],
      [
        "무서",
        "워"
      ],
      [
        "자책",
        "하지"
      ],
      [
        "꾸준",
        "히"
      ],
      [
        "가",
        "도"
      ],
      [
        "가",
        "자고"
      ],
      [
        "고",
        "마"
      ],
      [
        "그",
        "건"
      ],
      [
        "기",
        "운"
      ],
      [
        "길",
        "이"
      ],
      [
        "끝",
        "을"
      ],
      [
        "냄",
        "새"
      ],
      [
        "놀",
        "이"
      ],
      [
        "누",
        "가"
      ],
      [
        "당",
        "당"
      ],
      [
        "동",
        "생"
      ],
      [
        "따",
        "로"
      ],
      [
        "먹",
        "는"
      ],
      [
        "몰",
        "랐"
      ],
      [
        "배",
        "려"
      ],
      [
        "병",
        "원"
      ],
      [
        "보",
        "냈"
      ],
      [
        "보",
        "니"
      ],
      [
        "부",
        "탁"
      ],
      [
        "삭",
        "제"
      ],
      [
        "생",
        "기"
      ],
      [
        "식",
        "을"
      ],
      [
        "싶",
        "네"
      ],
      [
        "싶",
        "지"
      ],
      [
        "아",
        "보세요"
      ],
      [
        "았",
        "나봐요"
      ],
      [
        "얘",
        "기"
      ],
      [
        "어",
        "색"
      ],
      [
        "연",
        "예"
      ],
      [
        "오",
        "빠"
      ],
      [
        "왔",
        "다"
      ],
      [
        "우",
        "선"
      ],
      [
        "원",
        "래"
      ],
      [
        "위",
        "험"
      ],
      [
        "이",
        "성"
      ],
      [
        "있",
        "겠어요"
      ],
      [
        "있",
        "잖아요"
      ],
      [
        "저",
        "에게"
      ],
      [
        "적",
        "극"
      ],
      [
        "제",
        "대로"
      ],
      [
        "좋",
        "지"
      ],
      [
        "질",
        "투"
      ],
      [
        "집",
        "안"
      ],
      [
        "프",
        "사"
      ],
      [
        "피",
        "해"
      ],
      [
        "함",
        "이"
      ],
      [
        "힘",
        "내"
      ],
      [
        "사람",
        "의"
      ],
      [
        "사랑",
        "해"
      ],
      [
        "좋아하는",
        "지"
      ],
      [
        "하지",
        "만"
      ],
      [
        "만나",
        "보세요"
      ],
      [
        "해야",
        "할까"
      ],
      [
        "자신",
        "에게"
      ],
      [
        "이라",
        "는"
      ],
      [
        "인가",
        "봐"
      ],
      [
        "그녀",
        "가"
      ],
      [
        "감정",
        "이"
      ],
      [
        "해주",
        "고"
      ],
      [
        "남친",
        "이"
      ],
      [
        "않을",
        "까요"
      ],
      [
        "스타",
        "일"
      ],
      [
        "후폭풍",
        "이"
      ],
      [
        "스킨",
        "십"
      ],
      [
        "3",
        "년"
      ],
      [
        "3",
        "개월"
      ],
      [
        "가",
        "는데"
      ],
      [
        "감",
        "사"
      ],
      [
        "경",
        "험"
      ],
      [
        "구",
        "나"
      ],
      [
        "까",
        "봐"
      ],
      [
        "꿈",
        "을"
      ],
      [
        "나",
        "눠"
      ],
      [
        "나",
        "타"
      ],
      [
        "담",
        "배"
      ],
      [
        "됩",
        "니다"
      ],
      [
        "둘",
        "이"
      ],
      [
        "르",
        "는"
      ],
      [
        "리",
        "가"
      ],
      [
        "말",
        "하는"
      ],
      [
        "무",
        "너"
      ],
      [
        "무",
        "뎌"
      ],
      [
        "발",
        "표"
      ],
      [
        "버",
        "텨"
      ],
      [
        "본",
        "인"
      ],
      [
        "부",
        "분"
      ],
      [
        "사",
        "실"
      ],
      [
        "쉽",
        "게"
      ],
      [
        "시",
        "길"
      ],
      [
        "안",
        "타"
      ],
      [
        "안",
        "들어"
      ],
      [
        "야",
        "할"
      ],
      [
        "어",
        "플"
      ],
      [
        "없",
        "다"
      ],
      [
        "왔",
        "네"
      ],
      [
        "으",
        "시"
      ],
      [
        "이",
        "요"
      ],
      [
        "인",
        "사"
      ],
      [
        "인",
        "상"
      ],
      [
        "일",
        "이에요"
      ],
      [
        "잠",
        "수"
      ],
      [
        "좋",
        "다"
      ],
      [
        "착",
        "각"
      ],
      [
        "하",
        "다고"
      ],
      [
        "하",
        "자고"
      ],
      [
        "해",
        "지는"
      ],
      [
        "좋아",
        "한"
      ],
      [
        "만나",
        "자고"
      ],
      [
        "자신",
        "감을"
      ],
      [
        "있어",
        "도"
      ],
      [
        "일이",
        "네요"
      ],
      [
        "하나",
        "도"
      ],
      [
        "그런",
        "가봐요"
      ],
      [
        "행복",
        "한"
      ],
      [
        "서로",
        "를"
      ],
      [
        "후회",
        "할"
      ],
      [
        "머리",
        "가"
      ],
      [
        "상황",
        "을"
      ],
      [
        "완전",
        "히"
      ],
      [
        "잊혀",
        "지"
      ],
      [
        "성격",
        "이"
      ],
      [
        "거짓",
        "말"
      ],
      [
        "데려",
        "다"
      ],
      [
        "아름",
        "다"
      ],
      [
        "연예",
        "인"
      ],
      [
        ".",
        "."
      ],
      [
        "4",
        "년"
      ],
      [
        "고",
        "쳐"
      ],
      [
        "귀",
        "엽"
      ],
      [
        "그",
        "랬"
      ],
      [
        "끝",
        "은"
      ],
      [
        "놀",
        "아요"
      ],
      [
        "눈",
        "에"
      ],
      [
        "대",
        "해"
      ],
      [
        "듣",
        "고"
      ],
      [
        "리",
        "면"
      ],
      [
        "맘",
        "고생"
      ],
      [
        "바",
        "꿔"
      ],
      [
        "바",
        "빠"
      ],
      [
        "발",
        "전"
      ],
      [
        "벗",
        "어"
      ],
      [
        "불",
        "러"
      ],
      [
        "살",
        "짝"
      ],
      [
        "새",
        "벽"
      ],
      [
        "시",
        "다"
      ],
      [
        "쓰",
        "레"
      ],
      [
        "아",
        "는데"
      ],
      [
        "앞",
        "에서"
      ],
      [
        "었",
        "네"
      ],
      [
        "오",
        "지"
      ],
      [
        "위",
        "한"
      ],
      [
        "이",
        "가"
      ],
      [
        "이",
        "길"
      ],
      [
        "일",
        "상"
      ],
      [
        "있",
        "겠죠"
      ],
      [
        "장",
        "을"
      ],
      [
        "장",
        "거리"
      ],
      [
        "점",
        "심"
      ],
      [
        "조",
        "절"
      ],
      [
        "존",
        "재"
      ],
      [
        "지",
        "쳐"
      ],
      [
        "크",
        "리스"
      ],
      [
        "피",
        "부"
      ],
      [
        "하",
        "러"
      ],
      [
        "하",
        "거나"
      ],
      [
        "한",
        "동안"
      ],
      [
        "호",
        "감이"
      ],
      [
        "생각",
        "하세요"
      ],
      [
        "힘들",
        "지"
      ],
      [
        "만나",
        "세요"
      ],
      [
        "혼자",
        "가"
      ],
      [
        "아무",
        "리"
      ],
      [
        "시작",
        "해보세요"
      ],
      [
        "인가",
        "요"
      ],
      [
        "이상",
        "한"
      ],
      [
        "축하",
        "드려요"
      ],
      [
        "말씀",
        "해주세요"
      ],
      [
        "지내",
        "고"
      ],
      [
        "그리",
        "워"
      ],
      [
        "연습",
        "을"
      ],
      [
        "눈물",
        "이"
      ],
      [
        "놓아",
        "주세요"
      ],
      [
        "무엇",
        "이"
      ],
      [
        "크리스",
        "마스"
      ],
      [
        "N",
        "S"
      ],
      [
        "S",
        "NS"
      ],
      [
        "가",
        "치"
      ],
      [
        "갔",
        "어"
      ],
      [
        "견",
        "디"
      ],
      [
        "계",
        "획"
      ],
      [
        "과",
        "정"
      ],
      [
        "괜",
        "히"
      ],
      [
        "괴",
        "롭"
      ],
      [
        "그",
        "럼"
      ],
      [
        "꿨",
        "어"
      ],
      [
        "냐",
        "고"
      ],
      [
        "느",
        "끼"
      ],
      [
        "다",
        "이어"
      ],
      [
        "동",
        "물"
      ],
      [
        "떠",
        "난"
      ],
      [
        "력",
        "을"
      ],
      [
        "만",
        "이"
      ],
      [
        "면",
        "접"
      ],
      [
        "무",
        "섭"
      ],
      [
        "문",
        "득"
      ],
      [
        "바",
        "뀌"
      ],
      [
        "반",
        "복"
      ],
      [
        "배",
        "고"
      ],
      [
        "속",
        "상"
      ],
      [
        "쉬",
        "는"
      ],
      [
        "애",
        "매"
      ],
      [
        "없",
        "나"
      ],
      [
        "없",
        "애"
      ],
      [
        "없",
        "는데"
      ],
      [
        "올",
        "까"
      ],
      [
        "올",
        "라"
      ],
      [
        "우",
        "연"
      ],
      [
        "웨",
        "딩"
      ],
      [
        "의",
        "지"
      ],
      [
        "이",
        "거"
      ],
      [
        "이",
        "는"
      ],
      [
        "이",
        "름"
      ],
      [
        "이",
        "사"
      ],
      [
        "이",
        "용"
      ],
      [
        "잡",
        "고"
      ],
      [
        "저",
        "녁"
      ],
      [
        "줘",
        "도"
      ],
      [
        "줬",
        "어"
      ],
      [
        "집",
        "에서"
      ],
      [
        "치",
        "는"
      ],
      [
        "타",
        "는데"
      ],
      [
        "하",
        "다면"
      ],
      [
        "하",
        "다가"
      ],
      [
        "할",
        "텐데"
      ],
      [
        "했",
        "네"
      ],
      [
        "현",
        "상이에요"
      ],
      [
        "사랑",
        "하는데"
      ],
      [
        "생각",
        "하는"
      ],
      [
        "친구",
        "로"
      ],
      [
        "연락",
        "하면"
      ],
      [
        "남자",
        "를"
      ],
      [
        "으면",
        "서"
      ],
      [
        "만나",
        "서"
      ],
      [
        "좋을",
        "텐데"
      ],
      [
        "모르",
        "겠네요"
      ],
      [
        "이야기",
        "해보세요"
      ],
      [
        "시작",
        "이"
      ],
      [
        "여자친구",
        "와"
      ],
      [
        "이상",
        "해"
      ],
      [
        "괜찮아",
        "졌"
      ],
      [
        "괜찮아",
        "질"
      ],
      [
        "위로",
        "해"
      ],
      [
        "추억",
        "이"
      ],
      [
        "말씀",
        "해보세요"
      ],
      [
        "사랑한",
        "다고"
      ],
      [
        "자연",
        "스럽게"
      ],
      [
        "외로",
        "워"
      ],
      [
        "여유",
        "를"
      ],
      [
        "오랜",
        "만에"
      ],
      [
        "다이어",
        "트"
      ],
      [
        "6",
        "개월"
      ],
      [
        "가",
        "까"
      ],
      [
        "가",
        "벼"
      ],
      [
        "간",
        "절"
      ],
      [
        "갔",
        "다"
      ],
      [
        "같",
        "지"
      ],
      [
        "거",
        "니"
      ],
      [
        "거",
        "울"
      ],
      [
        "거",
        "절"
      ],
      [
        "계",
        "절"
      ],
      [
        "꿈",
        "이"
      ],
      [
        "나",
        "게"
      ],
      [
        "나",
        "의"
      ],
      [
        "누",
        "군"
      ],
      [
        "느",
        "라"
      ],
      [
        "는",
        "거"
      ],
      [
        "도",
        "서"
      ],
      [
        "돈",
        "을"
      ],
      [
        "될",
        "까요"
      ],
      [
        "려",
        "면"
      ],
      [
        "리",
        "기"
      ],
      [
        "많",
        "죠"
      ],
      [
        "못",
        "할"
      ],
      [
        "뭐",
        "하지"
      ],
      [
        "미",
        "래"
      ],
      [
        "바",
        "뀔"
      ],
      [
        "버",
        "스"
      ],
      [
        "비",
        "교"
      ],
      [
        "사",
        "고"
      ],
      [
        "사",
        "귄"
      ],
      [
        "사",
        "라"
      ],
      [
        "살",
        "까"
      ],
      [
        "상",
        "사"
      ],
      [
        "소",
        "한"
      ],
      [
        "속",
        "에"
      ],
      [
        "쉬",
        "세요"
      ],
      [
        "슬",
        "퍼"
      ],
      [
        "시",
        "키"
      ],
      [
        "신",
        "고"
      ],
      [
        "신",
        "혼"
      ],
      [
        "썸",
        "이"
      ],
      [
        "썸",
        "타는"
      ],
      [
        "아",
        "빠"
      ],
      [
        "안",
        "와"
      ],
      [
        "안",
        "해도"
      ],
      [
        "않",
        "네"
      ],
      [
        "앞",
        "으로"
      ],
      [
        "었",
        "을"
      ],
      [
        "였",
        "어"
      ],
      [
        "영",
        "원"
      ],
      [
        "오",
        "해"
      ],
      [
        "을",
        "거예요"
      ],
      [
        "음",
        "을"
      ],
      [
        "이",
        "혼"
      ],
      [
        "인",
        "듯"
      ],
      [
        "인",
        "형"
      ],
      [
        "일",
        "지도"
      ],
      [
        "졸",
        "려"
      ],
      [
        "중",
        "간"
      ],
      [
        "질",
        "까"
      ],
      [
        "참",
        "고"
      ],
      [
        "취",
        "업"
      ],
      [
        "할",
        "때"
      ],
      [
        "호",
        "감을"
      ],
      [
        "하는",
        "지"
      ],
      [
        "좋아",
        "할까"
      ],
      [
        "생각",
        "나는"
      ],
      [
        "연락",
        "처"
      ],
      [
        "연락",
        "하지"
      ],
      [
        "여자",
        "애"
      ],
      [
        "사람이",
        "에요"
      ],
      [
        "있는",
        "게"
      ],
      [
        "만나",
        "면"
      ],
      [
        "필요",
        "할"
      ],
      [
        "들어",
        "드릴게요"
      ],
      [
        "결혼",
        "식"
      ],
      [
        "기다",
        "리는"
      ],
      [
        "다가",
        "도"
      ],
      [
        "짝사랑",
        "하는"
      ],
      [
        "가능",
        "할"
      ],
      [
        "상처",
        "를"
      ],
      [
        "하다",
        "보면"
      ],
      [
        "생겼",
        "어"
      ],
      [
        "궁금",
        "하네요"
      ],
      [
        "썸남",
        "한테"
      ],
      [
        "내일",
        "은"
      ],
      [
        "선택",
        "일"
      ],
      [
        "부담",
        "스럽"
      ],
      [
        "지나",
        "갈"
      ],
      [
        "않았",
        "어요"
      ],
      [
        "해지",
        "면"
      ],
      [
        "나이",
        "가"
      ],
      [
        "만났",
        "는데"
      ],
      [
        "습관",
        "이에요"
      ],
      [
        "확실",
        "히"
      ],
      [
        "생각나",
        "네"
      ],
      [
        "일어",
        "나"
      ],
      [
        "날씨",
        "가"
      ],
      [
        "붙잡",
        "고"
      ],
      [
        "지켜",
        "보세요"
      ],
      [
        "소중",
        "한"
      ],
      [
        "분위",
        "기"
      ],
      [
        "어쩌",
        "지"
      ],
      [
        "쓰레",
        "기"
      ],
      [
        "도서",
        "관"
      ],
      [
        "가",
        "봅니다"
      ],
      [
        "갑",
        "작"
      ],
      [
        "개",
        "인"
      ],
      [
        "거",
        "려"
      ],
      [
        "것",
        "만"
      ],
      [
        "것",
        "은"
      ],
      [
        "결",
        "과"
      ],
      [
        "고",
        "통"
      ],
      [
        "기",
        "념"
      ],
      [
        "기",
        "울"
      ],
      [
        "깔",
        "끔"
      ],
      [
        "꿈",
        "에서"
      ],
      [
        "남",
        "을"
      ],
      [
        "남",
        "편"
      ],
      [
        "내",
        "고"
      ],
      [
        "놀",
        "아"
      ],
      [
        "느",
        "려"
      ],
      [
        "대",
        "단"
      ],
      [
        "대",
        "학"
      ],
      [
        "됐",
        "으면"
      ],
      [
        "되",
        "죠"
      ],
      [
        "되",
        "기도"
      ],
      [
        "된",
        "다고"
      ],
      [
        "드",
        "네"
      ],
      [
        "듭",
        "니다"
      ],
      [
        "때",
        "네요"
      ],
      [
        "먹",
        "을까"
      ],
      [
        "목",
        "소리"
      ],
      [
        "미",
        "세"
      ],
      [
        "미",
        "안"
      ],
      [
        "미",
        "친"
      ],
      [
        "배",
        "가"
      ],
      [
        "버",
        "리"
      ],
      [
        "보",
        "일"
      ],
      [
        "봤",
        "어"
      ],
      [
        "분",
        "들"
      ],
      [
        "비",
        "슷"
      ],
      [
        "사",
        "귈"
      ],
      [
        "상",
        "태"
      ],
      [
        "소",
        "문"
      ],
      [
        "신",
        "청"
      ],
      [
        "않",
        "으면"
      ],
      [
        "야",
        "근"
      ],
      [
        "역",
        "시"
      ],
      [
        "옆",
        "에"
      ],
      [
        "와",
        "서"
      ],
      [
        "완",
        "벽"
      ],
      [
        "왔",
        "으면"
      ],
      [
        "왔",
        "습니다"
      ],
      [
        "으",
        "려고"
      ],
      [
        "이",
        "게"
      ],
      [
        "이",
        "다"
      ],
      [
        "이",
        "럴"
      ],
      [
        "이",
        "루"
      ],
      [
        "일",
        "에"
      ],
      [
        "있",
        "네"
      ],
      [
        "있",
        "다"
      ],
      [
        "있",
        "으"
      ],
      [
        "있",
        "으니까요"
      ],
      [
        "전",
        "부"
      ],
      [
        "전",
        "해보세요"
      ],
      [
        "조",
        "급"
      ],
      [
        "종",
        "일"
      ],
      [
        "중",
        "인"
      ],
      [
        "지",
        "네"
      ],
      [
        "지",
        "워"
      ],
      [
        "짝",
        "사랑이"
      ],
      [
        "차",
        "가"
      ],
      [
        "차",
        "별"
      ],
      [
        "치",
        "과"
      ],
      [
        "카",
        "드"
      ],
      [
        "크",
        "게"
      ],
      [
        "편",
        "하게"
      ],
      [
        "호",
        "감"
      ],
      [
        "휴",
        "가"
      ],
      [
        "희",
        "망"
      ],
      [
        "하는",
        "거"
      ],
      [
        "하는",
        "건"
      ],
      [
        "좋아",
        "하고"
      ],
      [
        "사랑",
        "해서"
      ],
      [
        "연락",
        "하는"
      ],
      [
        "남자",
        "애"
      ],
      [
        "해야",
        "죠"
      ],
      [
        "연애",
        "는"
      ],
      [
        "필요",
        "하죠"
      ],
      [
        "고민",
        "하고"
      ],
      [
        "아무",
        "도"
      ],
      [
        "저도",
        "요"
      ],
      [
        "이야기",
        "를"
      ],
      [
        "이야기",
        "네요"
      ],
      [
        "하기",
        "도"
      ],
      [
        "그녀",
        "의"
      ],
      [
        "여자친구",
        "의"
      ],
      [
        "걱정",
        "돼"
      ],
      [
        "그래",
        "서"
      ],
      [
        "알아",
        "보세요"
      ],
      [
        "면서",
        "도"
      ],
      [
        "남자친구",
        "의"
      ],
      [
        "이해",
        "해주세요"
      ],
      [
        "어디",
        "서"
      ],
      [
        "노력",
        "해보세요"
      ],
      [
        "어떡",
        "하지"
      ],
      [
        "상황",
        "이"
      ],
      [
        "어때",
        "요"
      ],
      [
        "보여",
        "요"
      ],
      [
        "잊어",
        "버리세요"
      ],
      [
        "건강",
        "에"
      ],
      [
        "적이",
        "든"
      ],
      [
        "얼마",
        "나"
      ],
      [
        "엄마",
        "가"
      ],
      [
        "예뻐",
        "요"
      ],
      [
        "무서",
        "운"
      ],
      [
        "마스",
        "크"
      ],
      [
        "헷갈",
        "리게"
      ],
      [
        "흘렀",
        "네요"
      ],
      [
        "친구들",
        "과"
      ],
      [
        "받아들",
        "여"
      ],
      [
        "지쳤",
        "나봐요"
      ],
      [
        "헤어져",
        "야"
      ],
      [
        "미세",
        "먼"
      ],
      [
        "3",
        "주"
      ],
      [
        "~",
        "~"
      ],
      [
        "갑",
        "니다"
      ],
      [
        "거",
        "의"
      ],
      [
        "견",
        "뎌"
      ],
      [
        "결",
        "심"
      ],
      [
        "곳",
        "에서"
      ],
      [
        "공",
        "허"
      ],
      [
        "권",
        "태"
      ],
      [
        "그",
        "동안"
      ],
      [
        "긍",
        "정"
      ],
      [
        "깨",
        "달"
      ],
      [
        "나",
        "쁘"
      ],
      [
        "남",
        "았"
      ],
      [
        "남",
        "의"
      ],
      [
        "남",
        "사친"
      ],
      [
        "내",
        "보세요"
      ],
      [
        "놀",
        "고"
      ],
      [
        "늦",
        "게"
      ],
      [
        "다",
        "리"
      ],
      [
        "다",
        "보면"
      ],
      [
        "답",
        "이"
      ],
      [
        "더",
        "워"
      ],
      [
        "됐",
        "네"
      ],
      [
        "드",
        "리고"
      ],
      [
        "러",
        "워"
      ],
      [
        "려",
        "도"
      ],
      [
        "립",
        "니다"
      ],
      [
        "마",
        "무리"
      ],
      [
        "말",
        "투"
      ],
      [
        "말",
        "할"
      ],
      [
        "먹",
        "기"
      ],
      [
        "멀",
        "어"
      ],
      [
        "몰",
        "라"
      ],
      [
        "무",
        "덤덤"
      ],
      [
        "받",
        "은"
      ],
      [
        "변",
        "화를"
      ],
      [
        "보",
        "아요"
      ],
      [
        "봤",
        "는데"
      ],
      [
        "부",
        "럽"
      ],
      [
        "부",
        "여"
      ],
      [
        "분",
        "명"
      ],
      [
        "사",
        "야"
      ],
      [
        "사",
        "회"
      ],
      [
        "샀",
        "어"
      ],
      [
        "상",
        "을"
      ],
      [
        "선",
        "톡"
      ],
      [
        "속",
        "에서"
      ],
      [
        "시",
        "계"
      ],
      [
        "시",
        "어머"
      ],
      [
        "실",
        "망"
      ],
      [
        "실",
        "감이"
      ],
      [
        "심",
        "호"
      ],
      [
        "썸",
        "인지"
      ],
      [
        "아",
        "까"
      ],
      [
        "않",
        "게"
      ],
      [
        "않",
        "으니까요"
      ],
      [
        "알",
        "았"
      ],
      [
        "알",
        "면서도"
      ],
      [
        "야",
        "경"
      ],
      [
        "어",
        "린"
      ],
      [
        "어",
        "야"
      ],
      [
        "어",
        "장"
      ],
      [
        "없",
        "다고"
      ],
      [
        "었",
        "던"
      ],
      [
        "었",
        "어요"
      ],
      [
        "여",
        "기까지"
      ],
      [
        "여",
        "사친"
      ],
      [
        "였",
        "나봐요"
      ],
      [
        "용",
        "기가"
      ],
      [
        "원",
        "망"
      ],
      [
        "유",
        "지"
      ],
      [
        "은",
        "근"
      ],
      [
        "이",
        "건"
      ],
      [
        "이",
        "고"
      ],
      [
        "인",
        "간"
      ],
      [
        "있",
        "지만"
      ],
      [
        "잘",
        "해줘"
      ],
      [
        "저",
        "한테"
      ],
      [
        "점",
        "을"
      ],
      [
        "정",
        "확"
      ],
      [
        "지",
        "면"
      ],
      [
        "추",
        "워"
      ],
      [
        "친",
        "한"
      ],
      [
        "택",
        "시"
      ],
      [
        "판",
        "단"
      ],
      [
        "편",
        "할"
      ],
      [
        "평",
        "소"
      ],
      [
        "할",
        "게요"
      ],
      [
        "해",
        "보"
      ],
      [
        "혹",
        "시"
      ],
      [
        "사람",
        "으로"
      ],
      [
        "좋아",
        "해도"
      ],
      [
        "사랑",
        "하지"
      ],
      [
        "생각",
        "한"
      ],
      [
        "남자",
        "들은"
      ],
      [
        "만나",
        "는게"
      ],
      [
        "해야",
        "겠다"
      ],
      [
        "아니",
        "라고"
      ],
      [
        "연애",
        "를"
      ],
      [
        "필요",
        "는"
      ],
      [
        "보고",
        "싶다"
      ],
      [
        "당신",
        "도"
      ],
      [
        "기다",
        "려보세요"
      ],
      [
        "행복",
        "하게"
      ],
      [
        "선물",
        "이"
      ],
      [
        "짝녀",
        "랑"
      ],
      [
        "서로",
        "의"
      ],
      [
        "후회",
        "가"
      ],
      [
        "여행",
        "을"
      ],
      [
        "여자친구",
        "랑"
      ],
      [
        "상처",
        "가"
      ],
      [
        "언제",
        "쯤"
      ],
      [
        "헤어졌",
        "는데"
      ],
      [
        "돌아",
        "오"
      ],
      [
        "생겼",
        "는데"
      ],
      [
        "결정",
        "을"
      ],
      [
        "결정",
        "이었을"
      ],
      [
        "이유",
        "를"
      ],
      [
        "가지",
        "세요"
      ],
      [
        "회사",
        "에서"
      ],
      [
        "인생",
        "은"
      ],
      [
        "사이",
        "가"
      ],
      [
        "잊어",
        "야"
      ],
      [
        "만들어",
        "보세요"
      ],
      [
        "아침",
        "에"
      ],
      [
        "상대방",
        "을"
      ],
      [
        "사람들",
        "에게"
      ],
      [
        "무시",
        "하세요"
      ],
      [
        "하셨",
        "네요"
      ],
      [
        "즐기",
        "세요"
      ],
      [
        "당당",
        "하게"
      ],
      [
        "안타",
        "깝"
      ],
      [
        "심호",
        "흡"
      ],
      [
        "ㅎ",
        "ㅎ"
      ],
      [
        "거",
        "를"
      ],
      [
        "겨",
        "울"
      ],
      [
        "곳",
        "에"
      ],
      [
        "공",
        "통"
      ],
      [
        "국",
        "어"
      ],
      [
        "근",
        "처"
      ],
      [
        "깊",
        "은"
      ],
      [
        "끝",
        "난"
      ],
      [
        "나",
        "네"
      ],
      [
        "나",
        "올"
      ],
      [
        "나",
        "은"
      ],
      [
        "나",
        "왔어"
      ],
      [
        "나",
        "가세요"
      ],
      [
        "냐",
        "에"
      ],
      [
        "다",
        "들"
      ],
      [
        "다",
        "양"
      ],
      [
        "달",
        "째"
      ],
      [
        "대",
        "체"
      ],
      [
        "두",
        "번"
      ],
      [
        "듯",
        "이"
      ],
      [
        "디",
        "션"
      ],
      [
        "때",
        "론"
      ],
      [
        "때",
        "를"
      ],
      [
        "똑",
        "같은"
      ],
      [
        "렸",
        "어"
      ],
      [
        "로",
        "워"
      ],
      [
        "만",
        "든"
      ],
      [
        "만",
        "족"
      ],
      [
        "말",
        "은"
      ],
      [
        "말",
        "이에요"
      ],
      [
        "맘",
        "이"
      ],
      [
        "멈",
        "추"
      ],
      [
        "미",
        "안해"
      ],
      [
        "바",
        "꾸"
      ],
      [
        "보",
        "기"
      ],
      [
        "살",
        "이"
      ],
      [
        "생",
        "겨"
      ],
      [
        "선",
        "이"
      ],
      [
        "술",
        "이"
      ],
      [
        "스",
        "키"
      ],
      [
        "시",
        "기"
      ],
      [
        "쐬",
        "고"
      ],
      [
        "아",
        "예"
      ],
      [
        "안",
        "전"
      ],
      [
        "안",
        "하는"
      ],
      [
        "안",
        "돼요"
      ],
      [
        "안",
        "됐는데"
      ],
      [
        "없",
        "으면"
      ],
      [
        "울",
        "적"
      ],
      [
        "음",
        "악"
      ],
      [
        "의",
        "심"
      ],
      [
        "이",
        "래"
      ],
      [
        "일",
        "까요"
      ],
      [
        "있",
        "길"
      ],
      [
        "있",
        "겠지"
      ],
      [
        "자",
        "세"
      ],
      [
        "전",
        "공"
      ],
      [
        "정",
        "상"
      ],
      [
        "좋",
        "겠지"
      ],
      [
        "좋",
        "지만"
      ],
      [
        "주",
        "말이"
      ],
      [
        "중",
        "입니다"
      ],
      [
        "지",
        "난"
      ],
      [
        "지",
        "로"
      ],
      [
        "진",
        "급"
      ],
      [
        "짧",
        "은"
      ],
      [
        "차",
        "근"
      ],
      [
        "채",
        "워"
      ],
      [
        "초",
        "대"
      ],
      [
        "축",
        "구"
      ],
      [
        "취",
        "향"
      ],
      [
        "치",
        "지"
      ],
      [
        "클",
        "럽"
      ],
      [
        "편",
        "한"
      ],
      [
        "평",
        "생"
      ],
      [
        "피",
        "할"
      ],
      [
        "현",
        "금"
      ],
      [
        "현",
        "재"
      ],
      [
        "좋아",
        "하던"
      ],
      [
        "생각",
        "하지"
      ],
      [
        "연락",
        "은"
      ],
      [
        "있을",
        "거예요"
      ],
      [
        "여자",
        "를"
      ],
      [
        "여자",
        "애한테"
      ],
      [
        "해야",
        "겠지"
      ],
      [
        "자신",
        "에"
      ],
      [
        "아니",
        "면"
      ],
      [
        "아니",
        "라면"
      ],
      [
        "모르",
        "고"
      ],
      [
        "없어",
        "서"
      ],
      [
        "정리",
        "하는게"
      ],
      [
        "지금",
        "처럼"
      ],
      [
        "행복",
        "할"
      ],
      [
        "준비",
        "를"
      ],
      [
        "준비",
        "해보세요"
      ],
      [
        "선물",
        "을"
      ],
      [
        "찾아",
        "올"
      ],
      [
        "방법",
        "을"
      ],
      [
        "방법",
        "이에요"
      ],
      [
        "헤어지",
        "자고"
      ],
      [
        "그녀",
        "는"
      ],
      [
        "가능",
        "성이"
      ],
      [
        "감정",
        "에"
      ],
      [
        "많은",
        "데"
      ],
      [
        "상대",
        "를"
      ],
      [
        "힘들어",
        "서"
      ],
      [
        "충분",
        "해요"
      ],
      [
        "운동",
        "을"
      ],
      [
        "선택",
        "을"
      ],
      [
        "아프",
        "네"
      ],
      [
        "한달",
        "이"
      ],
      [
        "지나",
        "갔"
      ],
      [
        "노래",
        "방"
      ],
      [
        "달라",
        "지는"
      ],
      [
        "위로",
        "가"
      ],
      [
        "사랑한",
        "다면"
      ],
      [
        "언젠",
        "가"
      ],
      [
        "상대방",
        "이"
      ],
      [
        "떨어",
        "졌어"
      ],
      [
        "사진",
        "을"
      ],
      [
        "모습",
        "을"
      ],
      [
        "모습",
        "이"
      ],
      [
        "만난",
        "지"
      ],
      [
        "힘들었",
        "을"
      ],
      [
        "버렸",
        "어"
      ],
      [
        "이겨",
        "낼"
      ],
      [
        "자존",
        "감이"
      ],
      [
        "부러",
        "워"
      ],
      [
        "부러",
        "워요"
      ],
      [
        "용기",
        "내서"
      ],
      [
        "최고",
        "죠"
      ],
      [
        "응원",
        "합니다"
      ],
      [
        "진정",
        "한"
      ],
      [
        "해야할",
        "지"
      ],
      [
        "드라",
        "마"
      ],
      [
        "이성",
        "으로"
      ],
      [
        "적극",
        "적으로"
      ],
      [
        "한동안",
        "은"
      ],
      [
        "가치",
        "관"
      ],
      [
        "부담스럽",
        "지"
      ],
      [
        "6",
        "년"
      ],
      [
        "n",
        "s"
      ],
      [
        "s",
        "ns"
      ],
      [
        "가",
        "봐"
      ],
      [
        "각",
        "자"
      ],
      [
        "간",
        "의"
      ],
      [
        "건",
        "데"
      ],
      [
        "걸",
        "릴"
      ],
      [
        "겨",
        "보세요"
      ],
      [
        "골",
        "라"
      ],
      [
        "교",
        "회"
      ],
      [
        "글",
        "을"
      ],
      [
        "긴",
        "장"
      ],
      [
        "끝",
        "까지"
      ],
      [
        "내",
        "요"
      ],
      [
        "냉",
        "장"
      ],
      [
        "너",
        "에게"
      ],
      [
        "넘",
        "어"
      ],
      [
        "단",
        "단"
      ],
      [
        "달",
        "달"
      ],
      [
        "답",
        "을"
      ],
      [
        "당",
        "장"
      ],
      [
        "당",
        "했어"
      ],
      [
        "더",
        "라도"
      ],
      [
        "들",
        "고"
      ],
      [
        "떨",
        "리"
      ],
      [
        "막",
        "히"
      ],
      [
        "말",
        "까"
      ],
      [
        "말",
        "아"
      ],
      [
        "맛",
        "이"
      ],
      [
        "맥",
        "주"
      ],
      [
        "먹",
        "었어"
      ],
      [
        "모",
        "아"
      ],
      [
        "뭐",
        "하고"
      ],
      [
        "믿",
        "음이"
      ],
      [
        "바",
        "꿀"
      ],
      [
        "반",
        "대"
      ],
      [
        "받",
        "았"
      ],
      [
        "변",
        "덕"
      ],
      [
        "보",
        "낼"
      ],
      [
        "불",
        "행"
      ],
      [
        "사",
        "용"
      ],
      [
        "사",
        "소한"
      ],
      [
        "산",
        "책"
      ],
      [
        "새",
        "로"
      ],
      [
        "설",
        "렘"
      ],
      [
        "셀",
        "프"
      ],
      [
        "셨",
        "나봐요"
      ],
      [
        "소",
        "원"
      ],
      [
        "소",
        "화"
      ],
      [
        "수",
        "는"
      ],
      [
        "싶",
        "습니다"
      ],
      [
        "썸",
        "인데"
      ],
      [
        "쓰",
        "고"
      ],
      [
        "쓸",
        "데"
      ],
      [
        "아",
        "지"
      ],
      [
        "알",
        "면"
      ],
      [
        "어",
        "찌"
      ],
      [
        "없",
        "지"
      ],
      [
        "없",
        "나봐요"
      ],
      [
        "예",
        "쁘"
      ],
      [
        "온",
        "전히"
      ],
      [
        "우",
        "세요"
      ],
      [
        "운",
        "을"
      ],
      [
        "울",
        "까"
      ],
      [
        "움",
        "직"
      ],
      [
        "웠",
        "어"
      ],
      [
        "이",
        "불"
      ],
      [
        "이",
        "팅"
      ],
      [
        "인",
        "기가"
      ],
      [
        "있",
        "겠네요"
      ],
      [
        "있",
        "다고"
      ],
      [
        "있",
        "다는"
      ],
      [
        "잘",
        "해"
      ],
      [
        "적",
        "어보세요"
      ],
      [
        "제",
        "발"
      ],
      [
        "제",
        "자리"
      ],
      [
        "조",
        "건"
      ],
      [
        "조",
        "차"
      ],
      [
        "좋",
        "겠지만"
      ],
      [
        "줘",
        "야"
      ],
      [
        "진",
        "다"
      ],
      [
        "진",
        "실"
      ],
      [
        "집",
        "이"
      ],
      [
        "집",
        "들이"
      ],
      [
        "최",
        "악"
      ],
      [
        "출",
        "발"
      ],
      [
        "치",
        "료"
      ],
      [
        "태",
        "도"
      ],
      [
        "파",
        "이팅"
      ],
      [
        "페",
        "북"
      ],
      [
        "피",
        "하세요"
      ],
      [
        "하",
        "긴"
      ],
      [
        "하",
        "셔"
      ],
      [
        "하",
        "니까요"
      ],
      [
        "하",
        "겠습니다"
      ],
      [
        "할",
        "까요"
      ],
      [
        "했",
        "나"
      ],
      [
        "했",
        "겠어요"
      ],
      [
        "후",
        "가"
      ],
      [
        "흘",
        "러"
      ],
      [
        "좋아",
        "해요"
      ],
      [
        "사랑",
        "으로"
      ],
      [
        "생각",
        "에"
      ],
      [
        "생각",
        "은"
      ],
      [
        "생각",
        "이에요"
      ],
      [
        "마음",
        "으로"
      ],
      [
        "이별",
        "통보"
      ],
      [
        "남자",
        "는"
      ],
      [
        "힘들",
        "겠네요"
      ],
      [
        "힘들",
        "겠지"
      ],
      [
        "시간",
        "에"
      ],
      [
        "있는",
        "거"
      ],
      [
        "만나",
        "기로"
      ],
      [
        "아니",
        "야"
      ],
      [
        "연애",
        "가"
      ],
      [
        "필요",
        "하겠네요"
      ],
      [
        "있어",
        "서"
      ],
      [
        "일이",
        "네"
      ],
      [
        "정리",
        "할"
      ],
      [
        "중요",
        "하죠"
      ],
      [
        "다가",
        "가"
      ],
      [
        "준비",
        "하는"
      ],
      [
        "물어",
        "봐"
      ],
      [
        "고백",
        "해보세요"
      ],
      [
        "고백",
        "해도"
      ],
      [
        "공부",
        "는"
      ],
      [
        "하루",
        "하루"
      ],
      [
        "기분",
        "전환"
      ],
      [
        "남자친구",
        "와"
      ],
      [
        "이었",
        "으면"
      ],
      [
        "보내",
        "고"
      ],
      [
        "썸남",
        "이랑"
      ],
      [
        "아프",
        "네요"
      ],
      [
        "느낌",
        "이"
      ],
      [
        "나이",
        "는"
      ],
      [
        "습관",
        "을"
      ],
      [
        "관계",
        "를"
      ],
      [
        "그렇",
        "지"
      ],
      [
        "그렇",
        "지만"
      ],
      [
        "마시",
        "고"
      ],
      [
        "보이",
        "고"
      ],
      [
        "부모님",
        "이"
      ],
      [
        "떨어",
        "져"
      ],
      [
        "알려",
        "주세요"
      ],
      [
        "진심",
        "을"
      ],
      [
        "살아",
        "야"
      ],
      [
        "따뜻",
[...]
