{
  "version": "1.0",
  "truncation": null,
  "padding": null,
  "added_tokens": [
    {
      "id": 0,
      "content": "[UNK]",
      "single_word": false,
      "lstrip": false,
      "rstrip": false,
      "normalized": false,
      "special": true
    },
    {
      "id": 1,
      "content": "[PAD]",
      "single_word": false,
      "lstrip": false,
      "rstrip": false,
      "normalized": false,
      "special": true
    }
  ],
  "normalizer": null,
  "pre_tokenizer": {
    "type": "Whitespace"
  },
  "post_processor": null,
  "decoder": null,
  "model": {
    "type": "BPE",
    "dropout": null,
    "unk_token": "[UNK]",
    "continuing_subword_prefix": null,
    "end_of_word_suffix": null,
    "fuse_unk": false,
    "byte_fallback": false,
    "ignore_merges": false,
    "vocab": {
      "[UNK]": 0,
      "[PAD]": 1,
      "!": 2,
      "\"": 3,
      "#": 4,
      "$": 5,
      "%": 6,
      "&": 7,
      "'": 8,
      "(": 9,
      ")": 10,
      "*": 11,
      "+": 12,
      ",": 13,
      "-": 14,
      ".": 15,
      "/": 16,
      "0": 17,
      "1": 18,
      "2": 19,
      "3": 20,
      "4": 21,
      "5": 22,
      "6": 23,
      "7": 24,
      "8": 25,
      "9": 26,
      ":": 27,
      ";": 28,
      "<": 29,
      "=": 30,
      ">": 31,
      "?": 32,
      "@": 33,
      "A": 34,
      "B": 35,
      "C": 36,
      "D": 37,
      "E": 38,
      "F": 39,
      "G": 40,
      "H": 41,
      "I": 42,
      "J": 43,
      "K": 44,
      "L": 45,
      "M": 46,
      "N": 47,
      "O": 48,
      "P": 49,
      "Q": 50,
      "R": 51,
      "S": 52,
      "T": 53,
      "U": 54,
      "V": 55,
      "W": 56,
      "X": 57,
      "Y": 58,
      "Z": 59,
      "[": 60,
      "\\": 61,
      "]": 62,
      "^": 63,
      "_": 64,
      "`": 65,
      "a": 66,
      "b": 67,
      "c": 68,
      "d": 69,
      "e": 70,
      "f": 71,
      "g": 72,
      "h": 73,
      "i": 74,
      "j": 75,
      "k": 76,
      "l": 77,
      "m": 78,
      "n": 79,
      "o": 80,
      "p": 81,
      "q": 82,
      "r": 83,
      "s": 84,
      "t": 85,
      "u": 86,
      "v": 87,
      "w": 88,
      "x": 89,
      "y": 90,
      "z": 91,
      "{": 92,
      "|": 93,
      "}": 94,
      "~": 95,
      "": 96,
      "¡": 97,
      "£": 98,
      "¤": 99,
      "¥": 100,
      "§": 101,
      "©": 102,
      "«": 103,
      "¬": 104,
      "­": 105,
      "®": 106,
      "¯": 107,
      "°": 108,
      "±": 109,
      "²": 110,
      "³": 111,
      "´": 112,
      "µ": 113,
      "¶": 114,
      "·": 115,
      "¹": 116,
      "º": 117,
      "»": 118,
      "¼": 119,
      "¿": 120,
      "À": 121,
      "Å": 122,
      "×": 123,
      "ß": 124,
      "à": 125,
      "á": 126,
      "â": 127,
      "ã": 128,
      "ä": 129,
      "ç": 130,
      "è": 131,
      "é": 132,
      "ê": 133,
      "ë": 134,
      "ì": 135,
      "í": 136,
      "ñ": 137,
      "ò": 138,
      "ó": 139,
      "ô": 140,
      "ö": 141,
      "÷": 142,
      "ù": 143,
      "ú": 144,
      "ü": 145,
      "Ā": 146,
      "ā": 147,
      "ă": 148,
      "Đ": 149,
      "đ": 150,
      "ē": 151,
      "ě": 152,
      "ğ": 153,
      "ĩ": 154,
      "ī": 155,
      "ĺ": 156,
      "ł": 157,
      "ň": 158,
      "ō": 159,
      "Ő": 160,
      "ū": 161,
      "ŭ": 162,
      "ơ": 163,
      "ư": 164,
      "ǎ": 165,
      "ǒ": 166,
      "ə": 167,
      "ʒ": 168,
      "ʿ": 169,
      "ˀ": 170,
      "˃": 171,
      "ˈ": 172,
      "ː": 173,
      "˙": 174,
      "˚": 175,
      "˝": 176,
      "˟": 177,
      "ˮ": 178,
      "̀": 179,
      "́": 180,
      "̂": 181,
      "̃": 182,
      "̄": 183,
      "̆": 184,
      "̈": 185,
      "̊": 186,
      "̌": 187,
      "̎": 188,
      "̐": 189,
      "̑": 190,
      "̕": 191,
      "̛": 192,
      "̣": 193,
      "̥": 194,
      "̵": 195,
      "̶": 196,
      "̷": 197,
      "̽": 198,
      "͂": 199,
      "͘": 200,
      "͟": 201,
      "͢": 202,
      "ͣ": 203,
      "·": 204,
      "Β": 205,
      "Γ": 206,
      "Δ": 207,
      "Κ": 208,
      "Τ": 209,
      "Ω": 210,
      "έ": 211,
      "ή": 212,
      "ί": 213,
      "α": 214,
      "γ": 215,
      "δ": 216,
      "ε": 217,
      "η": 218,
      "θ": 219,
      "ι": 220,
      "κ": 221,
      "μ": 222,
      "ν": 223,
      "π": 224,
      "ρ": 225,
      "σ": 226,
      "τ": 227,
      "υ": 228,
      "χ": 229,
      "А": 230,
      "Б": 231,
      "В": 232,
      "И": 233,
      "Н": 234,
      "О": 235,
      "Р": 236,
      "С": 237,
      "Т": 238,
      "У": 239,
      "Ч": 240,
      "Я": 241,
      "а": 242,
      "б": 243,
      "в": 244,
      "д": 245,
      "е": 246,
      "з": 247,
      "и": 248,
      "й": 249,
      "к": 250,
      "л": 251,
      "м": 252,
      "н": 253,
      "о": 254,
      "п": 255,
      "р": 256,
      "с": 257,
      "т": 258,
      "у": 259,
      "ф": 260,
      "ц": 261,
      "ч": 262,
      "ы": 263,
      "ь": 264,
      "ї": 265,
      "،": 266,
      "أ": 267,
      "ؤ": 268,
      "إ": 269,
      "ئ": 270,
      "ا": 271,
      "ب": 272,
      "ة": 273,
      "ت": 274,
      "ث": 275,
      "ج": 276,
      "ح": 277,
      "خ": 278,
      "د": 279,
      "ذ": 280,
      "ر": 281,
      "ز": 282,
      "س": 283,
      "ش": 284,
      "ص": 285,
      "ض": 286,
      "ظ": 287,
      "ع": 288,
      "غ": 289,
      "ف": 290,
      "ق": 291,
      "ك": 292,
      "ل": 293,
      "م": 294,
      "ن": 295,
      "ه": 296,
      "و": 297,
      "ى": 298,
      "ي": 299,
      "ی": 300,
      "ग": 301,
      "त": 302,
      "य": 303,
      "र": 304,
      "स": 305,
      "ह": 306,
      "ा": 307,
      "्": 308,
      "ન": 309,
      "પ": 310,
      "લ": 311,
      "ஐ": 312,
      "ಠ": 313,
      "ก": 314,
      "ข": 315,
      "ค": 316,
      "ง": 317,
      "จ": 318,
      "ฉ": 319,
      "ช": 320,
      "ซ": 321,
      "ญ": 322,
      "ณ": 323,
      "ด": 324,
      "ต": 325,
      "ถ": 326,
      "ท": 327,
      "ธ": 328,
      "น": 329,
      "บ": 330,
      "ป": 331,
      "ผ": 332,
      "ฝ": 333,
      "พ": 334,
      "ฟ": 335,
      "ภ": 336,
      "ม": 337,
      "ย": 338,
      "ร": 339,
      "ฤ": 340,
      "ล": 341,
      "ว": 342,
      "ศ": 343,
      "ษ": 344,
      "ส": 345,
      "ห": 346,
      "อ": 347,
      "ฯ": 348,
      "ะ": 349,
      "ั": 350,
      "า": 351,
      "ิ": 352,
      "ี": 353,
      "ึ": 354,
      "ื": 355,
      "ุ": 356,
      "ู": 357,
      "เ": 358,
      "แ": 359,
      "โ": 360,
      "ใ": 361,
      "ไ": 362,
      "ๆ": 363,
      "็": 364,
      "่": 365,
      "้": 366,
      "๋": 367,
      "์": 368,
      "ํ": 369,
      "๑": 370,
      "ດ": 371,
      "ທ": 372,
      "ປ": 373,
      "ລ": 374,
      "ວ": 375,
      "ະ": 376,
      "າ": 377,
      "ເ": 378,
      "ᄀ": 379,
      "ᄁ": 380,
      "ᄂ": 381,
      "ᄃ": 382,
      "ᄄ": 383,
      "ᄅ": 384,
      "ᄇ": 385,
      "ᄈ": 386,
      "ᄉ": 387,
      "ᄋ": 388,
      "ᄌ": 389,
      "ᄐ": 390,
      "ᄑ": 391,
      "ᄒ": 392,
      "ᅟ": 393,
      "ᅠ": 394,
      "ᅡ": 395,
      "ᅢ": 396,
      "ᅥ": 397,
      "ᅦ": 398,
      "ᅩ": 399,
      "ᅮ": 400,
      "ᅲ": 401,
      "ᅳ": 402,
      "ᅵ": 403,
      "ᆍ": 404,
      "ᆞ": 405,
      "ᆢ": 406,
      "ᆨ": 407,
      "ᆫ": 408,
      "ᆮ": 409,
      "ᆯ": 410,
      "ᆷ": 411,
      "ᆼ": 412,
      "ᆾ": 413,
      "ᇂ": 414,
      "ᇣ": 415,
      "ᇿ": 416,
      "ᐃ": 417,
      "ᐧ": 418,
      "ᒺ": 419,
      "᙭": 420,
      "᛫": 421,
      "ឃ": 422,
      "ត": 423,
      "ព": 424,
      "ល": 425,
      "វ": 426,
      "ា": 427,
      "ិ": 428,
      "ᠮ": 429,
      "ᡝ": 430,
      "ᡤ": 431,
      "ᡩ": 432,
      "ᡳ": 433,
      "ᡵ": 434,
      "ᴄ": 435,
      "ᴘ": 436,
      "ᴛ": 437,
      "ᴠ": 438,
      "ḥ": 439,
      "ả": 440,
      "ậ": 441,
      "ẵ": 442,
      "ế": 443,
      "ề": 444,
      "ệ": 445,
      "ỉ": 446,
      "ị": 447,
      "ỏ": 448,
      "ổ": 449,
      "ộ": 450,
      "ớ": 451,
      "ở": 452,
      "ủ": 453,
      "ữ": 454,
      "​": 455,
      "‌": 456,
      "‍": 457,
      "‎": 458,
      "‏": 459,
      "‐": 460,
      "‑": 461,
      "‒": 462,
      "–": 463,
      "—": 464,
      "―": 465,
      "‘": 466,
      "’": 467,
      "‚": 468,
      "‛": 469,
      "“": 470,
      "”": 471,
      "‟": 472,
      "†": 473,
      "•": 474,
      "‣": 475,
      "․": 476,
      "‥": 477,
      "…": 478,
      "‧": 479,
      "‪": 480,
      "‬": 481,
      "′": 482,
      "″": 483,
      "‵": 484,
      "‶": 485,
      "›": 486,
      "※": 487,
      "‼": 488,
      "⁂": 489,
      "⁃": 490,
      "⁎": 491,
      "⁑": 492,
      "⁜": 493,
      "⁠": 494,
      "⁴": 495,
      "⁵": 496,
      "⁾": 497,
      "ⁿ": 498,
      "₂": 499,
      "₄": 500,
      "₊": 501,
      "₩": 502,
      "⃕": 503,
      "⃞": 504,
      "⃣": 505,
      "℃": 506,
      "℅": 507,
      "ℓ": 508,
      "™": 509,
      "⅓": 510,
      "⅔": 511,
      "Ⅰ": 512,
      "Ⅱ": 513,
      "Ⅲ": 514,
      "Ⅳ": 515,
      "Ⅴ": 516,
      "Ⅵ": 517,
      "Ⅶ": 518,
      "Ⅷ": 519,
      "ⅰ": 520,
      "ⅱ": 521,
      "ⅲ": 522,
      "ⅳ": 523,
      "ⅴ": 524,
      "ⅵ": 525,
      "ⅶ": 526,
      "ⅷ": 527,
      "ⅸ": 528,
      "←": 529,
      "↑": 530,
      "→": 531,
      "↓": 532,
      "↔": 533,
      "↕": 534,
      "↗": 535,
      "↘": 536,
      "↙": 537,
      "↞": 538,
      "↠": 539,
      "↳": 540,
      "⇄": 541,
      "⇆": 542,
      "⇉": 543,
      "⇋": 544,
      "⇌": 545,
      "⇐": 546,
      "⇒": 547,
      "⇓": 548,
      "⇔": 549,
      "⇚": 550,
      "⇛": 551,
      "⇢": 552,
      "⇥": 553,
      "⇦": 554,
      "⇨": 555,
      "⇩": 556,
      "⇬": 557,
      "⇰": 558,
      "∂": 559,
      "∇": 560,
      "∎": 561,
      "∐": 562,
      "−": 563,
      "∘": 564,
      "∙": 565,
      "√": 566,
      "∝": 567,
      "∞": 568,
      "∠": 569,
      "∣": 570,
      "∪": 571,
      "∴": 572,
      "∵": 573,
      "∼": 574,
      "∽": 575,
      "≀": 576,
      "≒": 577,
      "≠": 578,
      "≤": 579,
      "≥": 580,
      "≪": 581,
      "≫": 582,
      "⊙": 583,
      "⊝": 584,
      "⋅": 585,
      "⋇": 586,
      "⋯": 587,
      "⌂": 588,
      "⌈": 589,
      "⌉": 590,
      "⌋": 591,
      "⌌": 592,
      "⌜": 593,
      "⌟": 594,
      "⍟": 595,
      "⎝": 596,
      "⎠": 597,
      "⎡": 598,
      "⎦": 599,
      "⎫": 600,
      "⏩": 601,
      "⏪": 602,
      "⏭": 603,
      "①": 604,
      "②": 605,
      "③": 606,
      "④": 607,
      "⑤": 608,
      "⑥": 609,
      "⑦": 610,
      "⑧": 611,
      "⑨": 612,
      "⑩": 613,
      "⑪": 614,
      "⑫": 615,
      "⑬": 616,
      "⑭": 617,
      "⑮": 618,
      "⑯": 619,
      "⑰": 620,
      "⑱": 621,
      "⑲": 622,
      "⑳": 623,
      "⑴": 624,
      "⑵": 625,
      "⑶": 626,
      "⑷": 627,
      "⑸": 628,
      "⑹": 629,
      "⑺": 630,
      "⑻": 631,
      "⑼": 632,
      "⑽": 633,
      "⑾": 634,
      "⑿": 635,
      "⒈": 636,
      "⒉": 637,
      "⒊": 638,
      "⒋": 639,
      "⒌": 640,
      "⒜": 641,
      "⒝": 642,
      "Ⓐ": 643,
      "Ⓑ": 644,
      "Ⓒ": 645,
      "Ⓓ": 646,
      "Ⓡ": 647,
      "ⓐ": 648,
      "ⓑ": 649,
      "ⓒ": 650,
      "ⓓ": 651,
      "ⓔ": 652,
      "ⓕ": 653,
      "ⓖ": 654,
      "ⓗ": 655,
      "ⓘ": 656,
      "ⓙ": 657,
      "ⓚ": 658,
      "ⓛ": 659,
      "ⓝ": 660,
      "⓫": 661,
      "⓬": 662,
      "⓵": 663,
      "⓶": 664,
      "⓷": 665,
      "⓸": 666,
      "⓹": 667,
      "⓺": 668,
      "⓻": 669,
      "⓼": 670,
      "─": 671,
      "━": 672,
      "│": 673,
      "┃": 674,
      "┌": 675,
      "┎": 676,
      "┐": 677,
      "┑": 678,
      "┓": 679,
      "└": 680,
      "┗": 681,
      "┘": 682,
      "├": 683,
      "┳": 684,
      "┴": 685,
      "═": 686,
      "▅": 687,
      "▇": 688,
      "█": 689,
      "▖": 690,
      "■": 691,
      "□": 692,
      "▢": 693,
      "▣": 694,
      "▩": 695,
      "▪": 696,
      "▫": 697,
      "▲": 698,
      "△": 699,
      "▶": 700,
      "▷": 701,
      "▸": 702,
      "►": 703,
      "▼": 704,
      "▽": 705,
      "◀": 706,
      "◁": 707,
      "◆": 708,
      "◇": 709,
      "◈": 710,
      "◉": 711,
      "◊": 712,
      "○": 713,
      "◌": 714,
      "◎": 715,
      "●": 716,
      "◐": 717,
      "◑": 718,
      "◦": 719,
      "◯": 720,
      "◼": 721,
      "◾": 722,
      "☀": 723,
      "☂": 724,
      "★": 725,
      "☆": 726,
      "☉": 727,
      "☎": 728,
      "☏": 729,
      "☐": 730,
      "☑": 731,
      "☓": 732,
      "☔": 733,
      "☘": 734,
      "☚": 735,
      "☛": 736,
      "☜": 737,
      "☝": 738,
      "☞": 739,
      "☟": 740,
      "☠": 741,
      "☢": 742,
      "☤": 743,
      "☯": 744,
      "☰": 745,
      "☱": 746,
      "☳": 747,
      "☴": 748,
      "☶": 749,
      "☷": 750,
      "☹": 751,
      "☺": 752,
      "☻": 753,
      "☼": 754,
      "♀": 755,
      "♂": 756,
      "♠": 757,
      "♡": 758,
      "♣": 759,
      "♤": 760,
      "♥": 761,
      "♦": 762,
      "♧": 763,
      "♨": 764,
      "♩": 765,
      "♪": 766,
      "♬": 767,
      "♭": 768,
      "♿": 769,
      "⚀": 770,
      "⚁": 771,
      "⚂": 772,
      "⚈": 773,
      "⚖": 774,
      "⚠": 775,
      "⚡": 776,
      "⚫": 777,
      "⚽": 778,
      "⚾": 779,
      "⛔": 780,
      "✅": 781,
      "✈": 782,
      "✊": 783,
      "✋": 784,
      "✌": 785,
      "✏": 786,
      "✔": 787,
      "✞": 788,
      "✡": 789,
      "✧": 790,
      "✨": 791,
      "✱": 792,
      "✴": 793,
      "✽": 794,
      "❈": 795,
      "❉": 796,
      "❊": 797,
      "❌": 798,
      "❍": 799,
      "❎": 800,
      "❏": 801,
      "❒": 802,
      "❖": 803,
      "❗": 804,
      "❘": 805,
      "❙": 806,
      "❝": 807,
      "❞": 808,
      "❢": 809,
      "❣": 810,
      "❤": 811,
      "❮": 812,
      "❯": 813,
      "❰": 814,
      "❱": 815,
      "❶": 816,
      "❷": 817,
      "❸": 818,
      "❹": 819,
      "❺": 820,
      "❻": 821,
      "❼": 822,
      "❽": 823,
      "❾": 824,
      "❿": 825,
      "➀": 826,
      "➁": 827,
      "➂": 828,
      "➃": 829,
      "➄": 830,
      "➅": 831,
      "➆": 832,
      "➇": 833,
      "➈": 834,
      "➉": 835,
      "➊": 836,
      "➋": 837,
      "➌": 838,
      "➍": 839,
      "➑": 840,
      "➔": 841,
      "➖": 842,
      "➜": 843,
      "➡": 844,
      "➩": 845,
      "➪": 846,
      "➫": 847,
      "➯": 848,
      "➰": 849,
      "➾": 850,
      "⟟": 851,
      "⟨": 852,
      "⟩": 853,
      "⟶": 854,
      "⟷": 855,
      "⟹": 856,
      "⥤": 857,
      "⦁": 858,
      "⦋": 859,
      "⦌": 860,
      "⦙": 861,
      "⦿": 862,
      "⬇": 863,
      "⬛": 864,
      "⭐": 865,
      "⭕": 866,
      "⺷": 867,
      "⼖": 868,
      "⼷": 869,
      "、": 870,
      "。": 871,
      "〃": 872,
      "〇": 873,
      "〈": 874,
      "〉": 875,
      "《": 876,
      "》": 877,
      "「": 878,
      "」": 879,
      "『": 880,
      "』": 881,
      "【": 882,
      "】": 883,
      "〓": 884,
      "〔": 885,
      "〕": 886,
      "〖": 887,
      "〗": 888,
      "〘": 889,
      "〙": 890,
      "〚": 891,
      "〛": 892,
      "〜": 893,
      "〞": 894,
      "〮": 895,
      "〱": 896,
      "あ": 897,
      "ぃ": 898,
      "い": 899,
      "う": 900,
      "ぇ": 901,
      "え": 902,
      "お": 903,
      "か": 904,
      "が": 905,
      "き": 906,
      "ぎ": 907,
      "く": 908,
      "ぐ": 909,
      "け": 910,
      "げ": 911,
      "こ": 912,
      "ご": 913,
      "さ": 914,
      "ざ": 915,
      "し": 916,
      "じ": 917,
      "す": 918,
      "ず": 919,
      "せ": 920,
      "ぜ": 921,
      "そ": 922,
      "ぞ": 923,
      "た": 924,
      "だ": 925,
      "ち": 926,
      "ぢ": 927,
      "っ": 928,
      "つ": 929,
      "づ": 930,
      "て": 931,
      "で": 932,
      "と": 933,
      "ど": 934,
      "な": 935,
      "に": 936,
      "ぬ": 937,
      "ね": 938,
      "の": 939,
      "は": 940,
      "ば": 941,
      "ぱ": 942,
      "ひ": 943,
      "び": 944,
      "ぴ": 945,
      "ふ": 946,
      "ぶ": 947,
      "ぷ": 948,
      "へ": 949,
      "べ": 950,
      "ぺ": 951,
      "ほ": 952,
      "ぼ": 953,
      "ぽ": 954,
      "ま": 955,
      "み": 956,
      "む": 957,
      "め": 958,
      "も": 959,
      "ゃ": 960,
      "や": 961,
      "ゅ": 962,
      "ゆ": 963,
      "ょ": 964,
      "よ": 965,
      "ら": 966,
      "り": 967,
      "る": 968,
      "れ": 969,
      "ろ": 970,
      "わ": 971,
      "を": 972,
      "ん": 973,
      "゚": 974,
      "ア": 975,
      "イ": 976,
      "ウ": 977,
      "ェ": 978,
      "エ": 979,
      "ォ": 980,
      "オ": 981,
      "カ": 982,
      "ガ": 983,
      "キ": 984,
      "ギ": 985,
      "ク": 986,
      "グ": 987,
      "ケ": 988,
      "ゲ": 989,
      "コ": 990,
      "ゴ": 991,
      "サ": 992,
      "ザ": 993,
      "シ": 994,
      "ジ": 995,
      "ス": 996,
      "ズ": 997,
      "セ": 998,
      "ゼ": 999,
      "ソ": 1000,
      "ゾ": 1001,
      "タ": 1002,
      "ダ": 1003,
      "チ": 1004,
      "ヂ": 1005,
      "ッ": 1006,
      "ツ": 1007,
      "ヅ": 1008,
      "テ": 1009,
      "デ": 1010,
      "ト": 1011,
      "ド": 1012,
      "ナ": 1013,
      "ニ": 1014,
      "ヌ": 1015,
      "ネ": 1016,
      "ノ": 1017,
      "ハ": 1018,
      "バ": 1019,
      "パ": 1020,
      "ヒ": 1021,
      "ビ": 1022,
      "ピ": 1023,
      "フ": 1024,
      "ブ": 1025,
      "プ": 1026,
      "ヘ": 1027,
      "ベ": 1028,
      "ペ": 1029,
      "ホ": 1030,
      "ボ": 1031,
      "ポ": 1032,
      "マ": 1033,
      "ミ": 1034,
      "ム": 1035,
      "メ": 1036,
      "モ": 1037,
      "ャ": 1038,
      "ヤ": 1039,
      "ュ": 1040,
      "ユ": 1041,
      "ョ": 1042,
      "ヨ": 1043,
      "ラ": 1044,
      "リ": 1045,
      "ル": 1046,
      "レ": 1047,
      "ロ": 1048,
      "ワ": 1049,
      "ヲ": 1050,
      "ン": 1051,
      "ヶ": 1052,
      "・": 1053,
      "ー": 1054,
      "ㄧ": 1055,
      "ㄱ": 1056,
      "ㄲ": 1057,
      "ㄳ": 1058,
      "ㄴ": 1059,
      "ㄶ": 1060,
      "ㄷ": 1061,
      "ㄸ": 1062,
      "ㄹ": 1063,
      "ㄺ": 1064,
      "ㄻ": 1065,
      "ㅀ": 1066,
      "ㅁ": 1067,
      "ㅂ": 1068,
      "ㅃ": 1069,
      "ㅄ": 1070,
      "ㅅ": 1071,
      "ㅆ": 1072,
      "ㅇ": 1073,
      "ㅈ": 1074,
      "ㅉ": 1075,
      "ㅊ": 1076,
      "ㅋ": 1077,
      "ㅌ": 1078,
      "ㅍ": 1079,
      "ㅎ": 1080,
      "ㅏ": 1081,
      "ㅐ": 1082,
      "ㅑ": 1083,
      "ㅒ": 1084,
      "ㅓ": 1085,
      "ㅔ": 1086,
      "ㅕ": 1087,
      "ㅖ": 1088,
      "ㅗ": 1089,
      "ㅘ": 1090,
      "ㅙ": 1091,
      "ㅚ": 1092,
      "ㅛ": 1093,
      "ㅜ": 1094,
      "ㅝ": 1095,
      "ㅟ": 1096,
      "ㅠ": 1097,
      "ㅡ": 1098,
      "ㅢ": 1099,
      "ㅣ": 1100,
      "ㅦ": 1101,
      "ㅧ": 1102,
      "ㅭ": 1103,
      "ㅸ": 1104,
      "ㅿ": 1105,
      "ㆁ": 1106,
      "ㆄ": 1107,
      "ㆆ": 1108,
      "ㆍ": 1109,
      "㈀": 1110,
      "㈁": 1111,
      "㈂": 1112,
      "㈃": 1113,
      "㈎": 1114,
      "㈏": 1115,
      "㈐": 1116,
      "㈔": 1117,
      "㈜": 1118,
      "㉑": 1119,
      "㉒": 1120,
      "㉓": 1121,
      "㉔": 1122,
      "㉙": 1123,
      "㉠": 1124,
      "㉡": 1125,
      "㉢": 1126,
      "㉣": 1127,
      "㉤": 1128,
      "㉥": 1129,
      "㉦": 1130,
      "㉧": 1131,
      "㉨": 1132,
      "㉩": 1133,
      "㉪": 1134,
      "㉮": 1135,
      "㉯": 1136,
      "㉰": 1137,
      "㉱": 1138,
      "㉶": 1139,
      "㉿": 1140,
      "㎉": 1141,
      "㎍": 1142,
      "㎎": 1143,
      "㎏": 1144,
      "㎐": 1145,
      "㎖": 1146,
      "㎘": 1147,
      "㎚": 1148,
      "㎛": 1149,
      "㎜": 1150,
      "㎝": 1151,
      "㎞": 1152,
      "㎟": 1153,
      "㎠": 1154,
      "㎡": 1155,
      "㎢": 1156,
      "㎣": 1157,
      "㎤": 1158,
      "㎥": 1159,
      "㎸": 1160,
      "㎾": 1161,
      "㎿": 1162,
      "㏈": 1163,
      "㏊": 1164,
      "㏓": 1165,
      "㏜": 1166,
      "一": 1167,
      "丁": 1168,
      "七": 1169,
      "万": 1170,
      "丈": 1171,
      "三": 1172,
      "上": 1173,
      "下": 1174,
      "不": 1175,
      "与": 1176,
      "丑": 1177,
      "且": 1178,
      "世": 1179,
      "丙": 1180,
      "业": 1181,
      "东": 1182,
      "两": 1183,
      "个": 1184,
      "中": 1185,
      "丸": 1186,
      "丹": 1187,
      "为": 1188,
      "主": 1189,
      "举": 1190,
      "丿": 1191,
      "乃": 1192,
      "久": 1193,
      "乇": 1194,
      "么": 1195,
      "义": 1196,
      "之": 1197,
      "乎": 1198,
      "乏": 1199,
      "乐": 1200,
      "乘": 1201,
      "乙": 1202,
      "九": 1203,
      "乞": 1204,
      "也": 1205,
      "习": 1206,
      "乱": 1207,
      "乾": 1208,
      "亂": 1209,
      "了": 1210,
      "亇": 1211,
      "予": 1212,
      "争": 1213,
      "事": 1214,
      "二": 1215,
      "于": 1216,
      "云": 1217,
      "互": 1218,
      "五": 1219,
      "井": 1220,
      "亚": 1221,
      "些": 1222,
      "亜": 1223,
      "亞": 1224,
      "亡": 1225,
      "交": 1226,
      "亥": 1227,
      "亦": 1228,
      "产": 1229,
      "亨": 1230,
      "享": 1231,
      "京": 1232,
      "亭": 1233,
      "亮": 1234,
      "亲": 1235,
      "人": 1236,
      "亻": 1237,
      "什": 1238,
      "仁": 1239,
      "仄": 1240,
      "仅": 1241,
      "今": 1242,
      "介": 1243,
      "仍": 1244,
      "从": 1245,
      "仓": 1246,
      "仔": 1247,
      "仕": 1248,
      "他": 1249,
      "付": 1250,
      "仙": 1251,
      "代": 1252,
      "令": 1253,
      "以": 1254,
      "们": 1255,
      "仮": 1256,
      "仰": 1257,
      "仲": 1258,
      "件": 1259,
      "价": 1260,
      "任": 1261,
      "份": 1262,
      "企": 1263,
      "伊": 1264,
      "伏": 1265,
      "休": 1266,
      "优": 1267,
      "会": 1268,
      "伤": 1269,
      "伯": 1270,
      "伴": 1271,
      "伸": 1272,
      "似": 1273,
      "伽": 1274,
      "佃": 1275,
      "但": 1276,
      "位": 1277,
      "低": 1278,
      "住": 1279,
      "佐": 1280,
      "体": 1281,
      "何": 1282,
      "余": 1283,
      "佛": 1284,
      "作": 1285,
      "佞": 1286,
      "你": 1287,
      "佩": 1288,
      "佳": 1289,
      "佷": 1290,
      "使": 1291,
      "來": 1292,
      "侈": 1293,
      "例": 1294,
      "供": 1295,
      "依": 1296,
      "価": 1297,
      "侨": 1298,
      "侮": 1299,
      "侵": 1300,
      "侶": 1301,
      "便": 1302,
      "係": 1303,
      "促": 1304,
      "俄": 1305,
      "俊": 1306,
      "俗": 1307,
      "保": 1308,
      "俟": 1309,
      "俠": 1310,
      "信": 1311,
      "修": 1312,
      "俱": 1313,
      "俸": 1314,
      "倂": 1315,
      "倉": 1316,
      "個": 1317,
      "倍": 1318,
      "們": 1319,
      "倒": 1320,
      "倖": 1321,
      "候": 1322,
      "倚": 1323,
      "借": 1324,
      "倡": 1325,
      "値": 1326,
      "倫": 1327,
      "倭": 1328,
      "倻": 1329,
      "值": 1330,
      "倾": 1331,
      "假": 1332,
      "偉": 1333,
      "偎": 1334,
      "偏": 1335,
      "偕": 1336,
      "做": 1337,
      "停": 1338,
      "健": 1339,
      "側": 1340,
      "偶": 1341,
      "偸": 1342,
      "傀": 1343,
      "傅": 1344,
      "傍": 1345,
      "備": 1346,
      "催": 1347,
      "傭": 1348,
      "傲": 1349,
      "傳": 1350,
      "債": 1351,
      "傷": 1352,
      "傾": 1353,
      "僉": 1354,
      "像": 1355,
      "僕": 1356,
      "僚": 1357,
      "僞": 1358,
      "僥": 1359,
      "僧": 1360,
      "僭": 1361,
      "價": 1362,
      "僻": 1363,
      "儀": 1364,
      "億": 1365,
      "儋": 1366,
      "儒": 1367,
      "償": 1368,
      "優": 1369,
      "儿": 1370,
      "元": 1371,
      "兄": 1372,
      "充": 1373,
      "兆": 1374,
      "兇": 1375,
      "先": 1376,
      "光": 1377,
      "克": 1378,
      "免": 1379,
      "兎": 1380,
      "兒": 1381,
      "入": 1382,
      "內": 1383,
      "全": 1384,
      "兩": 1385,
      "兪": 1386,
      "八": 1387,
      "公": 1388,
      "六": 1389,
      "兮": 1390,
      "兰": 1391,
      "共": 1392,
      "关": 1393,
      "兵": 1394,
      "其": 1395,
      "具": 1396,
      "典": 1397,
      "养": 1398,
      "冂": 1399,
      "内": 1400,
      "册": 1401,
      "再": 1402,
      "冒": 1403,
      "冗": 1404,
      "写": 1405,
      "冠": 1406,
      "冤": 1407,
      "冥": 1408,
      "冬": 1409,
      "冰": 1410,
      "决": 1411,
      "况": 1412,
      "冶": 1413,
      "冷": 1414,
      "准": 1415,
      "凍": 1416,
      "凜": 1417,
      "几": 1418,
      "凡": 1419,
      "処": 1420,
      "凰": 1421,
      "凵": 1422,
      "凶": 1423,
      "出": 1424,
      "分": 1425,
      "切": 1426,
      "刊": 1427,
      "刑": 1428,
      "划": 1429,
      "刖": 1430,
      "列": 1431,
      "则": 1432,
      "初": 1433,
      "判": 1434,
      "別": 1435,
      "利": 1436,
      "别": 1437,
      "到": 1438,
      "刱": 1439,
      "制": 1440,
      "券": 1441,
      "刹": 1442,
      "刺": 1443,
      "刻": 1444,
      "則": 1445,
      "削": 1446,
      "前": 1447,
      "剔": 1448,
      "剖": 1449,
      "剛": 1450,
      "剝": 1451,
      "副": 1452,
      "割": 1453,
      "創": 1454,
      "剽": 1455,
      "劃": 1456,
      "劇": 1457,
      "劈": 1458,
      "劉": 1459,
      "劍": 1460,
      "劑": 1461,
      "力": 1462,
      "功": 1463,
      "加": 1464,
      "务": 1465,
      "劣": 1466,
      "动": 1467,
      "助": 1468,
      "努": 1469,
      "劫": 1470,
      "励": 1471,
      "劳": 1472,
      "効": 1473,
      "劾": 1474,
      "勃": 1475,
      "勅": 1476,
      "勇": 1477,
      "勉": 1478,
      "動": 1479,
      "勘": 1480,
      "務": 1481,
      "勝": 1482,
      "勞": 1483,
      "募": 1484,
      "勢": 1485,
      "勤": 1486,
      "勳": 1487,
      "勸": 1488,
      "勿": 1489,
      "包": 1490,
      "匈": 1491,
      "匕": 1492,
      "化": 1493,
      "北": 1494,
      "匙": 1495,
      "匚": 1496,
      "匠": 1497,
      "匡": 1498,
      "匣": 1499,
      "匪": 1500,
      "匹": 1501,
      "区": 1502,
      "医": 1503,
      "區": 1504,
      "十": 1505,
      "千": 1506,
      "午": 1507,
      "半": 1508,
      "华": 1509,
      "卑": 1510,
      "卒": 1511,
      "卓": 1512,
      "協": 1513,
      "单": 1514,
      "卖": 1515,
      "南": 1516,
      "博": 1517,
      "卜": 1518,
      "卞": 1519,
      "占": 1520,
      "卡": 1521,
      "卦": 1522,
      "卫": 1523,
      "卯": 1524,
      "印": 1525,
      "危": 1526,
      "即": 1527,
      "却": 1528,
      "卵": 1529,
      "卷": 1530,
      "卽": 1531,
      "厚": 1532,
      "原": 1533,
      "厥": 1534,
      "去": 1535,
      "县": 1536,
      "参": 1537,
      "參": 1538,
      "又": 1539,
      "及": 1540,
      "友": 1541,
      "双": 1542,
      "反": 1543,
      "发": 1544,
      "叔": 1545,
      "取": 1546,
      "受": 1547,
      "变": 1548,
      "叛": 1549,
      "叡": 1550,
      "口": 1551,
      "古": 1552,
      "句": 1553,
      "另": 1554,
      "只": 1555,
      "叫": 1556,
      "可": 1557,
      "台": 1558,
      "史": 1559,
      "右": 1560,
      "号": 1561,
      "司": 1562,
      "各": 1563,
      "合": 1564,
      "吉": 1565,
      "吊": 1566,
      "同": 1567,
      "名": 1568,
      "后": 1569,
      "吏": 1570,
      "吐": 1571,
      "向": 1572,
      "吗": 1573,
      "君": 1574,
      "吟": 1575,
      "否": 1576,
      "含": 1577,
      "吳": 1578,
      "吴": 1579,
      "吸": 1580,
      "吹": 1581,
      "吽": 1582,
      "吾": 1583,
      "呂": 1584,
      "呆": 1585,
      "呈": 1586,
      "告": 1587,
      "员": 1588,
      "呛": 1589,
      "周": 1590,
      "味": 1591,
      "呼": 1592,
      "命": 1593,
      "和": 1594,
      "咸": 1595,
      "哀": 1596,
      "品": 1597,
      "哇": 1598,
      "哈": 1599,
      "响": 1600,
      "員": 1601,
      "哭": 1602,
      "哲": 1603,
      "唐": 1604,
      "唬": 1605,
      "唯": 1606,
      "唱": 1607,
      "唾": 1608,
      "商": 1609,
      "問": 1610,
      "善": 1611,
      "喆": 1612,
      "喜": 1613,
      "喝": 1614,
      "喩": 1615,
      "喪": 1616,
      "單": 1617,
      "営": 1618,
      "喻": 1619,
      "嗤": 1620,
      "嘉": 1621,
      "嘲": 1622,
      "器": 1623,
      "噫": 1624,
      "嚴": 1625,
      "囊": 1626,
      "囑": 1627,
      "囚": 1628,
      "四": 1629,
      "回": 1630,
      "因": 1631,
      "团": 1632,
      "団": 1633,
      "园": 1634,
      "困": 1635,
      "围": 1636,
      "固": 1637,
      "国": 1638,
      "图": 1639,
      "圈": 1640,
      "國": 1641,
      "圍": 1642,
      "園": 1643,
      "圓": 1644,
      "圖": 1645,
      "團": 1646,
      "土": 1647,
      "在": 1648,
      "圭": 1649,
      "地": 1650,
      "圳": 1651,
      "址": 1652,
      "坂": 1653,
      "均": 1654,
      "坊": 1655,
      "坎": 1656,
      "坐": 1657,
      "坑": 1658,
      "坤": 1659,
      "坦": 1660,
      "坪": 1661,
      "垈": 1662,
      "型": 1663,
      "垠": 1664,
      "垢": 1665,
      "垣": 1666,
      "城": 1667,
      "域": 1668,
      "執": 1669,
      "培": 1670,
      "基": 1671,
      "堀": 1672,
      "堂": 1673,
      "堆": 1674,
      "堊": 1675,
      "堡": 1676,
      "堪": 1677,
      "堯": 1678,
      "堰": 1679,
      "報": 1680,
      "場": 1681,
      "塔": 1682,
      "塗": 1683,
      "塘": 1684,
      "塚": 1685,
      "塞": 1686,
      "塵": 1687,
      "境": 1688,
      "墓": 1689,
      "増": 1690,
      "增": 1691,
      "墟": 1692,
      "墨": 1693,
      "墮": 1694,
      "墳": 1695,
      "墾": 1696,
      "壇": 1697,
      "壓": 1698,
      "壞": 1699,
      "壤": 1700,
      "士": 1701,
      "壬": 1702,
      "壻": 1703,
      "壽": 1704,
      "备": 1705,
      "変": 1706,
      "复": 1707,
      "夏": 1708,
      "夕": 1709,
      "外": 1710,
      "多": 1711,
      "夜": 1712,
      "够": 1713,
      "夢": 1714,
      "大": 1715,
      "天": 1716,
      "太": 1717,
      "夫": 1718,
      "央": 1719,
      "失": 1720,
      "夷": 1721,
      "奇": 1722,
      "奈": 1723,
      "奉": 1724,
      "奎": 1725,
      "奏": 1726,
      "契": 1727,
      "奔": 1728,
      "奚": 1729,
      "奢": 1730,
      "奪": 1731,
      "奭": 1732,
      "奮": 1733,
      "女": 1734,
      "奴": 1735,
      "奸": 1736,
      "她": 1737,
      "好": 1738,
      "如": 1739,
      "妃": 1740,
      "妄": 1741,
      "妇": 1742,
      "妓": 1743,
      "妙": 1744,
      "妥": 1745,
      "妨": 1746,
      "妹": 1747,
      "妻": 1748,
      "妾": 1749,
      "姊": 1750,
      "始": 1751,
      "姐": 1752,
      "姑": 1753,
      "姓": 1754,
      "委": 1755,
      "姙": 1756,
      "姚": 1757,
      "姜": 1758,
      "姦": 1759,
      "姪": 1760,
      "姬": 1761,
      "威": 1762,
      "娘": 1763,
      "娥": 1764,
      "娼": 1765,
      "婆": 1766,
      "婚": 1767,
      "婦": 1768,
      "婴": 1769,
      "媛": 1770,
      "媤": 1771,
      "嫁": 1772,
      "嫌": 1773,
      "嫖": 1774,
      "嫚": 1775,
      "嫡": 1776,
      "嫣": 1777,
      "嬉": 1778,
      "嬪": 1779,
      "孀": 1780,
      "子": 1781,
      "孑": 1782,
      "孔": 1783,
      "字": 1784,
      "存": 1785,
      "孙": 1786,
      "孝": 1787,
      "孟": 1788,
      "季": 1789,
      "孤": 1790,
      "学": 1791,
      "孩": 1792,
      "孫": 1793,
      "學": 1794,
      "宀": 1795,
      "宁": 1796,
      "宅": 1797,
      "宇": 1798,
      "守": 1799,
      "安": 1800,
      "宋": 1801,
      "完": 1802,
      "宗": 1803,
      "官": 1804,
      "宙": 1805,
      "定": 1806,
      "宜": 1807,
      "宝": 1808,
      "实": 1809,
      "実": 1810,
      "客": 1811,
      "宣": 1812,
      "室": 1813,
      "宮": 1814,
      "宰": 1815,
      "害": 1816,
      "宴": 1817,
      "家": 1818,
      "容": 1819,
      "宿": 1820,
      "寃": 1821,
      "寅": 1822,
      "密": 1823,
      "寇": 1824,
      "富": 1825,
      "寒": 1826,
      "察": 1827,
      "實": 1828,
      "寧": 1829,
      "寨": 1830,
      "審": 1831,
      "寫": 1832,
      "寬": 1833,
      "寶": 1834,
      "寸": 1835,
      "对": 1836,
      "寺": 1837,
      "导": 1838,
      "対": 1839,
      "寿": 1840,
      "封": 1841,
      "射": 1842,
      "将": 1843,
      "將": 1844,
      "專": 1845,
      "尉": 1846,
      "尊": 1847,
      "尋": 1848,
      "對": 1849,
      "導": 1850,
      "小": 1851,
      "少": 1852,
      "尔": 1853,
      "尖": 1854,
      "尙": 1855,
      "就": 1856,
      "尸": 1857,
      "尹": 1858,
      "尺": 1859,
      "尽": 1860,
      "尾": 1861,
      "局": 1862,
      "层": 1863,
      "居": 1864,
      "屈": 1865,
      "屋": 1866,
      "屍": 1867,
      "展": 1868,
      "属": 1869,
      "屠": 1870,
      "層": 1871,
      "履": 1872,
      "屬": 1873,
      "屯": 1874,
      "山": 1875,
      "岁": 1876,
      "岐": 1877,
      "岛": 1878,
      "岡": 1879,
      "岳": 1880,
      "岸": 1881,
      "峙": 1882,
      "峯": 1883,
      "峰": 1884,
      "峴": 1885,
      "島": 1886,
      "峻": 1887,
      "峽": 1888,
      "崇": 1889,
      "崎": 1890,
      "崔": 1891,
      "崙": 1892,
      "崧": 1893,
      "崩": 1894,
      "嶋": 1895,
      "嶺": 1896,
      "嶼": 1897,
      "嶽": 1898,
      "川": 1899,
      "州": 1900,
      "巢": 1901,
      "工": 1902,
      "左": 1903,
      "巧": 1904,
      "巨": 1905,
      "差": 1906,
      "己": 1907,
      "已": 1908,
      "巳": 1909,
      "币": 1910,
      "市": 1911,
      "布": 1912,
      "帆": 1913,
      "希": 1914,
      "帝": 1915,
      "帥": 1916,
      "師": 1917,
      "席": 1918,
      "帮": 1919,
      "帶": 1920,
      "常": 1921,
      "帽": 1922,
      "幅": 1923,
      "幇": 1924,
      "幌": 1925,
      "幕": 1926,
      "幟": 1927,
      "幢": 1928,
      "幣": 1929,
      "幫": 1930,
      "干": 1931,
      "平": 1932,
      "年": 1933,
      "并": 1934,
      "幸": 1935,
      "幹": 1936,
      "幻": 1937,
      "幼": 1938,
      "幽": 1939,
      "幾": 1940,
      "广": 1941,
      "広": 1942,
      "庆": 1943,
      "庇": 1944,
      "床": 1945,
      "序": 1946,
      "应": 1947,
      "底": 1948,
      "店": 1949,
      "庚": 1950,
      "府": 1951,
      "庠": 1952,
      "度": 1953,
      "座": 1954,
      "庫": 1955,
      "庭": 1956,
      "庵": 1957,
      "庶": 1958,
      "康": 1959,
      "庸": 1960,
      "廈": 1961,
      "廉": 1962,
      "廛": 1963,
      "廟": 1964,
      "廢": 1965,
      "廣": 1966,
      "廳": 1967,
      "延": 1968,
      "廷": 1969,
      "建": 1970,
      "开": 1971,
      "弄": 1972,
      "弊": 1973,
      "弋": 1974,
      "式": 1975,
      "弓": 1976,
      "弔": 1977,
      "引": 1978,
      "弗": 1979,
      "弘": 1980,
      "弛": 1981,
      "弟": 1982,
      "张": 1983,
      "弦": 1984,
      "弧": 1985,
      "弱": 1986,
      "張": 1987,
      "強": 1988,
      "强": 1989,
      "弼": 1990,
      "弾": 1991,
      "彈": 1992,
      "彌": 1993,
      "归": 1994,
      "当": 1995,
      "彗": 1996,
      "彡": 1997,
      "形": 1998,
      "彩": 1999,
      "彫": 2000,
      "彰": 2001,
      "影": 2002,
      "彷": 2003,
      "役": 2004,
      "彼": 2005,
      "彿": 2006,
      "往": 2007,
      "待": 2008,
      "很": 2009,
      "律": 2010,
      "後": 2011,
      "徐": 2012,
      "徒": 2013,
      "得": 2014,
      "徙": 2015,
      "從": 2016,
      "御": 2017,
      "徨": 2018,
      "復": 2019,
      "循": 2020,
      "微": 2021,
      "徵": 2022,
      "德": 2023,
      "徹": 2024,
      "心": 2025,
      "必": 2026,
      "忆": 2027,
      "忌": 2028,
      "忍": 2029,
      "志": 2030,
      "忘": 2031,
      "忙": 2032,
      "忠": 2033,
      "忧": 2034,
      "快": 2035,
      "念": 2036,
      "忽": 2037,
      "忿": 2038,
      "态": 2039,
      "怒": 2040,
      "思": 2041,
      "怠": 2042,
      "怡": 2043,
      "急": 2044,
      "性": 2045,
      "怨": 2046,
      "怩": 2047,
      "怪": 2048,
      "总": 2049,
      "恆": 2050,
      "恋": 2051,
      "恐": 2052,
      "恒": 2053,
      "恕": 2054,
      "恣": 2055,
      "恤": 2056,
      "恥": 2057,
      "恨": 2058,
      "恩": 2059,
      "恭": 2060,
      "息": 2061,
      "悅": 2062,
      "悔": 2063,
      "悖": 2064,
      "悚": 2065,
      "悛": 2066,
      "悠": 2067,
      "患": 2068,
      "您": 2069,
      "悲": 2070,
      "悶": 2071,
      "悼": 2072,
      "情": 2073,
      "惑": 2074,
      "惟": 2075,
      "惠": 2076,
      "惡": 2077,
      "惰": 2078,
      "想": 2079,
      "惶": 2080,
      "惹": 2081,
      "惻": 2082,
      "意": 2083,
      "愚": 2084,
      "愛": 2085,
      "感": 2086,
      "愧": 2087,
      "愼": 2088,
      "愾": 2089,
      "愿": 2090,
      "慄": 2091,
      "慇": 2092,
      "態": 2093,
      "慎": 2094,
      "慕": 2095,
      "慘": 2096,
      "慢": 2097,
      "慣": 2098,
      "慧": 2099,
      "慨": 2100,
      "慮": 2101,
      "慰": 2102,
      "慳": 2103,
      "慶": 2104,
      "慾": 2105,
      "憂": 2106,
      "憤": 2107,
      "憲": 2108,
      "憺": 2109,
      "憾": 2110,
      "懇": 2111,
      "懈": 2112,
      "應": 2113,
      "懐": 2114,
      "懟": 2115,
      "懲": 2116,
      "懷": 2117,
      "懸": 2118,
      "懼": 2119,
      "戀": 2120,
      "戊": 2121,
      "戌": 2122,
      "戍": 2123,
      "戎": 2124,
      "成": 2125,
      "我": 2126,
      "戒": 2127,
      "或": 2128,
      "戟": 2129,
      "截": 2130,
      "戰": 2131,
      "戱": 2132,
      "戲": 2133,
      "戴": 2134,
      "戶": 2135,
      "房": 2136,
      "所": 2137,
      "扁": 2138,
      "手": 2139,
      "才": 2140,
      "打": 2141,
      "扮": 2142,
      "扶": 2143,
      "承": 2144,
      "技": 2145,
      "抄": 2146,
      "抉": 2147,
      "把": 2148,
      "抑": 2149,
      "投": 2150,
      "抗": 2151,
      "折": 2152,
      "抚": 2153,
      "抛": 2154,
      "択": 2155,
      "护": 2156,
      "报": 2157,
      "披": 2158,
      "抵": 2159,
      "抹": 2160,
      "拂": 2161,
      "拉": 2162,
      "拍": 2163,
      "拒": 2164,
      "拔": 2165,
      "拘": 2166,
      "拙": 2167,
      "招": 2168,
      "拜": 2169,
      "择": 2170,
      "拯": 2171,
      "拳": 2172,
      "拷": 2173,
      "拼": 2174,
      "拿": 2175,
      "持": 2176,
      "指": 2177,
      "按": 2178,
      "挫": 2179,
      "振": 2180,
      "挺": 2181,
      "挽": 2182,
      "捋": 2183,
      "捏": 2184,
      "损": 2185,
      "捨": 2186,
      "据": 2187,
      "捲": 2188,
      "捺": 2189,
      "授": 2190,
      "掌": 2191,
      "排": 2192,
      "掘": 2193,
      "採": 2194,
      "接": 2195,
      "推": 2196,
      "措": 2197,
      "掲": 2198,
      "描": 2199,
      "提": 2200,
      "揚": 2201,
      "換": 2202,
      "握": 2203,
      "揭": 2204,
      "揮": 2205,
      "援": 2206,
      "損": 2207,
      "搏": 2208,
      "搜": 2209,
      "搪": 2210,
      "搬": 2211,
      "携": 2212,
      "摘": 2213,
      "摠": 2214,
      "摩": 2215,
      "撑": 2216,
      "撞": 2217,
      "撤": 2218,
      "撫": 2219,
      "撮": 2220,
      "撲": 2221,
      "撻": 2222,
      "擅": 2223,
      "擇": 2224,
      "擊": 2225,
      "操": 2226,
      "擔": 2227,
      "據": 2228,
      "擧": 2229,
      "擬": 2230,
      "擲": 2231,
      "擴": 2232,
      "攪": 2233,
      "支": 2234,
      "收": 2235,
      "改": 2236,
      "攻": 2237,
      "放": 2238,
      "政": 2239,
      "故": 2240,
      "效": 2241,
      "敌": 2242,
      "敍": 2243,
      "敎": 2244,
      "敏": 2245,
      "救": 2246,
      "敖": 2247,
      "敗": 2248,
      "敘": 2249,
      "教": 2250,
      "敢": 2251,
      "散": 2252,
      "敦": 2253,
      "敬": 2254,
      "数": 2255,
      "敲": 2256,
      "整": 2257,
      "敵": 2258,
      "敷": 2259,
      "數": 2260,
      "斂": 2261,
      "文": 2262,
      "斗": 2263,
      "料": 2264,
      "斜": 2265,
      "斥": 2266,
      "斧": 2267,
      "斬": 2268,
      "断": 2269,
      "斯": 2270,
      "新": 2271,
      "斷": 2272,
      "方": 2273,
      "於": 2274,
      "施": 2275,
      "旅": 2276,
      "旋": 2277,
      "族": 2278,
      "旗": 2279,
      "无": 2280,
      "旣": 2281,
      "日": 2282,
      "旦": 2283,
      "旧": 2284,
      "旨": 2285,
      "早": 2286,
      "旬": 2287,
      "旭": 2288,
      "时": 2289,
      "旺": 2290,
      "昆": 2291,
      "昇": 2292,
      "昊": 2293,
      "昌": 2294,
      "明": 2295,
      "昏": 2296,
      "易": 2297,
      "星": 2298,
      "映": 2299,
      "春": 2300,
      "昧": 2301,
      "昭": 2302,
      "是": 2303,
      "昶": 2304,
      "昻": 2305,
      "显": 2306,
      "時": 2307,
      "晉": 2308,
      "晋": 2309,
      "晝": 2310,
      "晟": 2311,
      "晤": 2312,
      "晩": 2313,
      "普": 2314,
      "景": 2315,
      "晴": 2316,
      "智": 2317,
      "暇": 2318,
      "暖": 2319,
      "暗": 2320,
      "暫": 2321,
      "暮": 2322,
      "暴": 2323,
      "暹": 2324,
      "曆": 2325,
      "曉": 2326,
      "曚": 2327,
      "曨": 2328,
      "曰": 2329,
      "曲": 2330,
      "曳": 2331,
      "更": 2332,
      "書": 2333,
      "曹": 2334,
      "曺": 2335,
      "曾": 2336,
      "替": 2337,
      "最": 2338,
      "會": 2339,
      "月": 2340,
      "有": 2341,
      "朋": 2342,
      "服": 2343,
      "朗": 2344,
      "望": 2345,
      "朝": 2346,
      "期": 2347,
      "木": 2348,
      "未": 2349,
      "末": 2350,
      "本": 2351,
      "札": 2352,
      "朱": 2353,
      "朴": 2354,
      "朽": 2355,
      "权": 2356,
      "李": 2357,
      "材": 2358,
      "村": 2359,
      "杓": 2360,
      "杖": 2361,
      "杜": 2362,
      "束": 2363,
      "条": 2364,
      "来": 2365,
      "杨": 2366,
      "杯": 2367,
      "東": 2368,
      "杳": 2369,
      "松": 2370,
      "板": 2371,
      "极": 2372,
      "枋": 2373,
      "林": 2374,
      "果": 2375,
      "枝": 2376,
      "柄": 2377,
      "柏": 2378,
      "某": 2379,
      "染": 2380,
      "柔": 2381,
      "柤": 2382,
      "查": 2383,
      "柱": 2384,
      "柳": 2385,
      "柵": 2386,
      "査": 2387,
      "栗": 2388,
      "校": 2389,
      "栢": 2390,
      "株": 2391,
      "样": 2392,
      "核": 2393,
      "根": 2394,
      "格": 2395,
      "栽": 2396,
      "桂": 2397,
      "案": 2398,
      "桎": 2399,
      "桓": 2400,
      "梁": 2401,
      "梅": 2402,
      "梏": 2403,
      "條": 2404,
      "梧": 2405,
      "梨": 2406,
      "棄": 2407,
      "棒": 2408,
      "棗": 2409,
      "棟": 2410,
      "森": 2411,
      "棺": 2412,
      "椅": 2413,
      "植": 2414,
      "椎": 2415,
      "椿": 2416,
      "楊": 2417,
      "楓": 2418,
      "楚": 2419,
      "楫": 2420,
      "業": 2421,
      "極": 2422,
      "概": 2423,
      "榕": 2424,
      "榮": 2425,
      "槇": 2426,
      "構": 2427,
      "槍": 2428,
      "槪": 2429,
      "槿": 2430,
      "樂": 2431,
      "樊": 2432,
      "樑": 2433,
      "樓": 2434,
      "標": 2435,
      "樞": 2436,
      "模": 2437,
      "樣": 2438,
      "権": 2439,
      "横": 2440,
      "樵": 2441,
      "樹": 2442,
      "樽": 2443,
      "橋": 2444,
      "機": 2445,
      "橡": 2446,
      "橫": 2447,
      "檀": 2448,
      "檢": 2449,
      "檣": 2450,
      "權": 2451,
      "欝": 2452,
      "欠": 2453,
      "次": 2454,
      "欧": 2455,
      "欲": 2456,
      "欺": 2457,
      "欽": 2458,
      "款": 2459,
      "歌": 2460,
      "歎": 2461,
      "歐": 2462,
      "歡": 2463,
      "止": 2464,
      "正": 2465,
      "此": 2466,
      "步": 2467,
      "武": 2468,
      "歲": 2469,
      "歳": 2470,
      "歷": 2471,
      "歸": 2472,
      "死": 2473,
      "殃": 2474,
      "殉": 2475,
      "殊": 2476,
      "殖": 2477,
      "殘": 2478,
      "段": 2479,
      "殷": 2480,
      "殺": 2481,
      "殿": 2482,
      "毁": 2483,
      "毅": 2484,
      "母": 2485,
      "每": 2486,
      "毒": 2487,
      "比": 2488,
      "毕": 2489,
      "毛": 2490,
      "毫": 2491,
      "氏": 2492,
      "民": 2493,
      "氣": 2494,
      "水": 2495,
      "永": 2496,
      "汀": 2497,
      "求": 2498,
      "汇": 2499,
      "汉": 2500,
      "汎": 2501,
      "汗": 2502,
      "汚": 2503,
      "汝": 2504,
      "江": 2505,
      "池": 2506,
      "汤": 2507,
      "汪": 2508,
      "汲": 2509,
      "決": 2510,
      "汽": 2511,
      "汾": 2512,
      "沁": 2513,
      "沃": 2514,
      "沈": 2515,
      "沒": 2516,
      "沖": 2517,
      "沙": 2518,
      "没": 2519,
      "沮": 2520,
      "河": 2521,
      "沸": 2522,
      "油": 2523,
      "治": 2524,
      "沿": 2525,
      "況": 2526,
      "泉": 2527,
      "泊": 2528,
      "泌": 2529,
      "泓": 2530,
      "法": 2531,
      "波": 2532,
      "泥": 2533,
      "注": 2534,
      "泰": 2535,
      "泳": 2536,
      "洋": 2537,
      "洑": 2538,
      "洗": 2539,
      "洙": 2540,
      "洛": 2541,
      "洞": 2542,
      "津": 2543,
      "洪": 2544,
      "洲": 2545,
      "洸": 2546,
      "活": 2547,
      "派": 2548,
      "流": 2549,
      "济": 2550,
      "浚": 2551,
      "浜": 2552,
      "浣": 2553,
      "浦": 2554,
      "浩": 2555,
      "浪": 2556,
      "浮": 2557,
      "浴": 2558,
      "海": 2559,
      "消": 2560,
      "涉": 2561,
      "涌": 2562,
      "涛": 2563,
      "液": 2564,
      "涵": 2565,
      "淋": 2566,
      "淑": 2567,
      "淚": 2568,
      "淡": 2569,
      "淤": 2570,
      "淥": 2571,
      "淨": 2572,
      "淫": 2573,
      "深": 2574,
      "淳": 2575,
      "淵": 2576,
      "混": 2577,
      "淸": 2578,
      "淹": 2579,
      "淺": 2580,
      "添": 2581,
      "清": 2582,
      "済": 2583,
      "渚": 2584,
      "減": 2585,
      "渠": 2586,
      "渡": 2587,
      "渤": 2588,
      "温": 2589,
      "測": 2590,
      "港": 2591,
      "渴": 2592,
      "湖": 2593,
      "湜": 2594,
      "湧": 2595,
      "湯": 2596,
      "湾": 2597,
      "源": 2598,
      "準": 2599,
      "溝": 2600,
      "溟": 2601,
      "溢": 2602,
      "溪": 2603,
      "溫": 2604,
      "溯": 2605,
      "溶": 2606,
      "溺": 2607,
      "滄": 2608,
      "滅": 2609,
      "滞": 2610,
      "滨": 2611,
      "滯": 2612,
      "滴": 2613,
      "滿": 2614,
      "漁": 2615,
      "漂": 2616,
      "漆": 2617,
      "漏": 2618,
      "演": 2619,
      "漡": 2620,
      "漢": 2621,
      "漲": 2622,
      "漸": 2623,
      "潔": 2624,
      "潛": 2625,
      "潜": 2626,
      "潟": 2627,
      "潤": 2628,
      "潮": 2629,
      "澁": 2630,
      "澄": 2631,
      "澈": 2632,
      "澗": 2633,
      "澤": 2634,
      "澱": 2635,
      "澳": 2636,
      "澹": 2637,
      "激": 2638,
      "濊": 2639,
      "濕": 2640,
      "濟": 2641,
      "濠": 2642,
      "濫": 2643,
      "濬": 2644,
      "濯": 2645,
      "瀆": 2646,
      "灘": 2647,
      "灣": 2648,
      "火": 2649,
      "灸": 2650,
      "災": 2651,
      "炅": 2652,
      "炙": 2653,
      "炤": 2654,
      "炫": 2655,
      "炭": 2656,
      "炯": 2657,
      "炳": 2658,
      "点": 2659,
      "為": 2660,
      "烈": 2661,
      "烏": 2662,
      "烤": 2663,
      "烹": 2664,
      "焉": 2665,
      "焙": 2666,
      "焚": 2667,
      "無": 2668,
      "焦": 2669,
      "然": 2670,
      "煙": 2671,
      "煞": 2672,
      "照": 2673,
      "煽": 2674,
      "熊": 2675,
      "熙": 2676,
      "熟": 2677,
      "熱": 2678,
      "燃": 2679,
      "燈": 2680,
      "燒": 2681,
      "燕": 2682,
      "營": 2683,
      "燦": 2684,
      "燭": 2685,
      "燮": 2686,
      "燾": 2687,
      "爆": 2688,
      "爐": 2689,
      "爭": 2690,
      "爲": 2691,
      "爵": 2692,
      "父": 2693,
      "爺": 2694,
      "爻": 2695,
      "爾": 2696,
      "片": 2697,
      "版": 2698,
      "牋": 2699,
      "牙": 2700,
      "牛": 2701,
      "牟": 2702,
      "牡": 2703,
      "牢": 2704,
      "牧": 2705,
      "物": 2706,
      "牲": 2707,
      "特": 2708,
      "牽": 2709,
      "犠": 2710,
      "犧": 2711,
      "犬": 2712,
      "犯": 2713,
      "状": 2714,
      "狀": 2715,
      "狂": 2716,
      "狄": 2717,
      "狗": 2718,
      "狡": 2719,
      "独": 2720,
      "猛": 2721,
      "猫": 2722,
      "献": 2723,
      "猶": 2724,
      "猾": 2725,
      "獄": 2726,
      "獨": 2727,
      "獲": 2728,
      "獸": 2729,
      "獺": 2730,
      "獻": 2731,
      "玄": 2732,
      "率": 2733,
      "玉": 2734,
      "王": 2735,
      "玟": 2736,
      "玭": 2737,
      "现": 2738,
      "玲": 2739,
      "玻": 2740,
      "珉": 2741,
      "珍": 2742,
      "珠": 2743,
      "班": 2744,
      "現": 2745,
      "球": 2746,
      "理": 2747,
      "琢": 2748,
      "琫": 2749,
      "琮": 2750,
      "琴": 2751,
      "瑕": 2752,
      "瑚": 2753,
      "瑛": 2754,
      "瑞": 2755,
      "瑤": 2756,
      "瑥": 2757,
      "璘": 2758,
      "璧": 2759,
      "環": 2760,
      "璽": 2761,
      "璿": 2762,
      "瓈": 2763,
      "瓘": 2764,
      "瓚": 2765,
      "瓜": 2766,
      "瓦": 2767,
      "甖": 2768,
      "甘": 2769,
      "甚": 2770,
      "生": 2771,
      "産": 2772,
      "甥": 2773,
      "用": 2774,
      "田": 2775,
      "由": 2776,
      "甲": 2777,
      "申": 2778,
      "电": 2779,
      "男": 2780,
      "甸": 2781,
      "町": 2782,
      "画": 2783,
      "界": 2784,
      "畎": 2785,
      "畏": 2786,
      "畓": 2787,
      "留": 2788,
      "畜": 2789,
      "畝": 2790,
      "略": 2791,
      "番": 2792,
      "異": 2793,
      "當": 2794,
      "畸": 2795,
      "疆": 2796,
      "疇": 2797,
      "疎": 2798,
      "疏": 2799,
      "疑": 2800,
      "疗": 2801,
      "疵": 2802,
      "疾": 2803,
      "病": 2804,
      "症": 2805,
      "痍": 2806,
      "痕": 2807,
      "痛": 2808,
      "痲": 2809,
      "痴": 2810,
      "痹": 2811,
      "瘡": 2812,
      "療": 2813,
      "癌": 2814,
      "癒": 2815,
      "癖": 2816,
      "癡": 2817,
      "癸": 2818,
      "発": 2819,
      "登": 2820,
      "發": 2821,
      "白": 2822,
      "百": 2823,
      "的": 2824,
      "皆": 2825,
      "皇": 2826,
      "皓": 2827,
      "皮": 2828,
      "盈": 2829,
      "益": 2830,
      "盖": 2831,
      "盛": 2832,
      "盜": 2833,
      "盟": 2834,
      "盡": 2835,
      "監": 2836,
      "盤": 2837,
      "盧": 2838,
      "目": 2839,
      "盲": 2840,
      "直": 2841,
      "相": 2842,
      "盾": 2843,
      "省": 2844,
      "眄": 2845,
      "看": 2846,
      "県": 2847,
      "眞": 2848,
      "真": 2849,
      "眩": 2850,
      "眸": 2851,
      "眼": 2852,
      "眾": 2853,
      "着": 2854,
      "督": 2855,
      "睦": 2856,
      "睿": 2857,
      "瞍": 2858,
      "瞒": 2859,
      "瞞": 2860,
      "瞬": 2861,
      "矇": 2862,
      "矓": 2863,
      "矛": 2864,
      "矣": 2865,
      "知": 2866,
      "短": 2867,
      "矯": 2868,
      "石": 2869,
      "码": 2870,
      "砂": 2871,
      "研": 2872,
      "砲": 2873,
      "破": 2874,
      "础": 2875,
      "硏": 2876,
      "硕": 2877,
      "硬": 2878,
      "确": 2879,
      "碇": 2880,
      "碍": 2881,
      "碎": 2882,
      "碑": 2883,
      "碧": 2884,
      "碩": 2885,
      "確": 2886,
      "碼": 2887,
      "碾": 2888,
      "磁": 2889,
      "磋": 2890,
      "磨": 2891,
      "礁": 2892,
      "礎": 2893,
      "礙": 2894,
      "示": 2895,
      "社": 2896,
      "祈": 2897,
      "祉": 2898,
      "祐": 2899,
      "祕": 2900,
      "祖": 2901,
      "祚": 2902,
      "祝": 2903,
      "神": 2904,
      "票": 2905,
      "祭": 2906,
      "祿": 2907,
      "禁": 2908,
      "禍": 2909,
      "福": 2910,
      "禛": 2911,
      "禧": 2912,
      "禪": 2913,
      "禮": 2914,
      "禱": 2915,
      "秀": 2916,
      "私": 2917,
      "秉": 2918,
      "秋": 2919,
      "种": 2920,
      "科": 2921,
      "秕": 2922,
      "秘": 2923,
      "租": 2924,
      "秦": 2925,
      "秩": 2926,
      "积": 2927,
      "称": 2928,
      "移": 2929,
      "稀": 2930,
      "稅": 2931,
      "程": 2932,
      "税": 2933,
      "稚": 2934,
      "種": 2935,
      "稱": 2936,
      "稷": 2937,
      "稽": 2938,
      "稿": 2939,
      "穀": 2940,
      "穆": 2941,
      "積": 2942,
      "究": 2943,
      "空": 2944,
      "穿": 2945,
      "突": 2946,
      "窒": 2947,
      "窓": 2948,
      "窟": 2949,
      "窦": 2950,
      "窮": 2951,
      "竊": 2952,
      "立": 2953,
      "站": 2954,
      "竝": 2955,
      "竟": 2956,
      "章": 2957,
      "童": 2958,
      "端": 2959,
      "競": 2960,
      "竹": 2961,
      "竿": 2962,
      "笑": 2963,
      "笔": 2964,
      "笙": 2965,
      "笠": 2966,
      "符": 2967,
      "第": 2968,
      "笭": 2969,
      "笱": 2970,
      "筆": 2971,
      "等": 2972,
      "筋": 2973,
      "筍": 2974,
      "筏": 2975,
      "答": 2976,
      "策": 2977,
      "筵": 2978,
      "简": 2979,
      "箕": 2980,
      "算": 2981,
      "管": 2982,
      "箱": 2983,
      "節": 2984,
      "範": 2985,
      "篇": 2986,
      "築": 2987,
      "篤": 2988,
      "簡": 2989,
      "簽": 2990,
      "簿": 2991,
      "籍": 2992,
      "米": 2993,
      "类": 2994,
      "粉": 2995,
      "粕": 2996,
      "粟": 2997,
      "粥": 2998,
      "精": 2999,
      "糞": 3000,
      "系": 3001,
      "紀": 3002,
      "約": 3003,
      "紅": 3004,
      "紋": 3005,
      "納": 3006,
      "純": 3007,
      "紙": 3008,
      "級": 3009,
      "素": 3010,
      "索": 3011,
      "紫": 3012,
      "累": 3013,
      "細": 3014,
      "紹": 3015,
      "終": 3016,
      "組": 3017,
      "経": 3018,
      "結": 3019,
      "絡": 3020,
      "給": 3021,
      "統": 3022,
      "絲": 3023,
      "絶": 3024,
      "經": 3025,
      "続": 3026,
      "維": 3027,
      "綱": 3028,
      "網": 3029,
      "綸": 3030,
      "綻": 3031,
      "綿": 3032,
      "緊": 3033,
      "緖": 3034,
      "線": 3035,
      "緡": 3036,
      "緣": 3037,
      "編": 3038,
      "緩": 3039,
      "緬": 3040,
      "練": 3041,
      "縛": 3042,
      "縣": 3043,
      "縫": 3044,
      "縮": 3045,
      "總": 3046,
      "績": 3047,
      "織": 3048,
      "繡": 3049,
      "繫": 3050,
      "繼": 3051,
      "纂": 3052,
      "續": 3053,
      "纓": 3054,
      "纔": 3055,
      "纛": 3056,
      "约": 3057,
      "纳": 3058,
      "组": 3059,
      "织": 3060,
      "经": 3061,
      "结": 3062,
      "给": 3063,
      "络": 3064,
      "绝": 3065,
      "统": 3066,
      "维": 3067,
      "绿": 3068,
      "缴": 3069,
      "缺": 3070,
      "缾": 3071,
      "罄": 3072,
      "罔": 3073,
      "罪": 3074,
      "置": 3075,
      "罰": 3076,
      "署": 3077,
      "罵": 3078,
      "罷": 3079,
      "羅": 3080,
      "羈": 3081,
      "羊": 3082,
      "美": 3083,
      "羞": 3084,
      "群": 3085,
      "義": 3086,
      "羲": 3087,
      "羽": 3088,
      "翁": 3089,
      "翊": 3090,
      "習": 3091,
      "翕": 3092,
      "翰": 3093,
      "翼": 3094,
      "耀": 3095,
      "老": 3096,
      "考": 3097,
      "者": 3098,
      "耆": 3099,
      "而": 3100,
      "耐": 3101,
      "耕": 3102,
      "耳": 3103,
      "耽": 3104,
      "联": 3105,
      "聖": 3106,
      "聘": 3107,
      "聚": 3108,
      "聞": 3109,
      "聯": 3110,
      "聲": 3111,
      "聳": 3112,
      "職": 3113,
      "聽": 3114,
      "肅": 3115,
      "肉": 3116,
      "肖": 3117,
      "肢": 3118,
      "肥": 3119,
      "肪": 3120,
      "肯": 3121,
      "育": 3122,
      "肴": 3123,
      "肺": 3124,
      "胃": 3125,
      "背": 3126,
      "胎": 3127,
      "胞": 3128,
      "胡": 3129,
      "胤": 3130,
      "能": 3131,
      "脂": 3132,
      "脅": 3133,
      "脈": 3134,
      "脊": 3135,
      "脚": 3136,
      "脣": 3137,
      "脫": 3138,
      "脱": 3139,
      "腐": 3140,
      "腕": 3141,
      "腦": 3142,
      "腫": 3143,
      "腹": 3144,
      "膏": 3145,
      "膚": 3146,
      "膠": 3147,
      "膽": 3148,
      "膾": 3149,
      "臟": 3150,
      "臣": 3151,
      "臥": 3152,
      "臨": 3153,
      "自": 3154,
      "至": 3155,
      "致": 3156,
      "臺": 3157,
      "舅": 3158,
      "與": 3159,
      "興": 3160,
      "舉": 3161,
      "舊": 3162,
      "舌": 3163,
      "舍": 3164,
      "舒": 3165,
      "舜": 3166,
      "舞": 3167,
      "舟": 3168,
      "航": 3169,
      "般": 3170,
      "舶": 3171,
      "船": 3172,
      "艦": 3173,
      "良": 3174,
      "色": 3175,
      "芥": 3176,
      "花": 3177,
      "芳": 3178,
      "苑": 3179,
      "苗": 3180,
      "苛": 3181,
      "苟": 3182,
      "若": 3183,
      "苦": 3184,
      "英": 3185,
      "茂": 3186,
      "范": 3187,
      "茜": 3188,
      "茶": 3189,
      "荀": 3190,
      "草": 3191,
      "荊": 3192,
      "荒": 3193,
      "荣": 3194,
      "荷": 3195,
      "莞": 3196,
      "莫": 3197,
      "菊": 3198,
      "菟": 3199,
      "華": 3200,
      "菱": 3201,
      "菲": 3202,
      "菴": 3203,
      "萊": 3204,
      "营": 3205,
      "萬": 3206,
      "落": 3207,
      "葉": 3208,
      "著": 3209,
      "葛": 3210,
      "葬": 3211,
      "蒙": 3212,
      "蒼": 3213,
      "蓄": 3214,
      "蓋": 3215,
      "蓬": 3216,
      "蓮": 3217,
      "蔑": 3218,
      "蔓": 3219,
      "蔘": 3220,
      "蔚": 3221,
      "蔡": 3222,
      "蔭": 3223,
      "蔽": 3224,
      "蕪": 3225,
      "蕭": 3226,
      "薄": 3227,
      "薇": 3228,
      "薛": 3229,
      "薦": 3230,
      "薩": 3231,
      "薪": 3232,
      "薰": 3233,
      "藏": 3234,
      "藝": 3235,
      "藤": 3236,
      "藥": 3237,
      "藩": 3238,
      "藻": 3239,
      "蘇": 3240,
      "蘋": 3241,
      "蘭": 3242,
      "虎": 3243,
      "虐": 3244,
      "虔": 3245,
      "處": 3246,
      "虛": 3247,
      "虜": 3248,
      "號": 3249,
      "虹": 3250,
      "虽": 3251,
      "蛇": 3252,
      "蛙": 3253,
      "蝨": 3254,
      "蝶": 3255,
      "螂": 3256,
      "螳": 3257,
      "蟲": 3258,
      "蠅": 3259,
      "蠢": 3260,
      "蠶": 3261,
      "蠻": 3262,
      "血": 3263,
      "衆": 3264,
      "行": 3265,
      "衍": 3266,
      "術": 3267,
      "衙": 3268,
      "衛": 3269,
      "衝": 3270,
      "衡": 3271,
      "衣": 3272,
      "补": 3273,
      "表": 3274,
      "衫": 3275,
      "衰": 3276,
      "袋": 3277,
      "袖": 3278,
      "被": 3279,
      "裁": 3280,
      "裂": 3281,
      "装": 3282,
      "裏": 3283,
      "裔": 3284,
      "裕": 3285,
      "補": 3286,
      "裝": 3287,
      "裵": 3288,
      "裸": 3289,
      "製": 3290,
      "複": 3291,
      "褐": 3292,
      "褒": 3293,
      "褙": 3294,
      "褻": 3295,
      "襟": 3296,
      "襤": 3297,
      "襲": 3298,
      "襾": 3299,
      "西": 3300,
      "要": 3301,
      "覆": 3302,
      "覇": 3303,
      "見": 3304,
      "規": 3305,
      "視": 3306,
      "親": 3307,
      "覺": 3308,
      "覽": 3309,
      "觀": 3310,
      "见": 3311,
      "规": 3312,
      "视": 3313,
      "觉": 3314,
      "角": 3315,
      "解": 3316,
      "触": 3317,
      "觴": 3318,
      "觸": 3319,
      "言": 3320,
      "訂": 3321,
      "計": 3322,
      "訊": 3323,
      "討": 3324,
      "訓": 3325,
      "託": 3326,
      "記": 3327,
      "訟": 3328,
      "訣": 3329,
      "訪": 3330,
      "設": 3331,
      "許": 3332,
      "訴": 3333,
      "診": 3334,
      "註": 3335,
      "詐": 3336,
      "評": 3337,
      "詞": 3338,
      "試": 3339,
      "詩": 3340,
      "詬": 3341,
      "詭": 3342,
      "話": 3343,
      "該": 3344,
      "詳": 3345,
      "誅": 3346,
      "誌": 3347,
      "認": 3348,
      "誓": 3349,
      "誕": 3350,
      "誘": 3351,
      "語": 3352,
      "誠": 3353,
      "誣": 3354,
      "誤": 3355,
      "說": 3356,
      "説": 3357,
      "読": 3358,
      "誰": 3359,
      "課": 3360,
      "誼": 3361,
      "調": 3362,
      "諆": 3363,
      "談": 3364,
      "請": 3365,
      "論": 3366,
      "諱": 3367,
      "諸": 3368,
      "諺": 3369,
      "謀": 3370,
      "謁": 3371,
      "謂": 3372,
      "謄": 3373,
      "謙": 3374,
      "講": 3375,
      "謝": 3376,
      "謠": 3377,
      "謨": 3378,
      "謬": 3379,
      "謹": 3380,
      "證": 3381,
      "識": 3382,
      "譜": 3383,
      "警": 3384,
      "譯": 3385,
      "議": 3386,
      "護": 3387,
      "譽": 3388,
      "讀": 3389,
      "變": 3390,
      "讎": 3391,
      "讐": 3392,
      "讒": 3393,
      "讓": 3394,
      "讚": 3395,
      "认": 3396,
      "讨": 3397,
      "让": 3398,
      "议": 3399,
      "记": 3400,
      "许": 3401,
      "讹": 3402,
      "论": 3403,
      "设": 3404,
      "识": 3405,
      "诉": 3406,
      "试": 3407,
      "诚": 3408,
      "话": 3409,
      "该": 3410,
      "语": 3411,
      "说": 3412,
      "请": 3413,
      "调": 3414,
      "谷": 3415,
      "豁": 3416,
      "豈": 3417,
      "豊": 3418,
      "豕": 3419,
      "豚": 3420,
      "象": 3421,
      "豪": 3422,
      "豫": 3423,
      "貊": 3424,
      "貌": 3425,
      "貝": 3426,
      "貞": 3427,
      "負": 3428,
      "財": 3429,
      "貢": 3430,
      "貧": 3431,
      "貨": 3432,
      "販": 3433,
      "貪": 3434,
      "貫": 3435,
      "責": 3436,
      "貯": 3437,
      "貰": 3438,
      "貴": 3439,
      "貶": 3440,
      "買": 3441,
      "貸": 3442,
      "費": 3443,
      "賀": 3444,
      "賃": 3445,
      "資": 3446,
      "賈": 3447,
      "賊": 3448,
      "賓": 3449,
      "賛": 3450,
      "賜": 3451,
      "賞": 3452,
      "賠": 3453,
      "賢": 3454,
      "賣": 3455,
      "賦": 3456,
      "質": 3457,
      "賭": 3458,
      "賴": 3459,
      "贈": 3460,
      "贊": 3461,
      "贡": 3462,
      "财": 3463,
      "贴": 3464,
      "费": 3465,
      "贼": 3466,
      "资": 3467,
      "赚": 3468,
      "赤": 3469,
      "赫": 3470,
      "走": 3471,
      "赵": 3472,
      "起": 3473,
      "超": 3474,
      "越": 3475,
      "趙": 3476,
      "趣": 3477,
      "足": 3478,
      "趾": 3479,
      "跆": 3480,
      "跋": 3481,
      "跡": 3482,
      "路": 3483,
      "跳": 3484,
      "踊": 3485,
      "踏": 3486,
      "踐": 3487,
      "踪": 3488,
      "蹂": 3489,
      "蹄": 3490,
      "蹟": 3491,
      "躍": 3492,
      "躪": 3493,
      "身": 3494,
      "車": 3495,
      "軋": 3496,
      "軌": 3497,
      "軍": 3498,
      "軟": 3499,
      "転": 3500,
      "軸": 3501,
      "載": 3502,
      "輔": 3503,
      "輕": 3504,
      "輛": 3505,
      "輝": 3506,
      "輩": 3507,
      "輪": 3508,
      "輸": 3509,
      "輿": 3510,
      "轄": 3511,
      "轉": 3512,
      "轍": 3513,
      "轟": 3514,
      "轡": 3515,
      "车": 3516,
      "轮": 3517,
      "较": 3518,
      "辆": 3519,
      "辈": 3520,
      "辛": 3521,
      "辜": 3522,
      "辞": 3523,
      "辦": 3524,
      "辨": 3525,
      "辭": 3526,
      "辯": 3527,
      "辰": 3528,
      "辱": 3529,
      "農": 3530,
      "込": 3531,
      "达": 3532,
      "过": 3533,
      "迎": 3534,
      "近": 3535,
      "返": 3536,
      "还": 3537,
      "这": 3538,
      "进": 3539,
      "远": 3540,
      "违": 3541,
      "连": 3542,
      "迫": 3543,
      "述": 3544,
      "迹": 3545,
      "追": 3546,
      "退": 3547,
      "送": 3548,
      "适": 3549,
      "逃": 3550,
      "逆": 3551,
      "选": 3552,
      "逋": 3553,
      "透": 3554,
      "逐": 3555,
      "途": 3556,
      "通": 3557,
      "逞": 3558,
      "速": 3559,
      "造": 3560,
      "逢": 3561,
      "連": 3562,
      "週": 3563,
      "進": 3564,
      "逸": 3565,
      "遁": 3566,
      "遂": 3567,
      "遇": 3568,
      "遊": 3569,
      "運": 3570,
      "遍": 3571,
      "過": 3572,
      "道": 3573,
      "達": 3574,
      "違": 3575,
      "遜": 3576,
      "遠": 3577,
      "遡": 3578,
      "遣": 3579,
      "適": 3580,
      "遮": 3581,
      "遲": 3582,
      "遵": 3583,
      "遷": 3584,
      "選": 3585,
      "遺": 3586,
      "遼": 3587,
      "避": 3588,
      "邁": 3589,
      "還": 3590,
      "邊": 3591,
      "邑": 3592,
      "那": 3593,
      "邦": 3594,
      "邪": 3595,
      "邯": 3596,
      "邱": 3597,
      "邵": 3598,
      "郊": 3599,
      "郞": 3600,
      "郡": 3601,
      "部": 3602,
      "郭": 3603,
      "郵": 3604,
      "都": 3605,
      "鄕": 3606,
      "鄙": 3607,
      "鄧": 3608,
      "鄭": 3609,
      "鄰": 3610,
      "鄲": 3611,
      "酉": 3612,
      "酌": 3613,
      "配": 3614,
      "酒": 3615,
      "酬": 3616,
      "酵": 3617,
      "酷": 3618,
      "酸": 3619,
      "醇": 3620,
      "醉": 3621,
      "醒": 3622,
      "醜": 3623,
      "醫": 3624,
      "釋": 3625,
      "里": 3626,
      "重": 3627,
      "野": 3628,
      "量": 3629,
      "金": 3630,
      "釘": 3631,
      "釜": 3632,
      "針": 3633,
      "釣": 3634,
      "鈴": 3635,
      "鉄": 3636,
      "鉉": 3637,
      "鉴": 3638,
      "銀": 3639,
      "銃": 3640,
      "銅": 3641,
      "銖": 3642,
      "銘": 3643,
      "鋈": 3644,
      "鋌": 3645,
      "錄": 3646,
      "錐": 3647,
      "錢": 3648,
      "錦": 3649,
      "錫": 3650,
      "錮": 3651,
      "錯": 3652,
      "鍊": 3653,
      "鍼": 3654,
      "鍾": 3655,
      "鎔": 3656,
      "鎖": 3657,
      "鎬": 3658,
      "鎭": 3659,
      "鏞": 3660,
      "鏡": 3661,
      "鐘": 3662,
      "鐵": 3663,
      "鑄": 3664,
      "鑑": 3665,
      "鑽": 3666,
      "铁": 3667,
      "锋": 3668,
      "错": 3669,
      "锯": 3670,
      "長": 3671,
      "长": 3672,
      "門": 3673,
      "閃": 3674,
      "開": 3675,
      "閏": 3676,
      "閑": 3677,
      "間": 3678,
      "閔": 3679,
      "関": 3680,
      "閣": 3681,
      "閥": 3682,
      "閱": 3683,
      "闊": 3684,
      "闕": 3685,
      "關": 3686,
      "闡": 3687,
      "闢": 3688,
      "门": 3689,
      "问": 3690,
      "间": 3691,
      "闻": 3692,
      "阜": 3693,
      "阪": 3694,
      "阮": 3695,
      "防": 3696,
      "阳": 3697,
      "阼": 3698,
      "阿": 3699,
      "附": 3700,
      "际": 3701,
      "陆": 3702,
      "降": 3703,
      "限": 3704,
      "陛": 3705,
      "陝": 3706,
      "陞": 3707,
      "院": 3708,
      "除": 3709,
      "险": 3710,
      "陪": 3711,
      "陰": 3712,
      "陳": 3713,
      "陵": 3714,
      "陶": 3715,
      "陸": 3716,
      "陽": 3717,
      "隆": 3718,
      "隊": 3719,
      "階": 3720,
      "隐": 3721,
      "隔": 3722,
      "隙": 3723,
      "際": 3724,
      "障": 3725,
      "隣": 3726,
      "隨": 3727,
      "險": 3728,
      "隱": 3729,
      "隷": 3730,
      "隸": 3731,
      "难": 3732,
      "雀": 3733,
      "雄": 3734,
      "集": 3735,
      "雇": 3736,
      "雑": 3737,
      "雙": 3738,
      "雜": 3739,
      "離": 3740,
      "難": 3741,
      "雨": 3742,
      "雪": 3743,
      "雰": 3744,
      "雲": 3745,
      "雹": 3746,
      "電": 3747,
      "需": 3748,
      "震": 3749,
      "霓": 3750,
      "霜": 3751,
      "露": 3752,
      "霸": 3753,
      "霹": 3754,
      "霽": 3755,
      "靂": 3756,
      "靈": 3757,
      "靑": 3758,
      "青": 3759,
      "靖": 3760,
      "靜": 3761,
      "非": 3762,
      "面": 3763,
      "革": 3764,
      "靺": 3765,
      "鞠": 3766,
      "鞨": 3767,
      "鞭": 3768,
      "韓": 3769,
      "韩": 3770,
      "音": 3771,
      "韶": 3772,
      "韻": 3773,
      "頁": 3774,
      "頂": 3775,
      "項": 3776,
      "順": 3777,
      "須": 3778,
      "頒": 3779,
      "頗": 3780,
      "領": 3781,
      "頭": 3782,
      "頸": 3783,
      "題": 3784,
      "額": 3785,
      "顔": 3786,
      "願": 3787,
      "顚": 3788,
      "類": 3789,
      "顧": 3790,
      "顯": 3791,
      "项": 3792,
      "颁": 3793,
      "预": 3794,
      "领": 3795,
      "颉": 3796,
      "题": 3797,
      "额": 3798,
      "風": 3799,
      "颱": 3800,
      "飄": 3801,
      "风": 3802,
      "飛": 3803,
      "飜": 3804,
      "飞": 3805,
      "食": 3806,
      "飡": 3807,
      "飢": 3808,
      "飮": 3809,
      "飯": 3810,
      "飼": 3811,
      "飾": 3812,
      "餃": 3813,
      "養": 3814,
      "餓": 3815,
      "餘": 3816,
      "館": 3817,
      "饗": 3818,
      "馆": 3819,
      "首": 3820,
      "香": 3821,
      "馬": 3822,
      "駁": 3823,
      "駅": 3824,
      "駐": 3825,
      "駕": 3826,
      "駭": 3827,
      "騎": 3828,
      "騰": 3829,
      "騷": 3830,
      "驕": 3831,
      "驗": 3832,
      "驚": 3833,
      "驛": 3834,
      "驥": 3835,
      "驪": 3836,
      "马": 3837,
      "驻": 3838,
      "驾": 3839,
      "骨": 3840,
      "骸": 3841,
      "髏": 3842,
      "髑": 3843,
      "體": 3844,
      "高": 3845,
      "髮": 3846,
      "鬪": 3847,
      "鬱": 3848,
      "鬲": 3849,
      "鬼": 3850,
      "魁": 3851,
      "魂": 3852,
      "魄": 3853,
      "魏": 3854,
      "魔": 3855,
      "魚": 3856,
      "魯": 3857,
      "鮮": 3858,
      "鱗": 3859,
      "鳥": 3860,
      "鳩": 3861,
      "鳳": 3862,
      "鳴": 3863,
      "鴟": 3864,
      "鴨": 3865,
      "鴻": 3866,
      "鵠": 3867,
      "鶴": 3868,
      "鷗": 3869,
      "鷺": 3870,
      "鸭": 3871,
      "鹽": 3872,
      "鹿": 3873,
      "麗": 3874,
      "麤": 3875,
      "麥": 3876,
      "麻": 3877,
      "黃": 3878,
      "黄": 3879,
      "黊": 3880,
      "黑": 3881,
      "默": 3882,
      "黙": 3883,
      "點": 3884,
      "黨": 3885,
      "鼎": 3886,
      "鼓": 3887,
      "鼠": 3888,
      "鼡": 3889,
      "鼻": 3890,
      "齊": 3891,
      "齋": 3892,
      "齒": 3893,
      "齡": 3894,
      "龄": 3895,
      "龍": 3896,
      "龐": 3897,
      "龙": 3898,
      "龜": 3899,
      "龟": 3900,
      "꙼": 3901,
      "가": 3902,
      "각": 3903,
      "갂": 3904,
      "갃": 3905,
      "간": 3906,
      "갅": 3907,
      "갇": 3908,
      "갈": 3909,
      "갉": 3910,
      "갊": 3911,
      "갋": 3912,
      "감": 3913,
      "갑": 3914,
      "값": 3915,
      "갓": 3916,
      "갔": 3917,
      "강": 3918,
      "갖": 3919,
      "갗": 3920,
      "갘": 3921,
      "같": 3922,
      "갚": 3923,
      "갛": 3924,
      "개": 3925,
      "객": 3926,
      "갠": 3927,
      "갢": 3928,
      "갤": 3929,
      "갦": 3930,
      "갬": 3931,
      "갭": 3932,
      "갯": 3933,
      "갰": 3934,
      "갱": 3935,
      "갲": 3936,
      "갶": 3937,
      "갷": 3938,
      "갸": 3939,
      "갹": 3940,
      "갺": 3941,
      "갼": 3942,
      "걀": 3943,
      "걁": 3944,
      "걈": 3945,
      "걉": 3946,
      "걊": 3947,
      "걍": 3948,
      "걑": 3949,
      "걔": 3950,
      "걕": 3951,
      "걘": 3952,
      "걟": 3953,
      "걧": 3954,
      "걨": 3955,
      "거": 3956,
      "걱": 3957,
      "걲": 3958,
      "걳": 3959,
      "건": 3960,
      "걵": 3961,
      "걷": 3962,
      "걸": 3963,
      "걹": 3964,
      "검": 3965,
      "겁": 3966,
      "겂": 3967,
      "것": 3968,
      "겄": 3969,
      "겅": 3970,
      "겆": 3971,
      "겈": 3972,
      "겉": 3973,
      "겊": 3974,
      "겋": 3975,
      "게": 3976,
      "겍": 3977,
      "겎": 3978,
      "겐": 3979,
      "겓": 3980,
      "겔": 3981,
      "겜": 3982,
      "겝": 3983,
      "겟": 3984,
      "겠": 3985,
      "겡": 3986,
      "겢": 3987,
      "겣": 3988,
      "겤": 3989,
      "겥": 3990,
      "겦": 3991,
      "겧": 3992,
      "겨": 3993,
      "격": 3994,
      "겪": 3995,
      "견": 3996,
      "겯": 3997,
      "결": 3998,
      "겱": 3999,
      "겷": 4000,
      "겸": 4001,
      "겹": 4002,
      "겻": 4003,
      "겼": 4004,
      "경": 4005,
      "겾": 4006,
      "겿": 4007,
      "곀": 4008,
      "곁": 4009,
      "곂": 4010,
      "곃": 4011,
      "계": 4012,
      "곅": 4013,
      "곆": 4014,
      "곋": 4015,
      "곔": 4016,
      "곕": 4017,
      "곗": 4018,
      "곘": 4019,
      "곙": 4020,
      "곝": 4021,
      "곟": 4022,
      "고": 4023,
      "곡": 4024,
      "곤": 4025,
      "곧": 4026,
      "골": 4027,
      "곪": 4028,
      "곫": 4029,
      "곬": 4030,
      "곮": 4031,
      "곯": 4032,
      "곰": 4033,
      "곱": 4034,
      "곳": 4035,
      "곴": 4036,
      "공": 4037,
      "곶": 4038,
      "곷": 4039,
      "곸": 4040,
      "곹": 4041,
      "곺": 4042,
      "곻": 4043,
      "과": 4044,
      "곽": 4045,
      "관": 4046,
      "괁": 4047,
      "괂": 4048,
      "괄": 4049,
      "괌": 4050,
      "괍": 4051,
      "괏": 4052,
      "광": 4053,
      "괒": 4054,
      "괔": 4055,
      "괕": 4056,
      "괘": 4057,
      "괙": 4058,
      "괜": 4059,
      "괞": 4060,
      "괨": 4061,
      "괫": 4062,
      "괭": 4063,
      "괴": 4064,
      "괵": 4065,
      "괸": 4066,
      "괼": 4067,
      "굄": 4068,
      "굇": 4069,
      "굉": 4070,
      "교": 4071,
      "굑": 4072,
      "굔": 4073,
      "굘": 4074,
      "굡": 4075,
      "굣": 4076,
      "굥": 4077,
      "구": 4078,
      "국": 4079,
      "굮": 4080,
      "굯": 4081,
      "군": 4082,
      "굲": 4083,
      "굳": 4084,
      "굴": 4085,
      "굵": 4086,
      "굶": 4087,
      "굷": 4088,
      "굻": 4089,
      "굼": 4090,
      "굽": 4091,
      "굿": 4092,
      "궁": 4093,
      "궂": 4094,
      "궃": 4095,
      "궄": 4096,
      "궅": 4097,
      "궆": 4098,
      "궈": 4099,
      "권": 4100,
      "궍": 4101,
      "궐": 4102,
      "궘": 4103,
      "궙": 4104,
      "궛": 4105,
      "궜": 4106,
      "궝": 4107,
      "궤": 4108,
      "궨": 4109,
      "궬": 4110,
      "궴": 4111,
      "귀": 4112,
      "귁": 4113,
      "귄": 4114,
      "귈": 4115,
      "귐": 4116,
      "귑": 4117,
      "귓": 4118,
      "귔": 4119,
      "귕": 4120,
      "규": 4121,
      "귝": 4122,
      "균": 4123,
      "귤": 4124,
      "귬": 4125,
      "귭": 4126,
      "귱": 4127,
      "그": 4128,
      "극": 4129,
      "근": 4130,
      "귾": 4131,
      "귿": 4132,
      "글": 4133,
      "긁": 4134,
      "긂": 4135,
      "긄": 4136,
      "긇": 4137,
      "금": 4138,
      "급": 4139,
      "긊": 4140,
      "긋": 4141,
      "긌": 4142,
      "긍": 4143,
      "긎": 4144,
      "긑": 4145,
      "긒": 4146,
      "긔": 4147,
      "긕": 4148,
      "긘": 4149,
      "긜": 4150,
      "긤": 4151,
      "긧": 4152,
      "기": 4153,
      "긱": 4154,
      "긴": 4155,
      "긷": 4156,
      "길": 4157,
      "긺": 4158,
      "긻": 4159,
      "김": 4160,
      "깁": 4161,
      "깂": 4162,
      "깃": 4163,
      "깄": 4164,
      "깅": 4165,
      "깆": 4166,
      "깈": 4167,
      "깉": 4168,
      "깊": 4169,
      "깋": 4170,
      "까": 4171,
      "깍": 4172,
      "깎": 4173,
      "깐": 4174,
      "깓": 4175,
      "깔": 4176,
      "깜": 4177,
      "깝": 4178,
      "깞": 4179,
      "깟": 4180,
      "깠": 4181,
      "깡": 4182,
      "깢": 4183,
      "깣": 4184,
      "깤": 4185,
      "깥": 4186,
      "깧": 4187,
      "깨": 4188,
      "깬": 4189,
      "깰": 4190,
      "깸": 4191,
      "깹": 4192,
      "깻": 4193,
      "깼": 4194,
      "깽": 4195,
      "꺄": 4196,
      "꺅": 4197,
      "꺔": 4198,
      "꺙": 4199,
      "꺠": 4200,
      "꺨": 4201,
      "꺵": 4202,
      "꺼": 4203,
      "꺽": 4204,
      "꺾": 4205,
      "껀": 4206,
      "껃": 4207,
      "껄": 4208,
      "껌": 4209,
      "껍": 4210,
      "껏": 4211,
      "껐": 4212,
      "껑": 4213,
      "께": 4214,
      "껙": 4215,
      "껜": 4216,
      "껠": 4217,
      "껨": 4218,
      "껫": 4219,
      "껬": 4220,
      "껭": 4221,
      "껴": 4222,
      "껵": 4223,
      "껶": 4224,
      "껸": 4225,
      "꼄": 4226,
      "꼅": 4227,
      "꼇": 4228,
      "꼈": 4229,
      "꼉": 4230,
      "꼐": 4231,
      "꼬": 4232,
      "꼭": 4233,
      "꼮": 4234,
      "꼰": 4235,
      "꼳": 4236,
      "꼴": 4237,
      "꼹": 4238,
      "꼻": 4239,
      "꼼": 4240,
      "꼽": 4241,
      "꼿": 4242,
      "꽁": 4243,
      "꽂": 4244,
      "꽃": 4245,
      "꽅": 4246,
      "꽇": 4247,
      "꽈": 4248,
      "꽉": 4249,
      "꽊": 4250,
      "꽌": 4251,
      "꽐": 4252,
      "꽘": 4253,
      "꽝": 4254,
      "꽣": 4255,
      "꽤": 4256,
      "꽥": 4257,
      "꽨": 4258,
      "꽬": 4259,
      "꽹": 4260,
      "꾀": 4261,
      "꾁": 4262,
      "꾄": 4263,
      "꾐": 4264,
      "꾕": 4265,
      "꾜": 4266,
      "꾬": 4267,
      "꾸": 4268,
      "꾹": 4269,
      "꾺": 4270,
      "꾼": 4271,
      "꾾": 4272,
      "꾿": 4273,
      "꿀": 4274,
      "꿁": 4275,
      "꿂": 4276,
      "꿃": 4277,
      "꿇": 4278,
      "꿈": 4279,
      "꿉": 4280,
      "꿋": 4281,
      "꿍": 4282,
      "꿎": 4283,
      "꿏": 4284,
      "꿑": 4285,
      "꿓": 4286,
      "꿔": 4287,
      "꿘": 4288,
      "꿜": 4289,
      "꿥": 4290,
      "꿧": 4291,
      "꿨": 4292,
      "꿩": 4293,
      "꿰": 4294,
      "꿱": 4295,
      "꿴": 4296,
      "꿸": 4297,
      "뀀": 4298,
      "뀄": 4299,
      "뀅": 4300,
      "뀌": 4301,
      "뀐": 4302,
      "뀔": 4303,
      "뀜": 4304,
      "뀝": 4305,
      "뀠": 4306,
      "뀡": 4307,
      "뀨": 4308,
      "뀸": 4309,
      "뀽": 4310,
      "뀿": 4311,
      "끄": 4312,
      "끅": 4313,
      "끈": 4314,
      "끉": 4315,
      "끊": 4316,
      "끋": 4317,
      "끌": 4318,
      "끍": 4319,
      "끎": 4320,
      "끐": 4321,
      "끓": 4322,
      "끔": 4323,
      "끕": 4324,
      "끗": 4325,
      "끙": 4326,
      "끚": 4327,
      "끛": 4328,
      "끜": 4329,
      "끝": 4330,
      "끞": 4331,
      "끟": 4332,
      "끠": 4333,
      "끨": 4334,
      "끱": 4335,
      "끼": 4336,
      "끽": 4337,
      "끾": 4338,
      "낀": 4339,
      "낄": 4340,
      "낅": 4341,
      "낌": 4342,
      "낍": 4343,
      "낏": 4344,
      "낑": 4345,
      "나": 4346,
      "낙": 4347,
      "낚": 4348,
      "난": 4349,
      "낞": 4350,
      "낟": 4351,
      "날": 4352,
      "낡": 4353,
      "낤": 4354,
      "낦": 4355,
      "낧": 4356,
      "남": 4357,
      "납": 4358,
      "낫": 4359,
      "났": 4360,
      "낭": 4361,
      "낮": 4362,
      "낯": 4363,
      "낰": 4364,
      "낱": 4365,
      "낲": 4366,
      "낳": 4367,
      "내": 4368,
      "낵": 4369,
      "낸": 4370,
      "낻": 4371,
      "낼": 4372,
      "냄": 4373,
      "냅": 4374,
      "냇": 4375,
      "냈": 4376,
      "냉": 4377,
      "냏": 4378,
      "냐": 4379,
      "냑": 4380,
      "냔": 4381,
      "냘": 4382,
      "냠": 4383,
      "냡": 4384,
      "냣": 4385,
      "냤": 4386,
      "냥": 4387,
      "냦": 4388,
      "냫": 4389,
      "냬": 4390,
      "냽": 4391,
      "넀": 4392,
      "넁": 4393,
      "너": 4394,
      "넉": 4395,
      "넊": 4396,
      "넋": 4397,
      "넌": 4398,
      "넎": 4399,
      "넏": 4400,
      "널": 4401,
      "넑": 4402,
      "넒": 4403,
      "넓": 4404,
      "넔": 4405,
      "넖": 4406,
      "넗": 4407,
      "넘": 4408,
      "넙": 4409,
      "넚": 4410,
      "넛": 4411,
      "넜": 4412,
      "넝": 4413,
      "넞": 4414,
      "넠": 4415,
      "넢": 4416,
      "넣": 4417,
      "네": 4418,
      "넥": 4419,
      "넨": 4420,
      "넫": 4421,
      "넬": 4422,
      "넮": 4423,
      "넴": 4424,
      "넵": 4425,
      "넷": 4426,
      "넸": 4427,
      "넹": 4428,
      "넺": 4429,
      "넼": 4430,
      "넽": 4431,
      "녀": 4432,
      "녁": 4433,
      "녂": 4434,
      "년": 4435,
      "녅": 4436,
      "녇": 4437,
      "녈": 4438,
      "념": 4439,
      "녑": 4440,
      "녓": 4441,
      "녔": 4442,
      "녕": 4443,
      "녖": 4444,
      "녗": 4445,
      "녘": 4446,
      "녛": 4447,
      "녜": 4448,
      "녠": 4449,
      "녬": 4450,
      "녱": 4451,
      "노": 4452,
      "녹": 4453,
      "논": 4454,
      "녾": 4455,
      "녿": 4456,
      "놀": 4457,
      "놁": 4458,
      "놈": 4459,
      "놉": 4460,
      "놊": 4461,
      "놋": 4462,
      "놌": 4463,
      "농": 4464,
      "놎": 4465,
      "놏": 4466,
      "놐": 4467,
      "높": 4468,
      "놓": 4469,
      "놔": 4470,
      "놜": 4471,
      "놥": 4472,
      "놧": 4473,
      "놨": 4474,
      "놩": 4475,
      "놯": 4476,
      "놰": 4477,
      "뇄": 4478,
      "뇌": 4479,
      "뇐": 4480,
      "뇔": 4481,
      "뇝": 4482,
      "뇨": 4483,
      "뇬": 4484,
      "뇰": 4485,
      "뇸": 4486,
      "뇽": 4487,
      "눂": 4488,
      "눃": 4489,
      "누": 4490,
      "눅": 4491,
      "눈": 4492,
      "눋": 4493,
      "눌": 4494,
      "눔": 4495,
      "눕": 4496,
      "눗": 4497,
      "눙": 4498,
      "눚": 4499,
      "눞": 4500,
      "눟": 4501,
      "눠": 4502,
      "눤": 4503,
      "눨": 4504,
      "눰": 4505,
      "눴": 4506,
      "눼": 4507,
      "뉘": 4508,
      "뉜": 4509,
      "뉠": 4510,
      "뉨": 4511,
      "뉩": 4512,
      "뉴": 4513,
      "뉸": 4514,
      "뉼": 4515,
      "늄": 4516,
      "늉": 4517,
      "늏": 4518,
      "느": 4519,
      "늑": 4520,
      "는": 4521,
      "늕": 4522,
      "늖": 4523,
      "늗": 4524,
      "늘": 4525,
      "늙": 4526,
      "늚": 4527,
      "늜": 4528,
      "늟": 4529,
      "늠": 4530,
      "늡": 4531,
      "늣": 4532,
      "늤": 4533,
      "능": 4534,
      "늦": 4535,
      "늧": 4536,
      "늨": 4537,
      "늩": 4538,
      "늪": 4539,
      "늫": 4540,
      "늬": 4541,
      "늰": 4542,
      "늴": 4543,
      "닂": 4544,
      "니": 4545,
      "닉": 4546,
      "닊": 4547,
      "닌": 4548,
      "닏": 4549,
      "닐": 4550,
      "닑": 4551,
      "님": 4552,
      "닙": 4553,
      "닚": 4554,
      "닛": 4555,
      "닜": 4556,
      "닝": 4557,
      "닞": 4558,
      "닠": 4559,
      "닡": 4560,
      "닢": 4561,
      "닣": 4562,
      "다": 4563,
      "닥": 4564,
      "닦": 4565,
      "단": 4566,
      "닩": 4567,
      "닪": 4568,
      "닫": 4569,
      "달": 4570,
      "닭": 4571,
      "닮": 4572,
      "닯": 4573,
      "닰": 4574,
      "닲": 4575,
      "닳": 4576,
      "담": 4577,
      "답": 4578,
      "닶": 4579,
      "닷": 4580,
      "닸": 4581,
      "당": 4582,
      "닺": 4583,
      "닻": 4584,
      "닼": 4585,
      "닽": 4586,
      "닾": 4587,
      "닿": 4588,
      "대": 4589,
      "댁": 4590,
      "댄": 4591,
      "댇": 4592,
      "댈": 4593,
      "댐": 4594,
      "댑": 4595,
      "댓": 4596,
      "댔": 4597,
      "댕": 4598,
      "댖": 4599,
      "댗": 4600,
      "댙": 4601,
      "댚": 4602,
      "댛": 4603,
      "댜": 4604,
      "댝": 4605,
      "댠": 4606,
      "댣": 4607,
      "댤": 4608,
      "댬": 4609,
      "댭": 4610,
      "댯": 4611,
      "댱": 4612,
      "댸": 4613,
      "더": 4614,
      "덕": 4615,
      "던": 4616,
      "덙": 4617,
      "덚": 4618,
      "덛": 4619,
      "덜": 4620,
      "덞": 4621,
      "덟": 4622,
      "덣": 4623,
      "덤": 4624,
      "덥": 4625,
      "덧": 4626,
      "덨": 4627,
      "덩": 4628,
      "덪": 4629,
      "덫": 4630,
      "덬": 4631,
      "덭": 4632,
      "덮": 4633,
      "덯": 4634,
      "데": 4635,
      "덱": 4636,
      "덴": 4637,
      "덷": 4638,
      "델": 4639,
      "뎀": 4640,
      "뎁": 4641,
      "뎃": 4642,
      "뎄": 4643,
      "뎅": 4644,
      "뎆": 4645,
      "뎇": 4646,
      "뎈": 4647,
      "뎊": 4648,
      "뎋": 4649,
      "뎌": 4650,
      "뎍": 4651,
      "뎐": 4652,
      "뎔": 4653,
      "뎝": 4654,
      "뎟": 4655,
      "뎠": 4656,
      "뎡": 4657,
      "뎨": 4658,
      "뎬": 4659,
      "도": 4660,
      "독": 4661,
      "돈": 4662,
      "돋": 4663,
      "돌": 4664,
      "돐": 4665,
      "돔": 4666,
      "돕": 4667,
      "돗": 4668,
      "동": 4669,
      "돚": 4670,
      "돛": 4671,
      "돜": 4672,
      "돝": 4673,
      "돞": 4674,
      "돟": 4675,
      "돠": 4676,
      "돡": 4677,
      "돤": 4678,
      "돨": 4679,
      "돱": 4680,
      "돴": 4681,
      "돵": 4682,
      "돼": 4683,
      "됀": 4684,
      "됂": 4685,
      "됄": 4686,
      "됌": 4687,
      "됍": 4688,
      "됏": 4689,
      "됐": 4690,
      "됑": 4691,
      "됒": 4692,
      "됓": 4693,
      "되": 4694,
      "됙": 4695,
      "된": 4696,
      "됟": 4697,
      "될": 4698,
      "됡": 4699,
      "됣": 4700,
      "됨": 4701,
      "됩": 4702,
      "됫": 4703,
      "됬": 4704,
      "됭": 4705,
      "됮": 4706,
      "됯": 4707,
      "됱": 4708,
      "됳": 4709,
      "됴": 4710,
      "됸": 4711,
      "됻": 4712,
      "둉": 4713,
      "두": 4714,
      "둑": 4715,
      "둔": 4716,
      "둗": 4717,
      "둘": 4718,
      "둚": 4719,
      "둟": 4720,
      "둠": 4721,
      "둡": 4722,
      "둣": 4723,
      "둥": 4724,
      "둧": 4725,
      "둬": 4726,
      "둰": 4727,
      "둴": 4728,
      "둿": 4729,
      "뒀": 4730,
      "뒇": 4731,
      "뒈": 4732,
      "뒌": 4733,
      "뒤": 4734,
      "뒨": 4735,
      "뒬": 4736,
      "뒵": 4737,
      "뒷": 4738,
      "뒸": 4739,
      "뒹": 4740,
      "뒺": 4741,
      "뒽": 4742,
      "듀": 4743,
      "듁": 4744,
      "듄": 4745,
      "듈": 4746,
      "듐": 4747,
      "듑": 4748,
      "듕": 4749,
      "드": 4750,
      "득": 4751,
      "듟": 4752,
      "든": 4753,
      "듡": 4754,
      "듣": 4755,
      "들": 4756,
      "듥": 4757,
      "듦": 4758,
      "듧": 4759,
      "듩": 4760,
      "듫": 4761,
      "듬": 4762,
      "듭": 4763,
      "듯": 4764,
      "듰": 4765,
      "등": 4766,
      "듲": 4767,
      "듵": 4768,
      "듷": 4769,
      "듸": 4770,
      "듹": 4771,
      "듼": 4772,
      "딀": 4773,
      "딉": 4774,
      "딋": 4775,
      "딍": 4776,
      "딓": 4777,
      "디": 4778,
      "딕": 4779,
      "딘": 4780,
      "딛": 4781,
      "딜": 4782,
      "딤": 4783,
      "딥": 4784,
      "딧": 4785,
      "딨": 4786,
      "딩": 4787,
      "딪": 4788,
      "딫": 4789,
      "딯": 4790,
      "따": 4791,
      "딱": 4792,
      "딲": 4793,
      "딴": 4794,
      "딷": 4795,
      "딸": 4796,
      "땀": 4797,
      "땁": 4798,
      "땃": 4799,
      "땄": 4800,
      "땅": 4801,
      "땉": 4802,
      "땋": 4803,
      "때": 4804,
      "땍": 4805,
      "땐": 4806,
      "땔": 4807,
      "땜": 4808,
      "땝": 4809,
      "땟": 4810,
      "땠": 4811,
      "땡": 4812,
      "땢": 4813,
      "땨": 4814,
      "땰": 4815,
      "떄": 4816,
      "떈": 4817,
      "떌": 4818,
      "떔": 4819,
      "떗": 4820,
      "떙": 4821,
      "떠": 4822,
      "떡": 4823,
      "떢": 4824,
      "떤": 4825,
      "떦": 4826,
      "떧": 4827,
      "떨": 4828,
      "떫": 4829,
      "떯": 4830,
      "떰": 4831,
      "떱": 4832,
      "떳": 4833,
      "떴": 4834,
      "떵": 4835,
      "떷": 4836,
      "떺": 4837,
      "떻": 4838,
      "떼": 4839,
      "떽": 4840,
      "뗀": 4841,
      "뗃": 4842,
      "뗄": 4843,
      "뗌": 4844,
      "뗍": 4845,
      "뗏": 4846,
      "뗐": 4847,
      "뗑": 4848,
      "뗗": 4849,
      "뗘": 4850,
      "뗜": 4851,
      "뗠": 4852,
      "뗫": 4853,
      "뗬": 4854,
      "뗳": 4855,
      "뗴": 4856,
      "뗸": 4857,
      "뗼": 4858,
      "똉": 4859,
      "또": 4860,
      "똑": 4861,
      "똒": 4862,
      "똔": 4863,
      "똗": 4864,
      "똘": 4865,
      "똟": 4866,
      "똠": 4867,
      "똡": 4868,
      "똣": 4869,
      "똥": 4870,
      "똨": 4871,
      "똫": 4872,
      "똬": 4873,
      "똭": 4874,
      "똰": 4875,
      "뙇": 4876,
      "뙈": 4877,
      "뙛": 4878,
      "뙤": 4879,
      "뙥": 4880,
      "뙨": 4881,
      "뙬": 4882,
      "뙵": 4883,
      "뙿": 4884,
      "뚜": 4885,
      "뚝": 4886,
      "뚞": 4887,
      "뚠": 4888,
      "뚣": 4889,
      "뚤": 4890,
      "뚥": 4891,
      "뚦": 4892,
      "뚧": 4893,
      "뚨": 4894,
      "뚫": 4895,
      "뚬": 4896,
      "뚭": 4897,
      "뚯": 4898,
      "뚱": 4899,
      "뚵": 4900,
      "뚷": 4901,
      "뛰": 4902,
      "뛱": 4903,
      "뛴": 4904,
      "뛸": 4905,
      "뜀": 4906,
      "뜁": 4907,
      "뜅": 4908,
      "뜌": 4909,
      "뜍": 4910,
      "뜨": 4911,
      "뜩": 4912,
      "뜬": 4913,
      "뜮": 4914,
      "뜯": 4915,
      "뜰": 4916,
      "뜷": 4917,
      "뜸": 4918,
      "뜹": 4919,
      "뜻": 4920,
      "뜽": 4921,
      "뜾": 4922,
      "뜿": 4923,
      "띁": 4924,
      "띃": 4925,
      "띄": 4926,
      "띈": 4927,
      "띌": 4928,
      "띔": 4929,
      "띕": 4930,
      "띗": 4931,
      "띠": 4932,
      "띡": 4933,
      "띤": 4934,
      "띨": 4935,
      "띰": 4936,
      "띱": 4937,
      "띵": 4938,
      "라": 4939,
      "락": 4940,
      "띾": 4941,
      "띿": 4942,
      "란": 4943,
      "랁": 4944,
      "랂": 4945,
      "랃": 4946,
      "랄": 4947,
      "랆": 4948,
      "람": 4949,
      "랍": 4950,
      "랎": 4951,
      "랏": 4952,
      "랐": 4953,
      "랑": 4954,
      "랒": 4955,
      "랔": 4956,
      "랖": 4957,
      "랗": 4958,
      "래": 4959,
      "랙": 4960,
      "랜": 4961,
      "랠": 4962,
      "램": 4963,
      "랩": 4964,
      "랫": 4965,
      "랬": 4966,
      "랭": 4967,
      "랲": 4968,
      "랳": 4969,
      "랴": 4970,
      "략": 4971,
      "랸": 4972,
      "랼": 4973,
      "럄": 4974,
      "럅": 4975,
      "럈": 4976,
      "량": 4977,
      "럐": 4978,
      "럠": 4979,
      "러": 4980,
      "럭": 4981,
      "런": 4982,
      "럲": 4983,
      "럳": 4984,
      "럴": 4985,
      "럶": 4986,
      "럸": 4987,
      "럻": 4988,
      "럼": 4989,
      "럽": 4990,
      "럾": 4991,
      "럿": 4992,
      "렀": 4993,
      "렁": 4994,
      "렂": 4995,
      "렆": 4996,
      "렇": 4997,
      "레": 4998,
      "렉": 4999,
      "렌": 5000,
      "렐": 5001,
      "렘": 5002,
      "렙": 5003,
      "렛": 5004,
      "렜": 5005,
      "렝": 5006,
      "렠": 5007,
      "렣": 5008,
      "려": 5009,
      "력": 5010,
      "렧": 5011,
      "련": 5012,
      "렬": 5013,
      "렴": 5014,
      "렵": 5015,
      "렶": 5016,
      "렷": 5017,
      "렸": 5018,
      "령": 5019,
      "렺": 5020,
      "렾": 5021,
      "렿": 5022,
      "례": 5023,
      "롁": 5024,
      "롄": 5025,
      "롓": 5026,
      "롔": 5027,
      "로": 5028,
      "록": 5029,
      "론": 5030,
      "롣": 5031,
      "롤": 5032,
      "롬": 5033,
      "롭": 5034,
      "롯": 5035,
      "롱": 5036,
      "롲": 5037,
      "롴": 5038,
      "롶": 5039,
      "롷": 5040,
      "롸": 5041,
      "롹": 5042,
      "롼": 5043,
      "뢀": 5044,
      "뢈": 5045,
      "뢉": 5046,
      "뢍": 5047,
      "뢔": 5048,
      "뢤": 5049,
      "뢰": 5050,
      "뢱": 5051,
      "뢴": 5052,
      "뢸": 5053,
      "룀": 5054,
      "룁": 5055,
      "료": 5056,
      "룍": 5057,
      "룐": 5058,
      "룓": 5059,
      "룔": 5060,
      "룜": 5061,
      "룝": 5062,
      "룟": 5063,
      "룡": 5064,
      "룢": 5065,
      "루": 5066,
      "룩": 5067,
      "룬": 5068,
      "룯": 5069,
      "룰": 5070,
      "룸": 5071,
      "룹": 5072,
      "룻": 5073,
      "룽": 5074,
      "뤄": 5075,
      "뤈": 5076,
      "뤌": 5077,
      "뤗": 5078,
      "뤘": 5079,
      "뤟": 5080,
      "뤠": 5081,
      "뤼": 5082,
      "륀": 5083,
      "륐": 5084,
      "륑": 5085,
      "류": 5086,
      "륙": 5087,
      "륜": 5088,
      "륟": 5089,
      "률": 5090,
      "륨": 5091,
      "륩": 5092,
      "륭": 5093,
      "륮": 5094,
      "륲": 5095,
      "륳": 5096,
      "르": 5097,
      "륵": 5098,
      "른": 5099,
      "륻": 5100,
      "를": 5101,
      "륾": 5102,
      "륿": 5103,
      "릁": 5104,
      "릂": 5105,
      "릃": 5106,
      "름": 5107,
      "릅": 5108,
      "릇": 5109,
      "릉": 5110,
      "릊": 5111,
      "릋": 5112,
      "릌": 5113,
      "릍": 5114,
      "릎": 5115,
      "릏": 5116,
      "릐": 5117,
      "릔": 5118,
      "릘": 5119,
      "릠": 5120,
      "릡": 5121,
      "릫": 5122,
      "리": 5123,
      "릭": 5124,
      "린": 5125,
      "릳": 5126,
      "릴": 5127,
      "릵": 5128,
      "릷": 5129,
      "림": 5130,
      "립": 5131,
      "릾": 5132,
      "릿": 5133,
      "맀": 5134,
      "링": 5135,
      "맂": 5136,
      "맅": 5137,
      "맆": 5138,
      "맇": 5139,
      "마": 5140,
      "막": 5141,
      "맊": 5142,
      "만": 5143,
      "맍": 5144,
      "많": 5145,
      "맏": 5146,
      "말": 5147,
      "맑": 5148,
      "맒": 5149,
      "맔": 5150,
      "맗": 5151,
      "맘": 5152,
      "맙": 5153,
      "맚": 5154,
      "맛": 5155,
      "맜": 5156,
      "망": 5157,
      "맞": 5158,
      "맟": 5159,
      "맠": 5160,
      "맡": 5161,
      "맢": 5162,
      "맣": 5163,
      "매": 5164,
      "맥": 5165,
      "맨": 5166,
      "맫": 5167,
      "맬": 5168,
      "맴": 5169,
      "맵": 5170,
      "맷": 5171,
      "맸": 5172,
      "맹": 5173,
      "맺": 5174,
      "맻": 5175,
      "맽": 5176,
      "맿": 5177,
      "먀": 5178,
      "먁": 5179,
      "먄": 5180,
      "먆": 5181,
      "먈": 5182,
      "먕": 5183,
      "먖": 5184,
      "먗": 5185,
      "먙": 5186,
      "먝": 5187,
      "머": 5188,
      "먹": 5189,
      "먺": 5190,
      "먼": 5191,
      "먽": 5192,
      "먾": 5193,
      "먿": 5194,
      "멀": 5195,
      "멈": 5196,
      "멉": 5197,
      "멊": 5198,
      "멋": 5199,
      "멌": 5200,
      "멍": 5201,
      "멎": 5202,
      "멏": 5203,
      "멑": 5204,
      "멓": 5205,
      "메": 5206,
      "멕": 5207,
      "멘": 5208,
      "멜": 5209,
      "멤": 5210,
      "멥": 5211,
      "멧": 5212,
      "멨": 5213,
      "멩": 5214,
      "멫": 5215,
      "며": 5216,
      "멱": 5217,
      "면": 5218,
      "멷": 5219,
      "멸": 5220,
      "멿": 5221,
      "몀": 5222,
      "몁": 5223,
      "몃": 5224,
      "몄": 5225,
      "명": 5226,
      "몆": 5227,
      "몇": 5228,
      "몈": 5229,
      "몉": 5230,
      "몊": 5231,
      "몋": 5232,
      "몌": 5233,
      "몍": 5234,
      "몐": 5235,
      "몟": 5236,
      "몡": 5237,
      "모": 5238,
      "목": 5239,
      "몪": 5240,
      "몫": 5241,
      "몬": 5242,
      "몯": 5243,
      "몰": 5244,
      "몱": 5245,
      "몴": 5246,
      "몷": 5247,
      "몸": 5248,
      "몹": 5249,
      "못": 5250,
      "몼": 5251,
      "몽": 5252,
      "몾": 5253,
      "몿": 5254,
      "뫀": 5255,
      "뫂": 5256,
      "뫃": 5257,
      "뫄": 5258,
      "뫈": 5259,
      "뫌": 5260,
      "뫖": 5261,
      "뫘": 5262,
      "뫠": 5263,
      "뫼": 5264,
      "뫽": 5265,
      "묀": 5266,
      "묄": 5267,
      "묏": 5268,
      "묘": 5269,
      "묙": 5270,
      "묜": 5271,
      "묫": 5272,
      "묭": 5273,
      "묯": 5274,
      "무": 5275,
      "묵": 5276,
      "묶": 5277,
      "문": 5278,
      "묹": 5279,
      "묺": 5280,
      "묻": 5281,
      "물": 5282,
      "묽": 5283,
      "묾": 5284,
      "뭄": 5285,
      "뭅": 5286,
      "뭇": 5287,
      "뭉": 5288,
      "뭊": 5289,
      "뭋": 5290,
      "뭌": 5291,
      "뭍": 5292,
      "뭎": 5293,
      "뭏": 5294,
      "뭐": 5295,
      "뭑": 5296,
      "뭔": 5297,
      "뭘": 5298,
      "뭟": 5299,
      "뭠": 5300,
      "뭡": 5301,
      "뭣": 5302,
      "뭤": 5303,
      "뭥": 5304,
      "뭫": 5305,
      "뭬": 5306,
      "뮈": 5307,
      "뮌": 5308,
      "뮐": 5309,
      "뮙": 5310,
      "뮛": 5311,
      "뮝": 5312,
      "뮤": 5313,
      "뮥": 5314,
      "뮨": 5315,
      "뮫": 5316,
      "뮬": 5317,
      "뮴": 5318,
      "뮹": 5319,
      "므": 5320,
      "믁": 5321,
      "믄": 5322,
      "믇": 5323,
      "믈": 5324,
      "믐": 5325,
      "믑": 5326,
      "믓": 5327,
      "믕": 5328,
      "믜": 5329,
      "미": 5330,
      "믹": 5331,
      "민": 5332,
      "믽": 5333,
      "믾": 5334,
      "믿": 5335,
      "밀": 5336,
      "밇": 5337,
      "밈": 5338,
      "밉": 5339,
      "밊": 5340,
      "밋": 5341,
      "밌": 5342,
      "밍": 5343,
      "밎": 5344,
      "및": 5345,
      "밐": 5346,
      "밑": 5347,
      "밒": 5348,
      "밓": 5349,
      "바": 5350,
      "박": 5351,
      "밖": 5352,
      "밗": 5353,
      "반": 5354,
      "밚": 5355,
      "받": 5356,
      "발": 5357,
      "밝": 5358,
      "밞": 5359,
      "밟": 5360,
      "밠": 5361,
      "밢": 5362,
      "밣": 5363,
      "밤": 5364,
      "밥": 5365,
      "밦": 5366,
      "밧": 5367,
      "밨": 5368,
      "방": 5369,
      "밪": 5370,
      "밫": 5371,
      "밬": 5372,
      "밭": 5373,
      "밮": 5374,
      "밯": 5375,
      "배": 5376,
      "백": 5377,
      "밴": 5378,
      "밷": 5379,
      "밸": 5380,
      "뱀": 5381,
      "뱁": 5382,
      "뱃": 5383,
      "뱄": 5384,
      "뱅": 5385,
      "뱆": 5386,
      "뱈": 5387,
      "뱉": 5388,
      "뱋": 5389,
      "뱌": 5390,
      "뱍": 5391,
      "뱎": 5392,
      "뱐": 5393,
      "뱓": 5394,
      "뱔": 5395,
      "뱝": 5396,
      "뱡": 5397,
      "뱨": 5398,
      "뱩": 5399,
      "버": 5400,
      "벅": 5401,
      "벆": 5402,
      "번": 5403,
      "벋": 5404,
      "벌": 5405,
      "벍": 5406,
      "벏": 5407,
      "벐": 5408,
      "벑": 5409,
      "벓": 5410,
      "범": 5411,
      "법": 5412,
      "벖": 5413,
      "벗": 5414,
      "벘": 5415,
      "벙": 5416,
      "벚": 5417,
      "벛": 5418,
      "벜": 5419,
      "벝": 5420,
      "벞": 5421,
      "벟": 5422,
      "베": 5423,
      "벡": 5424,
      "벢": 5425,
      "벤": 5426,
      "벧": 5427,
      "벨": 5428,
      "벭": 5429,
      "벰": 5430,
      "벱": 5431,
      "벳": 5432,
      "벴": 5433,
      "벵": 5434,
      "벹": 5435,
      "벼": 5436,
      "벽": 5437,
      "벾": 5438,
      "변": 5439,
      "별": 5440,
      "볅": 5441,
      "볋": 5442,
      "볌": 5443,
      "볍": 5444,
      "볏": 5445,
      "볐": 5446,
      "병": 5447,
      "볒": 5448,
      "볓": 5449,
      "볔": 5450,
      "볕": 5451,
      "볖": 5452,
      "볘": 5453,
      "볜": 5454,
      "볠": 5455,
      "보": 5456,
      "복": 5457,
      "볶": 5458,
      "볷": 5459,
      "본": 5460,
      "볻": 5461,
      "볼": 5462,
      "봃": 5463,
      "봄": 5464,
      "봅": 5465,
      "봇": 5466,
      "봈": 5467,
      "봉": 5468,
      "봊": 5469,
      "봋": 5470,
      "봍": 5471,
      "봎": 5472,
      "봏": 5473,
      "봐": 5474,
      "봒": 5475,
      "봔": 5476,
      "봗": 5477,
      "봘": 5478,
      "봙": 5479,
      "봡": 5480,
      "봣": 5481,
      "봤": 5482,
      "봥": 5483,
      "봨": 5484,
      "봫": 5485,
      "봬": 5486,
      "봽": 5487,
      "뵀": 5488,
      "뵁": 5489,
      "뵈": 5490,
      "뵌": 5491,
      "뵐": 5492,
      "뵙": 5493,
      "뵛": 5494,
      "뵜": 5495,
      "뵤": 5496,
      "뵨": 5497,
      "뵵": 5498,
      "뵹": 5499,
      "부": 5500,
      "북": 5501,
      "붂": 5502,
      "분": 5503,
      "붅": 5504,
      "붆": 5505,
      "붇": 5506,
      "불": 5507,
      "붉": 5508,
      "붋": 5509,
      "붍": 5510,
      "붎": 5511,
      "붏": 5512,
      "붐": 5513,
      "붑": 5514,
      "붓": 5515,
      "붔": 5516,
      "붕": 5517,
      "붖": 5518,
      "붗": 5519,
      "붘": 5520,
      "붙": 5521,
      "붚": 5522,
      "붛": 5523,
      "붜": 5524,
      "붠": 5525,
      "붤": 5526,
      "붭": 5527,
      "붰": 5528,
      "붱": 5529,
      "붸": 5530,
      "뷔": 5531,
      "뷕": 5532,
      "뷥": 5533,
      "뷧": 5534,
      "뷩": 5535,
      "뷰": 5536,
      "뷱": 5537,
      "뷴": 5538,
      "뷸": 5539,
      "븅": 5540,
      "븉": 5541,
      "브": 5542,
      "븍": 5543,
      "븐": 5544,
      "븓": 5545,
      "블": 5546,
      "븕": 5547,
      "븜": 5548,
      "븝": 5549,
      "븟": 5550,
      "븡": 5551,
      "븥": 5552,
      "븧": 5553,
      "븨": 5554,
      "븰": 5555,
      "빂": 5556,
      "비": 5557,
      "빅": 5558,
      "빆": 5559,
      "빈": 5560,
      "빋": 5561,
      "빌": 5562,
      "빍": 5563,
      "빏": 5564,
      "빔": 5565,
      "빕": 5566,
      "빗": 5567,
      "빘": 5568,
      "빙": 5569,
      "빚": 5570,
      "빛": 5571,
      "빝": 5572,
      "빟": 5573,
      "빠": 5574,
      "빡": 5575,
      "빢": 5576,
      "빤": 5577,
      "빧": 5578,
      "빨": 5579,
      "빩": 5580,
      "빰": 5581,
      "빱": 5582,
      "빳": 5583,
      "빴": 5584,
      "빵": 5585,
      "빸": 5586,
      "빻": 5587,
      "빼": 5588,
      "빽": 5589,
      "뺀": 5590,
      "뺃": 5591,
      "뺄": 5592,
      "뺌": 5593,
      "뺍": 5594,
      "뺏": 5595,
      "뺐": 5596,
      "뺑": 5597,
      "뺒": 5598,
      "뺓": 5599,
      "뺕": 5600,
      "뺘": 5601,
      "뺠": 5602,
      "뺨": 5603,
      "뺴": 5604,
      "뺵": 5605,
      "뺸": 5606,
      "뺼": 5607,
      "뻄": 5608,
      "뻇": 5609,
      "뻈": 5610,
      "뻉": 5611,
      "뻐": 5612,
      "뻑": 5613,
      "뻔": 5614,
      "뻗": 5615,
      "뻘": 5616,
      "뻟": 5617,
      "뻡": 5618,
      "뻣": 5619,
      "뻤": 5620,
      "뻥": 5621,
      "뻦": 5622,
      "뻩": 5623,
      "뻪": 5624,
      "뻬": 5625,
      "뻭": 5626,
      "뻰": 5627,
      "뻼": 5628,
      "뻿": 5629,
      "뼀": 5630,
      "뼁": 5631,
      "뼈": 5632,
      "뼉": 5633,
      "뼌": 5634,
      "뼏": 5635,
      "뼐": 5636,
      "뼘": 5637,
      "뼙": 5638,
      "뼛": 5639,
      "뼜": 5640,
      "뼝": 5641,
      "뼤": 5642,
      "뽀": 5643,
      "뽁": 5644,
      "뽂": 5645,
      "뽄": 5646,
      "뽈": 5647,
      "뽐": 5648,
      "뽑": 5649,
      "뽓": 5650,
      "뽕": 5651,
      "뽖": 5652,
      "뽙": 5653,
      "뽚": 5654,
      "뽜": 5655,
      "뽝": 5656,
      "뽱": 5657,
      "뾰": 5658,
      "뿁": 5659,
      "뿅": 5660,
      "뿌": 5661,
      "뿍": 5662,
      "뿐": 5663,
      "뿑": 5664,
      "뿔": 5665,
      "뿘": 5666,
      "뿜": 5667,
      "뿝": 5668,
      "뿟": 5669,
      "뿡": 5670,
      "뿨": 5671,
      "뿹": 5672,
      "쀄": 5673,
      "쀠": 5674,
      "쀼": 5675,
      "쁀": 5676,
      "쁘": 5677,
      "쁙": 5678,
      "쁜": 5679,
      "쁠": 5680,
      "쁨": 5681,
      "쁩": 5682,
      "쁰": 5683,
      "쁸": 5684,
      "삐": 5685,
      "삑": 5686,
      "삔": 5687,
      "삘": 5688,
      "삠": 5689,
      "삣": 5690,
      "삥": 5691,
      "사": 5692,
      "삭": 5693,
      "삮": 5694,
      "삯": 5695,
      "산": 5696,
      "삲": 5697,
      "삳": 5698,
      "살": 5699,
      "삵": 5700,
      "삶": 5701,
      "삷": 5702,
      "삸": 5703,
      "삺": 5704,
      "삻": 5705,
      "삼": 5706,
      "삽": 5707,
      "삾": 5708,
      "삿": 5709,
      "샀": 5710,
      "상": 5711,
      "샂": 5712,
      "샄": 5713,
      "샅": 5714,
      "샆": 5715,
      "샇": 5716,
      "새": 5717,
      "색": 5718,
      "샊": 5719,
      "샌": 5720,
      "샏": 5721,
      "샐": 5722,
      "샒": 5723,
      "샘": 5724,
      "샙": 5725,
      "샛": 5726,
      "샜": 5727,
      "생": 5728,
      "샠": 5729,
      "샡": 5730,
      "샣": 5731,
      "샤": 5732,
      "샥": 5733,
      "샦": 5734,
      "샨": 5735,
      "샬": 5736,
      "샴": 5737,
      "샵": 5738,
      "샷": 5739,
      "샸": 5740,
      "샹": 5741,
      "샾": 5742,
      "섀": 5743,
      "섕": 5744,
      "서": 5745,
      "석": 5746,
      "섞": 5747,
      "선": 5748,
      "섢": 5749,
      "섣": 5750,
      "설": 5751,
      "섥": 5752,
      "섦": 5753,
      "섧": 5754,
      "섪": 5755,
      "섬": 5756,
      "섭": 5757,
      "섮": 5758,
      "섯": 5759,
      "섰": 5760,
      "성": 5761,
      "섲": 5762,
      "섳": 5763,
      "섴": 5764,
      "섵": 5765,
      "섶": 5766,
      "섷": 5767,
      "세": 5768,
      "섹": 5769,
      "섻": 5770,
      "센": 5771,
      "섿": 5772,
      "셀": 5773,
      "셁": 5774,
      "셈": 5775,
      "셉": 5776,
      "셋": 5777,
      "셌": 5778,
      "셍": 5779,
      "셑": 5780,
      "셒": 5781,
      "셔": 5782,
      "셕": 5783,
      "션": 5784,
      "셛": 5785,
      "셜": 5786,
      "셤": 5787,
      "셥": 5788,
      "셧": 5789,
      "셨": 5790,
      "셩": 5791,
      "셫": 5792,
      "셯": 5793,
      "셰": 5794,
      "셴": 5795,
      "셸": 5796,
      "솄": 5797,
      "솅": 5798,
      "소": 5799,
      "속": 5800,
      "솎": 5801,
      "손": 5802,
      "솓": 5803,
      "솔": 5804,
      "솜": 5805,
      "솝": 5806,
      "솟": 5807,
      "송": 5808,
      "솣": 5809,
      "솤": 5810,
      "솥": 5811,
      "솦": 5812,
      "솧": 5813,
      "솨": 5814,
      "솩": 5815,
      "솬": 5816,
      "솰": 5817,
      "솽": 5818,
      "쇄": 5819,
      "쇅": 5820,
      "쇈": 5821,
      "쇠": 5822,
      "쇡": 5823,
      "쇨": 5824,
      "쇱": 5825,
      "쇳": 5826,
      "쇻": 5827,
      "쇼": 5828,
      "쇽": 5829,
      "숀": 5830,
      "숄": 5831,
      "숍": 5832,
      "숏": 5833,
      "숑": 5834,
      "숕": 5835,
      "숖": 5836,
      "수": 5837,
      "숙": 5838,
      "숚": 5839,
      "순": 5840,
      "숟": 5841,
      "술": 5842,
      "숧": 5843,
      "숨": 5844,
      "숩": 5845,
      "숫": 5846,
      "숬": 5847,
      "숭": 5848,
      "숮": 5849,
      "숯": 5850,
      "숰": 5851,
      "숱": 5852,
      "숲": 5853,
      "숳": 5854,
      "숴": 5855,
      "숸": 5856,
      "숼": 5857,
      "쉄": 5858,
      "쉅": 5859,
      "쉈": 5860,
      "쉉": 5861,
      "쉐": 5862,
      "쉑": 5863,
      "쉘": 5864,
      "쉡": 5865,
      "쉣": 5866,
      "쉥": 5867,
      "쉬": 5868,
      "쉭": 5869,
      "쉰": 5870,
      "쉴": 5871,
      "쉼": 5872,
      "쉽": 5873,
      "쉾": 5874,
      "쉿": 5875,
      "슁": 5876,
      "슂": 5877,
      "슅": 5878,
      "슆": 5879,
      "슈": 5880,
      "슉": 5881,
      "슌": 5882,
      "슐": 5883,
      "슘": 5884,
      "슙": 5885,
      "슛": 5886,
      "슝": 5887,
      "스": 5888,
      "슥": 5889,
      "슨": 5890,
      "슫": 5891,
      "슬": 5892,
      "슭": 5893,
      "슴": 5894,
      "습": 5895,
      "슶": 5896,
      "슷": 5897,
      "승": 5898,
      "슺": 5899,
      "슽": 5900,
      "슾": 5901,
      "슿": 5902,
      "싀": 5903,
      "싄": 5904,
      "싈": 5905,
      "싑": 5906,
      "싚": 5907,
      "시": 5908,
      "식": 5909,
      "싟": 5910,
      "신": 5911,
      "싡": 5912,
      "싢": 5913,
      "싣": 5914,
      "실": 5915,
      "싥": 5916,
      "싦": 5917,
      "싨": 5918,
      "싩": 5919,
      "싪": 5920,
      "싫": 5921,
      "심": 5922,
      "십": 5923,
      "싮": 5924,
      "싯": 5925,
      "싰": 5926,
      "싱": 5927,
      "싲": 5928,
      "싳": 5929,
      "싴": 5930,
      "싵": 5931,
      "싶": 5932,
      "싷": 5933,
      "싸": 5934,
      "싹": 5935,
      "싺": 5936,
      "싻": 5937,
      "싼": 5938,
      "싾": 5939,
      "쌀": 5940,
      "쌂": 5941,
      "쌇": 5942,
      "쌈": 5943,
      "쌉": 5944,
      "쌋": 5945,
      "쌌": 5946,
      "쌍": 5947,
      "쌑": 5948,
      "쌒": 5949,
      "쌓": 5950,
      "쌔": 5951,
      "쌕": 5952,
      "쌘": 5953,
      "쌜": 5954,
      "쌤": 5955,
      "쌥": 5956,
      "쌧": 5957,
      "쌨": 5958,
      "쌩": 5959,
      "쌯": 5960,
      "쌰": 5961,
      "쌱": 5962,
      "쌸": 5963,
      "썅": 5964,
      "썋": 5965,
      "썌": 5966,
      "썜": 5967,
      "썡": 5968,
      "써": 5969,
      "썩": 5970,
      "썪": 5971,
      "썬": 5972,
      "썯": 5973,
      "썰": 5974,
      "썸": 5975,
      "썹": 5976,
      "썻": 5977,
      "썼": 5978,
      "썽": 5979,
      "쎀": 5980,
      "쎃": 5981,
      "쎄": 5982,
      "쎅": 5983,
      "쎈": 5984,
      "쎌": 5985,
      "쎔": 5986,
      "쎕": 5987,
      "쎗": 5988,
      "쎘": 5989,
      "쎙": 5990,
      "쎠": 5991,
      "쎡": 5992,
      "쎤": 5993,
      "쎳": 5994,
      "쎴": 5995,
      "쎵": 5996,
      "쎼": 5997,
      "쏀": 5998,
      "쏘": 5999,
      "쏙": 6000,
      "쏜": 6001,
      "쏟": 6002,
      "쏠": 6003,
      "쏨": 6004,
      "쏩": 6005,
      "쏫": 6006,
      "쏬": 6007,
      "쏭": 6008,
      "쏱": 6009,
      "쏳": 6010,
      "쏴": 6011,
      "쏵": 6012,
      "쏼": 6013,
      "쐇": 6014,
      "쐈": 6015,
      "쐉": 6016,
      "쐐": 6017,
      "쐘": 6018,
      "쐬": 6019,
      "쐰": 6020,
      "쐴": 6021,
      "쐿": 6022,
      "쑁": 6023,
      "쑈": 6024,
      "쑤": 6025,
      "쑥": 6026,
      "쑨": 6027,
      "쑫": 6028,
      "쑬": 6029,
      "쑴": 6030,
      "쑵": 6031,
      "쑹": 6032,
      "쒀": 6033,
      "쒜": 6034,
      "쒠": 6035,
      "쒯": 6036,
      "쒸": 6037,
      "쒼": 6038,
      "쓉": 6039,
      "쓔": 6040,
      "쓩": 6041,
      "쓰": 6042,
      "쓱": 6043,
      "쓴": 6044,
      "쓷": 6045,
      "쓸": 6046,
      "씀": 6047,
      "씁": 6048,
      "씃": 6049,
      "씅": 6050,
      "씉": 6051,
      "씋": 6052,
      "씌": 6053,
      "씍": 6054,
      "씐": 6055,
      "씨": 6056,
      "씩": 6057,
      "씪": 6058,
      "씬": 6059,
      "씯": 6060,
      "씰": 6061,
      "씷": 6062,
      "씸": 6063,
      "씹": 6064,
      "씻": 6065,
      "씼": 6066,
      "씽": 6067,
      "앂": 6068,
      "앃": 6069,
      "아": 6070,
      "악": 6071,
      "앆": 6072,
      "안": 6073,
      "앉": 6074,
      "않": 6075,
      "앋": 6076,
      "알": 6077,
      "앍": 6078,
      "앎": 6079,
      "앏": 6080,
      "앐": 6081,
      "앒": 6082,
      "앓": 6083,
      "암": 6084,
      "압": 6085,
      "앖": 6086,
      "앗": 6087,
      "았": 6088,
      "앙": 6089,
      "앚": 6090,
      "앛": 6091,
      "앜": 6092,
      "앝": 6093,
      "앞": 6094,
      "앟": 6095,
      "애": 6096,
      "액": 6097,
      "앤": 6098,
      "앨": 6099,
      "앰": 6100,
      "앱": 6101,
      "앲": 6102,
      "앳": 6103,
      "앴": 6104,
      "앵": 6105,
      "앶": 6106,
      "앸": 6107,
      "앺": 6108,
      "앻": 6109,
      "야": 6110,
      "약": 6111,
      "앾": 6112,
      "얀": 6113,
      "얂": 6114,
      "얃": 6115,
      "얄": 6116,
      "얅": 6117,
      "얆": 6118,
      "얇": 6119,
      "얉": 6120,
      "얊": 6121,
      "얋": 6122,
      "얌": 6123,
      "얍": 6124,
      "얎": 6125,
      "얏": 6126,
      "얐": 6127,
      "양": 6128,
      "얒": 6129,
      "얕": 6130,
      "얖": 6131,
      "얗": 6132,
      "얘": 6133,
      "얙": 6134,
      "얜": 6135,
      "얠": 6136,
      "얩": 6137,
      "얫": 6138,
      "얬": 6139,
      "어": 6140,
      "억": 6141,
      "얶": 6142,
      "얷": 6143,
      "언": 6144,
      "얹": 6145,
      "얺": 6146,
      "얻": 6147,
      "얼": 6148,
      "얽": 6149,
      "얾": 6150,
      "얿": 6151,
      "엃": 6152,
      "엄": 6153,
      "업": 6154,
      "없": 6155,
      "엇": 6156,
      "었": 6157,
      "엉": 6158,
      "엊": 6159,
      "엋": 6160,
      "엌": 6161,
      "엍": 6162,
      "엎": 6163,
      "엏": 6164,
      "에": 6165,
      "엑": 6166,
      "엔": 6167,
      "엗": 6168,
      "엘": 6169,
      "엠": 6170,
      "엡": 6171,
      "엢": 6172,
      "엣": 6173,
      "엤": 6174,
      "엥": 6175,
      "엦": 6176,
      "엧": 6177,
      "엪": 6178,
      "여": 6179,
      "역": 6180,
      "엮": 6181,
      "엯": 6182,
      "연": 6183,
      "엱": 6184,
      "엲": 6185,
      "엳": 6186,
      "열": 6187,
      "엵": 6188,
      "엶": 6189,
      "엷": 6190,
      "엸": 6191,
      "염": 6192,
      "엽": 6193,
      "엾": 6194,
      "엿": 6195,
      "였": 6196,
      "영": 6197,
      "옂": 6198,
      "옃": 6199,
      "옄": 6200,
      "옅": 6201,
      "옆": 6202,
      "옇": 6203,
      "예": 6204,
      "옉": 6205,
      "옌": 6206,
      "옐": 6207,
      "옘": 6208,
      "옙": 6209,
      "옛": 6210,
      "옜": 6211,
      "옞": 6212,
      "옟": 6213,
      "옢": 6214,
      "옣": 6215,
      "오": 6216,
      "옥": 6217,
      "온": 6218,
      "옪": 6219,
      "옫": 6220,
      "올": 6221,
      "옭": 6222,
      "옮": 6223,
      "옯": 6224,
      "옰": 6225,
      "옳": 6226,
      "옴": 6227,
      "옵": 6228,
      "옶": 6229,
      "옷": 6230,
      "옸": 6231,
      "옹": 6232,
      "옺": 6233,
      "옻": 6234,
      "옾": 6235,
      "옿": 6236,
      "와": 6237,
      "왁": 6238,
      "왂": 6239,
      "완": 6240,
      "왇": 6241,
      "왈": 6242,
      "왐": 6243,
      "왑": 6244,
      "왓": 6245,
      "왔": 6246,
      "왕": 6247,
      "왖": 6248,
      "왛": 6249,
      "왜": 6250,
      "왝": 6251,
      "왠": 6252,
      "왤": 6253,
      "왭": 6254,
      "왱": 6255,
      "왴": 6256,
      "왷": 6257,
      "외": 6258,
      "왹": 6259,
      "왼": 6260,
      "욈": 6261,
      "욉": 6262,
      "욋": 6263,
      "욌": 6264,
      "욍": 6265,
      "욓": 6266,
      "요": 6267,
      "욕": 6268,
      "욗": 6269,
      "욘": 6270,
      "욛": 6271,
      "욜": 6272,
      "욣": 6273,
      "욤": 6274,
      "욥": 6275,
      "욧": 6276,
      "욨": 6277,
      "용": 6278,
      "욪": 6279,
      "욬": 6280,
      "욭": 6281,
      "욮": 6282,
      "욯": 6283,
      "우": 6284,
      "욱": 6285,
      "운": 6286,
      "욷": 6287,
      "울": 6288,
      "욹": 6289,
      "욺": 6290,
      "욼": 6291,
      "욽": 6292,
      "욿": 6293,
      "움": 6294,
      "웁": 6295,
      "웂": 6296,
      "웃": 6297,
      "웄": 6298,
      "웅": 6299,
      "웈": 6300,
      "웉": 6301,
      "웋": 6302,
      "워": 6303,
      "웍": 6304,
      "원": 6305,
      "웑": 6306,
      "웒": 6307,
      "월": 6308,
      "웕": 6309,
      "웗": 6310,
      "웚": 6311,
      "웛": 6312,
      "웜": 6313,
      "웝": 6314,
      "웟": 6315,
      "웠": 6316,
      "웡": 6317,
      "웤": 6318,
      "웥": 6319,
      "웧": 6320,
      "웨": 6321,
      "웩": 6322,
      "웪": 6323,
      "웬": 6324,
      "웰": 6325,
      "웸": 6326,
      "웹": 6327,
      "웻": 6328,
      "웽": 6329,
      "위": 6330,
      "윅": 6331,
      "윈": 6332,
      "윌": 6333,
      "윔": 6334,
      "윕": 6335,
      "윗": 6336,
      "윘": 6337,
      "윙": 6338,
      "윚": 6339,
      "윛": 6340,
      "윟": 6341,
      "유": 6342,
      "육": 6343,
      "윤": 6344,
      "윧": 6345,
      "율": 6346,
      "윬": 6347,
      "윯": 6348,
      "윰": 6349,
      "윱": 6350,
      "윳": 6351,
      "융": 6352,
      "윶": 6353,
      "윷": 6354,
      "윺": 6355,
      "윻": 6356,
      "으": 6357,
      "윽": 6358,
      "윾": 6359,
      "은": 6360,
      "읁": 6361,
      "읂": 6362,
      "읃": 6363,
      "을": 6364,
      "읅": 6365,
      "읆": 6366,
      "읇": 6367,
      "읈": 6368,
      "읉": 6369,
      "읊": 6370,
      "읋": 6371,
      "음": 6372,
      "읍": 6373,
      "읎": 6374,
      "읏": 6375,
      "읐": 6376,
      "응": 6377,
      "읒": 6378,
      "읓": 6379,
      "읔": 6380,
      "읕": 6381,
      "읖": 6382,
      "읗": 6383,
      "의": 6384,
      "읙": 6385,
      "읜": 6386,
      "읟": 6387,
      "읠": 6388,
      "읨": 6389,
      "읩": 6390,
      "읫": 6391,
      "읬": 6392,
      "읭": 6393,
      "읮": 6394,
      "읯": 6395,
      "이": 6396,
      "익": 6397,
      "읶": 6398,
      "읷": 6399,
      "인": 6400,
      "읹": 6401,
      "읺": 6402,
      "읻": 6403,
      "일": 6404,
      "읽": 6405,
      "읾": 6406,
      "읿": 6407,
      "잀": 6408,
      "잂": 6409,
      "잃": 6410,
      "임": 6411,
      "입": 6412,
      "잆": 6413,
      "잇": 6414,
      "있": 6415,
      "잉": 6416,
      "잊": 6417,
      "잋": 6418,
      "잌": 6419,
      "잍": 6420,
      "잎": 6421,
      "잏": 6422,
      "자": 6423,
      "작": 6424,
      "잒": 6425,
      "잔": 6426,
      "잕": 6427,
      "잖": 6428,
      "잗": 6429,
      "잘": 6430,
      "잙": 6431,
      "잚": 6432,
      "잛": 6433,
      "잜": 6434,
      "잝": 6435,
      "잟": 6436,
      "잠": 6437,
      "잡": 6438,
      "잢": 6439,
      "잣": 6440,
      "잤": 6441,
      "장": 6442,
      "잦": 6443,
      "잧": 6444,
      "잨": 6445,
      "잩": 6446,
      "잪": 6447,
      "잫": 6448,
      "재": 6449,
      "잭": 6450,
      "잰": 6451,
      "잳": 6452,
      "잴": 6453,
      "잼": 6454,
      "잽": 6455,
      "잿": 6456,
      "쟀": 6457,
      "쟁": 6458,
      "쟂": 6459,
      "쟃": 6460,
      "쟇": 6461,
      "쟈": 6462,
      "쟉": 6463,
      "쟌": 6464,
      "쟎": 6465,
      "쟐": 6466,
      "쟙": 6467,
      "쟜": 6468,
      "쟝": 6469,
      "쟤": 6470,
      "쟨": 6471,
      "저": 6472,
      "적": 6473,
      "젂": 6474,
      "젃": 6475,
      "전": 6476,
      "젅": 6477,
      "젆": 6478,
      "젇": 6479,
      "절": 6480,
      "젉": 6481,
      "젊": 6482,
      "젋": 6483,
      "젌": 6484,
      "젎": 6485,
      "젏": 6486,
      "점": 6487,
      "접": 6488,
      "젒": 6489,
      "젓": 6490,
      "젔": 6491,
      "정": 6492,
      "젖": 6493,
      "젘": 6494,
      "젚": 6495,
      "젛": 6496,
      "제": 6497,
      "젝": 6498,
      "젞": 6499,
      "젠": 6500,
      "젣": 6501,
      "젤": 6502,
      "젫": 6503,
      "젬": 6504,
      "젭": 6505,
      "젯": 6506,
      "젰": 6507,
      "젱": 6508,
      "젲": 6509,
      "젴": 6510,
      "져": 6511,
      "젹": 6512,
      "젼": 6513,
      "졀": 6514,
      "졈": 6515,
      "졉": 6516,
      "졋": 6517,
      "졌": 6518,
      "졍": 6519,
      "졎": 6520,
      "졓": 6521,
      "졔": 6522,
      "졕": 6523,
      "졘": 6524,
      "졜": 6525,
      "졨": 6526,
      "조": 6527,
      "족": 6528,
      "졳": 6529,
      "존": 6530,
      "졵": 6531,
      "졶": 6532,
      "졷": 6533,
      "졸": 6534,
      "좀": 6535,
      "좁": 6536,
      "좃": 6537,
      "좄": 6538,
      "종": 6539,
      "좆": 6540,
      "좇": 6541,
      "좉": 6542,
      "좊": 6543,
      "좋": 6544,
      "좌": 6545,
      "좍": 6546,
      "좐": 6547,
      "좔": 6548,
      "좠": 6549,
      "좡": 6550,
      "좨": 6551,
      "좼": 6552,
      "좽": 6553,
      "죄": 6554,
      "죅": 6555,
      "죈": 6556,
      "죌": 6557,
      "죔": 6558,
      "죕": 6559,
      "죗": 6560,
      "죙": 6561,
      "죚": 6562,
      "죠": 6563,
      "죡": 6564,
      "죤": 6565,
      "죰": 6566,
      "죱": 6567,
      "죳": 6568,
      "죴": 6569,
      "죵": 6570,
      "죶": 6571,
      "죸": 6572,
      "죹": 6573,
      "죻": 6574,
      "주": 6575,
      "죽": 6576,
      "죾": 6577,
      "준": 6578,
      "줃": 6579,
      "줄": 6580,
      "줅": 6581,
      "줉": 6582,
      "줋": 6583,
      "줌": 6584,
      "줍": 6585,
      "줏": 6586,
      "중": 6587,
      "줒": 6588,
      "줓": 6589,
      "줔": 6590,
      "줕": 6591,
      "줗": 6592,
      "줘": 6593,
      "줚": 6594,
      "줜": 6595,
      "줫": 6596,
      "줬": 6597,
      "줭": 6598,
      "줳": 6599,
      "줴": 6600,
      "쥐": 6601,
      "쥑": 6602,
      "쥔": 6603,
      "쥘": 6604,
      "쥡": 6605,
      "쥣": 6606,
      "쥤": 6607,
      "쥥": 6608,
      "쥬": 6609,
      "쥭": 6610,
      "쥰": 6611,
      "쥴": 6612,
      "쥼": 6613,
      "쥽": 6614,
      "즀": 6615,
      "즁": 6616,
      "즈": 6617,
      "즉": 6618,
      "즋": 6619,
      "즌": 6620,
      "즐": 6621,
      "즘": 6622,
      "즙": 6623,
      "즛": 6624,
      "증": 6625,
      "즞": 6626,
      "즠": 6627,
      "즣": 6628,
      "즤": 6629,
      "즥": 6630,
      "즨": 6631,
      "즬": 6632,
      "즮": 6633,
      "즴": 6634,
      "즵": 6635,
      "즹": 6636,
      "지": 6637,
      "직": 6638,
      "짂": 6639,
      "진": 6640,
      "짅": 6641,
      "짆": 6642,
      "짇": 6643,
      "질": 6644,
      "짉": 6645,
      "짊": 6646,
      "짋": 6647,
      "짌": 6648,
      "짍": 6649,
      "짏": 6650,
      "짐": 6651,
      "집": 6652,
      "짒": 6653,
      "짓": 6654,
      "짔": 6655,
      "징": 6656,
      "짖": 6657,
      "짗": 6658,
      "짘": 6659,
      "짙": 6660,
      "짚": 6661,
      "짛": 6662,
      "짜": 6663,
      "짝": 6664,
      "짞": 6665,
      "짠": 6666,
      "짢": 6667,
      "짣": 6668,
      "짤": 6669,
      "짥": 6670,
      "짦": 6671,
      "짧": 6672,
      "짪": 6673,
      "짫": 6674,
      "짬": 6675,
      "짭": 6676,
      "짮": 6677,
      "짯": 6678,
      "짰": 6679,
      "짱": 6680,
      "짲": 6681,
      "째": 6682,
      "짹": 6683,
      "짼": 6684,
      "쨀": 6685,
      "쨉": 6686,
      "쨋": 6687,
      "쨌": 6688,
      "쨍": 6689,
      "쨎": 6690,
      "쨓": 6691,
      "쨔": 6692,
      "쨕": 6693,
      "쨚": 6694,
      "쨜": 6695,
      "쨟": 6696,
      "쨤": 6697,
      "쨨": 6698,
      "쨩": 6699,
      "쨰": 6700,
      "쨴": 6701,
      "쩃": 6702,
      "쩄": 6703,
      "쩅": 6704,
      "쩌": 6705,
      "쩍": 6706,
      "쩎": 6707,
      "쩐": 6708,
      "쩔": 6709,
      "쩜": 6710,
      "쩝": 6711,
      "쩟": 6712,
      "쩠": 6713,
      "쩡": 6714,
      "쩧": 6715,
      "쩨": 6716,
      "쩻": 6717,
      "쪄": 6718,
      "쪌": 6719,
      "쪕": 6720,
      "쪘": 6721,
      "쪼": 6722,
      "쪽": 6723,
      "쪾": 6724,
      "쫀": 6725,
      "쫃": 6726,
      "쫄": 6727,
      "쫌": 6728,
      "쫍": 6729,
      "쫏": 6730,
      "쫐": 6731,
      "쫑": 6732,
      "쫒": 6733,
      "쫓": 6734,
      "쫕": 6735,
      "쫗": 6736,
      "쫘": 6737,
      "쫙": 6738,
      "쫚": 6739,
      "쫴": 6740,
      "쬐": 6741,
      "쬘": 6742,
      "쬠": 6743,
      "쬡": 6744,
      "쬬": 6745,
      "쬭": 6746,
      "쭃": 6747,
      "쭈": 6748,
      "쭉": 6749,
      "쭌": 6750,
      "쭐": 6751,
      "쭓": 6752,
      "쭘": 6753,
      "쭙": 6754,
      "쭝": 6755,
      "쭞": 6756,
      "쭟": 6757,
      "쭤": 6758,
      "쭵": 6759,
      "쭷": 6760,
      "쭸": 6761,
      "쮜": 6762,
      "쮝": 6763,
      "쮤": 6764,
      "쮸": 6765,
      "쮹": 6766,
      "쯀": 6767,
      "쯔": 6768,
      "쯕": 6769,
      "쯤": 6770,
      "쯥": 6771,
      "쯧": 6772,
      "쯩": 6773,
      "쯪": 6774,
      "쯰": 6775,
      "찌": 6776,
      "찍": 6777,
      "찎": 6778,
      "찏": 6779,
      "찐": 6780,
      "찔": 6781,
      "찗": 6782,
      "찛": 6783,
      "찜": 6784,
      "찝": 6785,
      "찟": 6786,
      "찡": 6787,
      "찢": 6788,
      "찣": 6789,
      "찤": 6790,
      "찦": 6791,
      "찧": 6792,
      "차": 6793,
      "착": 6794,
      "찬": 6795,
      "찭": 6796,
      "찮": 6797,
      "찯": 6798,
      "찰": 6799,
      "찱": 6800,
      "참": 6801,
      "찹": 6802,
      "찻": 6803,
      "찼": 6804,
      "창": 6805,
      "찾": 6806,
      "찿": 6807,
      "챀": 6808,
      "챁": 6809,
      "챃": 6810,
      "채": 6811,
      "책": 6812,
      "챇": 6813,
      "챈": 6814,
      "챌": 6815,
      "챔": 6816,
      "챕": 6817,
      "챗": 6818,
      "챘": 6819,
      "챙": 6820,
      "챠": 6821,
      "챡": 6822,
      "챤": 6823,
      "챦": 6824,
      "챨": 6825,
      "챯": 6826,
      "챰": 6827,
      "챴": 6828,
      "챵": 6829,
      "챽": 6830,
      "처": 6831,
      "척": 6832,
      "첛": 6833,
      "천": 6834,
      "첞": 6835,
      "첟": 6836,
      "철": 6837,
      "첢": 6838,
      "첤": 6839,
      "첦": 6840,
      "첧": 6841,
      "첨": 6842,
      "첩": 6843,
      "첪": 6844,
      "첫": 6845,
      "첬": 6846,
      "청": 6847,
      "첮": 6848,
      "첯": 6849,
      "첱": 6850,
      "첳": 6851,
      "체": 6852,
      "첵": 6853,
      "첸": 6854,
      "첻": 6855,
      "첼": 6856,
      "쳄": 6857,
      "쳅": 6858,
      "쳇": 6859,
      "쳉": 6860,
      "쳎": 6861,
      "쳐": 6862,
      "쳑": 6863,
      "쳔": 6864,
      "쳘": 6865,
      "쳠": 6866,
      "쳣": 6867,
      "쳤": 6868,
      "쳥": 6869,
      "쳦": 6870,
      "쳧": 6871,
      "쳬": 6872,
      "초": 6873,
      "촉": 6874,
      "촌": 6875,
      "촐": 6876,
      "촘": 6877,
      "촙": 6878,
      "촛": 6879,
      "총": 6880,
      "촞": 6881,
      "촟": 6882,
      "촣": 6883,
      "촤": 6884,
      "촥": 6885,
      "촨": 6886,
      "촬": 6887,
      "촹": 6888,
      "쵀": 6889,
      "쵁": 6890,
      "최": 6891,
      "쵝": 6892,
      "쵤": 6893,
      "쵯": 6894,
      "쵱": 6895,
      "쵸": 6896,
      "춏": 6897,
      "추": 6898,
      "축": 6899,
      "춗": 6900,
      "춘": 6901,
      "출": 6902,
      "춝": 6903,
      "춟": 6904,
      "춠": 6905,
      "춣": 6906,
      "춤": 6907,
      "춥": 6908,
      "춧": 6909,
      "충": 6910,
      "춪": 6911,
      "춫": 6912,
      "춬": 6913,
      "춭": 6914,
      "춯": 6915,
      "춰": 6916,
      "춴": 6917,
      "췃": 6918,
      "췄": 6919,
      "췅": 6920,
      "췆": 6921,
      "췇": 6922,
      "췌": 6923,
      "췐": 6924,
      "취": 6925,
      "췩": 6926,
      "췬": 6927,
      "췰": 6928,
      "췸": 6929,
      "췻": 6930,
      "췼": 6931,
      "췽": 6932,
      "츄": 6933,
      "츅": 6934,
      "츈": 6935,
      "츌": 6936,
      "츕": 6937,
      "츙": 6938,
      "츠": 6939,
      "측": 6940,
      "츤": 6941,
      "츨": 6942,
      "츰": 6943,
      "츱": 6944,
      "층": 6945,
      "츸": 6946,
      "츼": 6947,
      "츽": 6948,
      "칀": 6949,
      "칑": 6950,
      "치": 6951,
      "칙": 6952,
      "친": 6953,
      "칟": 6954,
      "칠": 6955,
      "칡": 6956,
      "침": 6957,
      "칩": 6958,
      "칫": 6959,
      "칬": 6960,
      "칭": 6961,
      "칮": 6962,
      "칯": 6963,
      "칰": 6964,
      "칲": 6965,
      "카": 6966,
      "칵": 6967,
      "칸": 6968,
      "칼": 6969,
      "캄": 6970,
      "캅": 6971,
      "캆": 6972,
      "캇": 6973,
      "캈": 6974,
      "캉": 6975,
      "캍": 6976,
      "캎": 6977,
      "캐": 6978,
      "캑": 6979,
      "캔": 6980,
      "캘": 6981,
      "캠": 6982,
      "캡": 6983,
      "캣": 6984,
      "캤": 6985,
      "캥": 6986,
      "캪": 6987,
      "캬": 6988,
      "캭": 6989,
      "캰": 6990,
      "컄": 6991,
      "컈": 6992,
      "커": 6993,
      "컥": 6994,
      "컦": 6995,
      "컨": 6996,
      "컫": 6997,
      "컬": 6998,
      "컴": 6999,
      "컵": 7000,
      "컷": 7001,
      "컸": 7002,
      "컹": 7003,
      "컼": 7004,
      "컽": 7005,
      "컾": 7006,
      "케": 7007,
      "켁": 7008,
      "켄": 7009,
      "켇": 7010,
      "켈": 7011,
      "켐": 7012,
      "켑": 7013,
      "켓": 7014,
      "켔": 7015,
      "켕": 7016,
      "켘": 7017,
      "켙": 7018,
      "켚": 7019,
      "켛": 7020,
      "켜": 7021,
      "켝": 7022,
      "켞": 7023,
      "켠": 7024,
      "켤": 7025,
      "켬": 7026,
      "켭": 7027,
      "켯": 7028,
      "켰": 7029,
      "켱": 7030,
      "켷": 7031,
      "켸": 7032,
      "콋": 7033,
      "코": 7034,
      "콕": 7035,
      "콘": 7036,
      "콜": 7037,
      "콝": 7038,
      "콤": 7039,
      "콥": 7040,
      "콧": 7041,
      "콩": 7042,
      "콫": 7043,
      "콬": 7044,
      "콮": 7045,
      "콰": 7046,
      "콱": 7047,
      "콴": 7048,
      "콸": 7049,
      "쾀": 7050,
      "쾅": 7051,
      "쾈": 7052,
      "쾌": 7053,
      "쾍": 7054,
      "쾐": 7055,
      "쾔": 7056,
      "쾡": 7057,
      "쾨": 7058,
      "쾰": 7059,
      "쿄": 7060,
      "쿌": 7061,
      "쿔": 7062,
      "쿠": 7063,
      "쿡": 7064,
      "쿤": 7065,
      "쿨": 7066,
      "쿯": 7067,
      "쿰": 7068,
      "쿱": 7069,
      "쿳": 7070,
      "쿵": 7071,
      "쿸": 7072,
      "쿼": 7073,
      "쿽": 7074,
      "퀀": 7075,
      "퀄": 7076,
      "퀌": 7077,
      "퀘": 7078,
      "퀠": 7079,
      "퀭": 7080,
      "퀴": 7081,
      "퀵": 7082,
      "퀸": 7083,
      "퀼": 7084,
      "큄": 7085,
      "큅": 7086,
      "큐": 7087,
      "큔": 7088,
      "큘": 7089,
      "큥": 7090,
      "크": 7091,
      "큭": 7092,
      "큰": 7093,
      "큲": 7094,
      "클": 7095,
      "큼": 7096,
      "큽": 7097,
      "큿": 7098,
      "킁": 7099,
      "킄": 7100,
      "킅": 7101,
      "킈": 7102,
      "킝": 7103,
      "키": 7104,
      "킥": 7105,
      "킨": 7106,
      "킬": 7107,
      "킳": 7108,
      "킴": 7109,
      "킵": 7110,
      "킷": 7111,
      "킹": 7112,
      "킼": 7113,
      "킽": 7114,
      "타": 7115,
      "탁": 7116,
      "탄": 7117,
      "탇": 7118,
      "탈": 7119,
      "탉": 7120,
      "탍": 7121,
      "탐": 7122,
      "탑": 7123,
      "탓": 7124,
      "탔": 7125,
      "탕": 7126,
      "탘": 7127,
      "탙": 7128,
      "탚": 7129,
      "탛": 7130,
      "태": 7131,
      "택": 7132,
      "탞": 7133,
      "탠": 7134,
      "탣": 7135,
      "탤": 7136,
      "탬": 7137,
      "탭": 7138,
      "탯": 7139,
      "탰": 7140,
      "탱": 7141,
      "탴": 7142,
      "탶": 7143,
      "탸": 7144,
      "탹": 7145,
      "탼": 7146,
      "턀": 7147,
      "턔": 7148,
      "턕": 7149,
      "턤": 7150,
      "터": 7151,
      "턱": 7152,
      "턴": 7153,
      "턷": 7154,
      "털": 7155,
      "텀": 7156,
      "텁": 7157,
      "텃": 7158,
      "텄": 7159,
      "텅": 7160,
      "텆": 7161,
      "텋": 7162,
      "테": 7163,
      "텍": 7164,
      "텐": 7165,
      "텔": 7166,
      "템": 7167,
      "텝": 7168,
      "텟": 7169,
      "텡": 7170,
      "텢": 7171,
      "텥": 7172,
      "텦": 7173,
      "텧": 7174,
      "텨": 7175,
      "텩": 7176,
      "텬": 7177,
      "텻": 7178,
      "텼": 7179,
      "텽": 7180,
      "톄": 7181,
      "톅": 7182,
      "톈": 7183,
      "톔": 7184,
      "토": 7185,
      "톡": 7186,
      "톤": 7187,
      "톥": 7188,
      "톨": 7189,
      "톰": 7190,
      "톱": 7191,
      "톳": 7192,
      "통": 7193,
      "톶": 7194,
      "톷": 7195,
      "톹": 7196,
      "톺": 7197,
      "톻": 7198,
      "톼": 7199,
      "톽": 7200,
      "퇄": 7201,
      "퇘": 7202,
      "퇫": 7203,
      "퇬": 7204,
      "퇴": 7205,
      "퇵": 7206,
      "퇸": 7207,
      "퇼": 7208,
      "툄": 7209,
      "툇": 7210,
      "툉": 7211,
      "툋": 7212,
      "툐": 7213,
      "툥": 7214,
      "투": 7215,
      "툭": 7216,
      "툰": 7217,
      "툴": 7218,
      "툻": 7219,
      "툼": 7220,
      "툽": 7221,
      "퉁": 7222,
      "퉈": 7223,
      "퉌": 7224,
      "퉐": 7225,
      "퉜": 7226,
      "퉤": 7227,
      "퉷": 7228,
      "퉸": 7229,
      "퉹": 7230,
      "튀": 7231,
      "튄": 7232,
      "튈": 7233,
      "튑": 7234,
      "튓": 7235,
      "튔": 7236,
      "튕": 7237,
      "튜": 7238,
      "튝": 7239,
      "튠": 7240,
      "튤": 7241,
      "튬": 7242,
      "튭": 7243,
      "튱": 7244,
      "트": 7245,
      "특": 7246,
      "튼": 7247,
      "튽": 7248,
      "튿": 7249,
      "틀": 7250,
      "틈": 7251,
      "틉": 7252,
      "틋": 7253,
      "틍": 7254,
      "틐": 7255,
      "틑": 7256,
      "틔": 7257,
      "틕": 7258,
      "틜": 7259,
      "티": 7260,
      "틱": 7261,
      "틴": 7262,
      "틷": 7263,
      "틸": 7264,
      "팀": 7265,
      "팁": 7266,
      "팃": 7267,
      "팄": 7268,
      "팅": 7269,
      "파": 7270,
      "팍": 7271,
      "팎": 7272,
      "판": 7273,
      "팒": 7274,
      "팓": 7275,
      "팔": 7276,
      "팖": 7277,
      "팛": 7278,
      "팜": 7279,
      "팝": 7280,
      "팟": 7281,
      "팠": 7282,
      "팡": 7283,
      "팢": 7284,
      "팤": 7285,
      "팥": 7286,
      "팦": 7287,
      "패": 7288,
      "팩": 7289,
      "팬": 7290,
      "팰": 7291,
      "팸": 7292,
      "팹": 7293,
      "팻": 7294,
      "팼": 7295,
      "팽": 7296,
      "퍄": 7297,
      "퍅": 7298,
      "퍈": 7299,
      "퍌": 7300,
      "퍙": 7301,
      "퍠": 7302,
      "퍡": 7303,
      "퍤": 7304,
      "퍼": 7305,
      "퍽": 7306,
      "펀": 7307,
      "펄": 7308,
      "펌": 7309,
      "펍": 7310,
      "펏": 7311,
      "펐": 7312,
      "펑": 7313,
      "페": 7314,
      "펙": 7315,
      "펜": 7316,
      "펠": 7317,
      "펨": 7318,
      "펩": 7319,
      "펫": 7320,
      "펭": 7321,
      "펮": 7322,
      "펴": 7323,
      "펵": 7324,
      "편": 7325,
      "펻": 7326,
      "펼": 7327,
      "폄": 7328,
      "폅": 7329,
      "폇": 7330,
      "폈": 7331,
      "평": 7332,
      "폍": 7333,
      "폎": 7334,
      "폐": 7335,
      "폑": 7336,
      "폔": 7337,
      "폘": 7338,
      "폠": 7339,
      "폡": 7340,
      "폣": 7341,
      "폥": 7342,
      "포": 7343,
      "폭": 7344,
      "폯": 7345,
      "폰": 7346,
      "폳": 7347,
      "폴": 7348,
      "폼": 7349,
      "폽": 7350,
      "폿": 7351,
      "퐁": 7352,
      "퐄": 7353,
      "퐈": 7354,
      "퐉": 7355,
      "퐐": 7356,
      "퐝": 7357,
      "퐤": 7358,
      "푀": 7359,
      "푄": 7360,
      "표": 7361,
      "푝": 7362,
      "푠": 7363,
      "푣": 7364,
      "푤": 7365,
      "푯": 7366,
      "푱": 7367,
      "푶": 7368,
      "푷": 7369,
      "푸": 7370,
      "푹": 7371,
      "푼": 7372,
      "풀": 7373,
      "풇": 7374,
      "품": 7375,
      "풉": 7376,
      "풋": 7377,
      "풍": 7378,
      "풒": 7379,
      "풔": 7380,
      "풥": 7381,
      "풰": 7382,
      "퓌": 7383,
      "퓔": 7384,
      "퓨": 7385,
      "퓰": 7386,
      "퓸": 7387,
      "퓹": 7388,
      "퓽": 7389,
      "프": 7390,
      "픅": 7391,
      "픈": 7392,
      "플": 7393,
      "픔": 7394,
      "픕": 7395,
      "픗": 7396,
      "픙": 7397,
      "픜": 7398,
      "픝": 7399,
      "픞": 7400,
      "픠": 7401,
      "픨": 7402,
      "피": 7403,
      "픽": 7404,
      "핀": 7405,
      "핃": 7406,
      "필": 7407,
      "핊": 7408,
      "핌": 7409,
      "핍": 7410,
      "핏": 7411,
      "핑": 7412,
      "핒": 7413,
      "핓": 7414,
      "핔": 7415,
      "핕": 7416,
      "핖": 7417,
      "핗": 7418,
      "하": 7419,
      "학": 7420,
      "핚": 7421,
      "핛": 7422,
      "한": 7423,
      "핝": 7424,
      "핞": 7425,
      "핟": 7426,
      "할": 7427,
      "핡": 7428,
      "핢": 7429,
      "핣": 7430,
      "핤": 7431,
      "핥": 7432,
      "핦": 7433,
      "핧": 7434,
      "함": 7435,
      "합": 7436,
      "핪": 7437,
      "핫": 7438,
      "핬": 7439,
      "항": 7440,
      "핮": 7441,
      "핯": 7442,
      "핰": 7443,
      "핱": 7444,
      "핲": 7445,
      "핳": 7446,
      "해": 7447,
      "핵": 7448,
      "핷": 7449,
      "핸": 7450,
      "핻": 7451,
      "핼": 7452,
      "핽": 7453,
      "햄": 7454,
      "햅": 7455,
      "햇": 7456,
      "했": 7457,
      "행": 7458,
      "햊": 7459,
      "햋": 7460,
      "햌": 7461,
      "햍": 7462,
      "햏": 7463,
      "햐": 7464,
      "햑": 7465,
      "햔": 7466,
      "햘": 7467,
      "햙": 7468,
      "햛": 7469,
      "햝": 7470,
      "햠": 7471,
      "햡": 7472,
      "햣": 7473,
      "햤": 7474,
      "향": 7475,
      "햫": 7476,
      "햬": 7477,
      "햭": 7478,
      "햰": 7479,
      "햿": 7480,
      "헀": 7481,
      "헁": 7482,
      "허": 7483,
      "헉": 7484,
      "헌": 7485,
      "헏": 7486,
      "헐": 7487,
      "헑": 7488,
      "헓": 7489,
      "헔": 7490,
      "험": 7491,
      "헙": 7492,
      "헚": 7493,
      "헛": 7494,
      "헜": 7495,
      "헝": 7496,
      "헞": 7497,
      "헡": 7498,
      "헢": 7499,
      "헣": 7500,
      "헤": 7501,
      "헥": 7502,
      "헨": 7503,
      "헬": 7504,
      "헯": 7505,
      "헴": 7506,
      "헵": 7507,
      "헷": 7508,
      "헸": 7509,
      "헹": 7510,
      "헿": 7511,
      "혀": 7512,
      "혁": 7513,
      "현": 7514,
      "혅": 7515,
      "혈": 7516,
      "혐": 7517,
      "협": 7518,
      "혓": 7519,
      "혔": 7520,
      "형": 7521,
      "혘": 7522,
      "혚": 7523,
      "혛": 7524,
      "혜": 7525,
      "혠": 7526,
      "혣": 7527,
      "혤": 7528,
      "혬": 7529,
      "혰": 7530,
      "혱": 7531,
      "혲": 7532,
      "호": 7533,
      "혹": 7534,
      "혺": 7535,
      "혻": 7536,
      "혼": 7537,
      "혿": 7538,
      "홀": 7539,
      "홁": 7540,
      "홇": 7541,
      "홈": 7542,
      "홉": 7543,
      "홋": 7544,
      "홍": 7545,
      "홑": 7546,
      "홓": 7547,
      "화": 7548,
      "확": 7549,
      "홗": 7550,
      "환": 7551,
      "홛": 7552,
      "활": 7553,
      "홝": 7554,
      "홞": 7555,
      "홟": 7556,
      "홣": 7557,
      "홤": 7558,
      "홥": 7559,
      "홧": 7560,
      "황": 7561,
      "홮": 7562,
      "홯": 7563,
      "홰": 7564,
      "홱": 7565,
      "홴": 7566,
      "횃": 7567,
      "횄": 7568,
      "횅": 7569,
      "회": 7570,
      "획": 7571,
      "횐": 7572,
      "횓": 7573,
      "횔": 7574,
      "횝": 7575,
      "횟": 7576,
      "횡": 7577,
      "횢": 7578,
      "효": 7579,
      "횩": 7580,
      "횬": 7581,
      "횰": 7582,
      "횽": 7583,
      "후": 7584,
      "훅": 7585,
      "훈": 7586,
      "훉": 7587,
      "훋": 7588,
      "훌": 7589,
      "훍": 7590,
      "훑": 7591,
      "훓": 7592,
      "훔": 7593,
      "훕": 7594,
      "훗": 7595,
      "훙": 7596,
      "훝": 7597,
      "훠": 7598,
      "훡": 7599,
      "훤": 7600,
      "훨": 7601,
      "훯": 7602,
      "훰": 7603,
      "훵": 7604,
      "훼": 7605,
      "훽": 7606,
      "휀": 7607,
      "휄": 7608,
      "휏": 7609,
      "휑": 7610,
      "휘": 7611,
      "휙": 7612,
      "휜": 7613,
      "휠": 7614,
      "휨": 7615,
      "휩": 7616,
      "휫": 7617,
      "휭": 7618,
      "휳": 7619,
      "휴": 7620,
      "휵": 7621,
      "휸": 7622,
      "휼": 7623,
      "흄": 7624,
      "흉": 7625,
      "흏": 7626,
      "흐": 7627,
      "흑": 7628,
      "흔": 7629,
      "흗": 7630,
      "흘": 7631,
      "흙": 7632,
      "흜": 7633,
      "흝": 7634,
      "흠": 7635,
      "흡": 7636,
      "흣": 7637,
      "흥": 7638,
      "흩": 7639,
      "흪": 7640,
      "흫": 7641,
      "희": 7642,
      "흭": 7643,
      "흰": 7644,
      "흳": 7645,
      "흴": 7646,
      "흼": 7647,
      "흽": 7648,
      "힁": 7649,
      "히": 7650,
      "힉": 7651,
      "힌": 7652,
      "힐": 7653,
      "힑": 7654,
      "힒": 7655,
      "힗": 7656,
      "힘": 7657,
      "힙": 7658,
      "힛": 7659,
      "힜": 7660,
      "힝": 7661,
      "힞": 7662,
      "힢": 7663,
      "힣": 7664,
      "ힹ": 7665,
      "퟇": 7666,
      "": 7667,
      "": 7668,
      "": 7669,
      "": 7670,
      "": 7671,
      "": 7672,
      "": 7673,
      "": 7674,
      "": 7675,
      "": 7676,
      "": 7677,
      "": 7678,
      "": 7679,
      "": 7680,
      "": 7681,
      "": 7682,
      "": 7683,
      "": 7684,
      "": 7685,
      "": 7686,
      "": 7687,
      "": 7688,
      "": 7689,
      "": 7690,
      "": 7691,
      "": 7692,
      "": 7693,
      "": 7694,
      "": 7695,
      "": 7696,
      "": 7697,
      "": 7698,
      "": 7699,
      "": 7700,
      "": 7701,
      "": 7702,
      "": 7703,
      "": 7704,
      "": 7705,
      "": 7706,
      "": 7707,
      "": 7708,
      "": 7709,
      "": 7710,
      "": 7711,
      "": 7712,
      "": 7713,
      "": 7714,
      "": 7715,
      "": 7716,
      "": 7717,
      "": 7718,
      "": 7719,
      "": 7720,
      "": 7721,
      "": 7722,
      "": 7723,
      "": 7724,
      "": 7725,
      "": 7726,
      "": 7727,
      "": 7728,
      "": 7729,
      "": 7730,
      "": 7731,
      "": 7732,
      "": 7733,
      "": 7734,
      "": 7735,
      "": 7736,
      "": 7737,
      "": 7738,
      "": 7739,
      "": 7740,
      "": 7741,
      "": 7742,
      "": 7743,
      "": 7744,
      "": 7745,
      "": 7746,
      "": 7747,
      "": 7748,
      "更": 7749,
      "車": 7750,
      "龜": 7751,
      "龜": 7752,
      "金": 7753,
      "羅": 7754,
      "蘿": 7755,
      "裸": 7756,
      "樂": 7757,
      "落": 7758,
      "亂": 7759,
      "欄": 7760,
      "濫": 7761,
      "藍": 7762,
      "浪": 7763,
      "來": 7764,
      "冷": 7765,
      "勞": 7766,
      "爐": 7767,
      "盧": 7768,
      "老": 7769,
      "路": 7770,
      "露": 7771,
      "魯": 7772,
      "祿": 7773,
      "綠": 7774,
      "錄": 7775,
      "論": 7776,
      "雷": 7777,
      "淚": 7778,
      "累": 7779,
      "陋": 7780,
      "樂": 7781,
      "怒": 7782,
      "率": 7783,
      "北": 7784,
      "便": 7785,
      "復": 7786,
      "不": 7787,
      "參": 7788,
      "塞": 7789,
      "沈": 7790,
      "略": 7791,
      "兩": 7792,
      "梁": 7793,
      "良": 7794,
      "量": 7795,
      "呂": 7796,
      "女": 7797,
      "旅": 7798,
      "麗": 7799,
      "力": 7800,
      "歷": 7801,
      "年": 7802,
      "煉": 7803,
      "聯": 7804,
      "連": 7805,
      "列": 7806,
      "烈": 7807,
      "裂": 7808,
      "廉": 7809,
      "念": 7810,
      "殮": 7811,
      "令": 7812,
      "怜": 7813,
      "靈": 7814,
      "領": 7815,
      "例": 7816,
      "禮": 7817,
      "惡": 7818,
      "尿": 7819,
      "療": 7820,
      "遼": 7821,
      "龍": 7822,
      "柳": 7823,
      "流": 7824,
      "琉": 7825,
      "六": 7826,
      "陸": 7827,
      "律": 7828,
      "栗": 7829,
      "利": 7830,
      "吏": 7831,
      "履": 7832,
      "易": 7833,
      "李": 7834,
      "理": 7835,
      "離": 7836,
      "匿": 7837,
      "隣": 7838,
      "林": 7839,
      "臨": 7840,
      "立": 7841,
      "狀": 7842,
      "茶": 7843,
      "切": 7844,
      "宅": 7845,
      "暴": 7846,
      "行": 7847,
      "社": 7848,
      "︎": 7849,
      "️": 7850,
      "︙": 7851,
      "﹡": 7852,
      "ﻬ": 7853,
      "﻿": 7854,
      "！": 7855,
      "＂": 7856,
      "＃": 7857,
      "％": 7858,
      "＆": 7859,
      "＇": 7860,
      "（": 7861,
      "）": 7862,
      "＊": 7863,
      "＋": 7864,
      "，": 7865,
      "－": 7866,
      "．": 7867,
      "／": 7868,
      "０": 7869,
      "１": 7870,
      "２": 7871,
      "３": 7872,
      "４": 7873,
      "５": 7874,
      "６": 7875,
      "７": 7876,
      "８": 7877,
      "９": 7878,
      "：": 7879,
      "；": 7880,
      "＜": 7881,
      "＝": 7882,
      "＞": 7883,
      "？": 7884,
      "＠": 7885,
      "Ａ": 7886,
      "Ｂ": 7887,
      "Ｃ": 7888,
      "Ｄ": 7889,
      "Ｅ": 7890,
      "Ｉ": 7891,
      "Ｌ": 7892,
      "Ｍ": 7893,
      "Ｎ": 7894,
      "Ｏ": 7895,
      "Ｐ": 7896,
      "Ｒ": 7897,
      "Ｓ": 7898,
      "Ｔ": 7899,
      "Ｖ": 7900,
      "Ｘ": 7901,
      "［": 7902,
      "＼": 7903,
      "］": 7904,
      "＾": 7905,
      "ａ": 7906,
      "ｃ": 7907,
      "ｋ": 7908,
      "ｍ": 7909,
      "ｏ": 7910,
      "ｐ": 7911,
      "ｒ": 7912,
      "ｔ": 7913,
      "ｘ": 7914,
      "｛": 7915,
      "｝": 7916,
      "～": 7917,
      "｡": 7918,
      "｢": 7919,
      "｣": 7920,
      "､": 7921,
      "･": 7922,
      "ﾉ": 7923,
      "￥": 7924,
      "￦": 7925,
      "￫": 7926,
      "￭": 7927,
      "￮": 7928,
      "￼": 7929,
      "�": 7930,
      "𐄁": 7931,
      "𐄢": 7932,
      "𓅿": 7933,
      "𔃱": 7934,
      "𖤐": 7935,
      "🆗": 7936,
      "🇨": 7937,
      "🇰": 7938,
      "🇱": 7939,
      "🇵": 7940,
      "🇷": 7941,
      "🌃": 7942,
      "🌄": 7943,
      "🌋": 7944,
      "🌌": 7945,
      "🌎": 7946,
      "🌏": 7947,
      "🌜": 7948,
      "🌞": 7949,
      "🌟": 7950,
      "🌨": 7951,
      "🌫": 7952,
      "🌱": 7953,
      "🌲": 7954,
      "🌳": 7955,
      "🌶": 7956,
      "🌷": 7957,
      "🌸": 7958,
      "🌹": 7959,
      "🌻": 7960,
      "🍀": 7961,
      "🍁": 7962,
      "🍊": 7963,
      "🍌": 7964,
      "🍍": 7965,
      "🍒": 7966,
      "🍕": 7967,
      "🍠": 7968,
      "🎅": 7969,
      "🎈": 7970,
      "🎉": 7971,
      "🎊": 7972,
      "🎎": 7973,
      "🎑": 7974,
      "🎗": 7975,
      "🎵": 7976,
      "🎶": 7977,
      "🎾": 7978,
      "🏁": 7979,
      "🏓": 7980,
      "🏗": 7981,
      "🏥": 7982,
      "🏨": 7983,
      "🏻": 7984,
      "🏼": 7985,
      "🏽": 7986,
      "🏿": 7987,
      "🐅": 7988,
      "🐈": 7989,
      "🐍": 7990,
      "🐒": 7991,
      "🐔": 7992,
      "🐕": 7993,
      "🐖": 7994,
      "🐙": 7995,
      "🐜": 7996,
      "🐭": 7997,
      "🐱": 7998,
      "🐲": 7999,
      "🐳": 8000,
      "🐴": 8001,
      "🐶": 8002,
      "🐷": 8003,
      "🐽": 8004,
      "👀": 8005,
      "👁": 8006,
      "👂": 8007,
      "👆": 8008,
      "👇": 8009,
      "👈": 8010,
      "👉": 8011,
      "👊": 8012,
      "👋": 8013,
      "👌": 8014,
      "👍": 8015,
      "👎": 8016,
      "👏": 8017,
      "👣": 8018,
      "👥": 8019,
      "👦": 8020,
      "👧": 8021,
      "👨": 8022,
      "👩": 8023,
      "👴": 8024,
      "👵": 8025,
      "👹": 8026,
      "👺": 8027,
      "👿": 8028,
      "💃": 8029,
      "💋": 8030,
      "💑": 8031,
      "💓": 8032,
      "💔": 8033,
      "💕": 8034,
      "💖": 8035,
      "💗": 8036,
      "💘": 8037,
      "💙": 8038,
      "💚": 8039,
      "💛": 8040,
      "💜": 8041,
      "💝": 8042,
      "💞": 8043,
      "💡": 8044,
      "💢": 8045,
      "💥": 8046,
      "💨": 8047,
      "💩": 8048,
      "💪": 8049,
      "💯": 8050,
      "💰": 8051,
      "💵": 8052,
      "💻": 8053,
      "📊": 8054,
      "📌": 8055,
      "📛": 8056,
      "📢": 8057,
      "📣": 8058,
      "🔁": 8059,
      "🔇": 8060,
      "🔉": 8061,
      "🔊": 8062,
      "🔔": 8063,
      "🔥": 8064,
      "🔨": 8065,
      "🔮": 8066,
      "🔴": 8067,
      "🔵": 8068,
      "🔷": 8069,
      "🔹": 8070,
      "🔺": 8071,
      "🔼": 8072,
      "🕐": 8073,
      "🕑": 8074,
      "🕒": 8075,
      "🕔": 8076,
      "🕚": 8077,
      "🕛": 8078,
      "🕦": 8079,
      "🕧": 8080,
      "🕪": 8081,
      "🕭": 8082,
      "🕯": 8083,
      "🕸": 8084,
      "🕹": 8085,
      "🕺": 8086,
      "🖕": 8087,
      "🖥": 8088,
      "🗡": 8089,
      "🗣": 8090,
      "🗺": 8091,
      "😀": 8092,
      "😁": 8093,
      "😂": 8094,
      "😃": 8095,
      "😄": 8096,
      "😅": 8097,
      "😆": 8098,
      "😇": 8099,
      "😈": 8100,
      "😉": 8101,
      "😊": 8102,
      "😋": 8103,
      "😌": 8104,
      "😍": 8105,
      "😎": 8106,
      "😏": 8107,
      "😐": 8108,
      "😑": 8109,
      "😓": 8110,
      "😕": 8111,
      "😖": 8112,
      "😗": 8113,
      "😘": 8114,
      "😙": 8115,
      "😜": 8116,
      "😞": 8117,
      "😠": 8118,
      "😡": 8119,
      "😢": 8120,
      "😣": 8121,
      "😤": 8122,
      "😥": 8123,
      "😧": 8124,
      "😨": 8125,
      "😩": 8126,
      "😫": 8127,
      "😬": 8128,
      "😭": 8129,
      "😮": 8130,
      "😯": 8131,
      "😰": 8132,
      "😱": 8133,
      "😲": 8134,
      "😳": 8135,
      "😵": 8136,
      "😷": 8137,
      "😾": 8138,
      "🙂": 8139,
      "🙄": 8140,
      "🙇": 8141,
      "🙋": 8142,
      "🙌": 8143,
      "🙏": 8144,
      "🚉": 8145,
      "🚋": 8146,
      "🚎": 8147,
      "🚒": 8148,
      "🚧": 8149,
      "🚨": 8150,
      "🚩": 8151,
      "🚫": 8152,
      "🛇": 8153,
      "🛑": 8154,
      "🛤": 8155,
      "🛩": 8156,
      "🤕": 8157,
      "🤗": 8158,
      "🤝": 8159,
      "🤣": 8160,
      "🤦": 8161,
      "🤧": 8162,
      "🤩": 8163,
      "🤬": 8164,
      "🤮": 8165,
      "🤰": 8166,
      "🤱": 8167,
      "🤸": 8168,
      "🤹": 8169,
      "🥅": 8170,
      "🥇": 8171,
      "🥈": 8172,
      "🥝": 8173,
      "🦀": 8174,
      "🧓": 8175,
      "🧚": 8176,
      "🧥": 8177,
      "𡤓": 8178,
      "𣌒": 8179,
      "𧬰": 8180,
      "󰁋": 8181,
      "󰁾": 8182,
      "󰄫": 8183,
      "󰊈": 8184,
      "󰊱": 8185,
      "󰊲": 8186,
      "󰊳": 8187,
      "󰊴": 8188,
      "󰊵": 8189,
      "󰋎": 8190,
      "󰋏": 8191,
      "󰋪": 8192,
      "󰋯": 8193,
      "󰏚": 8194,
      "󰠛": 8195,
      "󰠲": 8196,
      "󰡐": 8197,
      "󰡑": 8198,
      "󰡒": 8199,
      "󰡓": 8200,
      "󰡔": 8201,
      "󰡕": 8202,
      "􍾶": 8203,
      "니다": 8204,
      "습니다": 8205,
      "으로": 8206,
      "..": 8207,
      "하는": 8208,
      "하고": 8209,
      "에서": 8210,
      "합니다": 8211,
      "입니다": 8212,
      "as": 8213,
      "df": 8214,
      "asdf": 8215,
      "asdfasdf": 8216,
      "국민": 8217,
      "들이": 8218,
      "있는": 8219,
      "다고": 8220,
      "사람": 8221,
      "하지": 8222,
      "하여": 8223,
      "대한": 8224,
      "있습니다": 8225,
      "생각": 8226,
      "에게": 8227,
      "이라": 8228,
      "다는": 8229,
      "해서": 8230,
      "니까": 8231,
      "--": 8232,
      "나라": 8233,
      "들은": 8234,
      "하게": 8235,
      "세요": 8236,
      "20": 8237,
      "우리": 8238,
      "것이": 8239,
      "asdfasdfasdfasdf": 8240,
      "정부": 8241,
      "까지": 8242,
      "들의": 8243,
      "하면": 8244,
      "해야": 8245,
      "아니": 8246,
      "지만": 8247,
      "...": 8248,
      "들어": 8249,
      "는데": 8250,
      "리고": 8251,
      "00": 8252,
      "적으로": 8253,
      "대통": 8254,
      "해주": 8255,
      "대통령": 8256,
      "문제": 8257,
      "!!": 8258,
      "지금": 8259,
      "라고": 8260,
      "으면": 8261,
      "적인": 8262,
      "들을": 8263,
      "국가": 8264,
      "되어": 8265,
      "민국": 8266,
      "대한민국": 8267,
      "없는": 8268,
      "되는": 8269,
      "이런": 8270,
      "아이": 8271,
      "시간": 8272,
      "한다": 8273,
      "청원": 8274,
      "대로": 8275,
      "피해": 8276,
      "너무": 8277,
      "부터": 8278,
      "같은": 8279,
      "었습니다": 8280,
      "많은": 8281,
      "저는": 8282,
      "이상": 8283,
      "도록": 8284,
      "때문": 8285,
      "----": 8286,
      "경찰": 8287,
      "201": 8288,
      "그런": 8289,
      "라는": 8290,
      "학교": 8291,
      "공무": 8292,
      "그리고": 8293,
      "이나": 8294,
      "하였": 8295,
      "사회": 8296,
      "것은": 8297,
      "위해": 8298,
      "것입니다": 8299,
      "공무원": 8300,
      "하기": 8301,
      "범죄": 8302,
      "한국": 8303,
      "10": 8304,
      "교육": 8305,
      "다면": 8306,
      "기업": 8307,
      "렇게": 8308,
      "에는": 8309,
      "정책": 8310,
      "사건": 8311,
      "들에게": 8312,
      "에도": 8313,
      "생각합니다": 8314,
      "학생": 8315,
      "제가": 8316,
      "주세요": 8317,
      "필요": 8318,
      "하지만": 8319,
      "가지": 8320,
      "그러": 8321,
      "만원": 8322,
      "아닌": 8323,
      "없이": 8324,
      "됩니다": 8325,
      "것을": 8326,
      "여성": 8327,
      "....": 8328,
      "현재": 8329,
      "립니다": 8330,
      "경우": 8331,
      "이고": 8332,
      "자가": 8333,
      "모든": 8334,
      "보다": 8335,
      "기를": 8336,
      "다른": 8337,
      "사를": 8338,
      "없습니다": 8339,
      "하나": 8340,
      "이유": 8341,
      "하며": 8342,
      "정말": 8343,
      "면서": 8344,
      "??": 8345,
      "되고": 8346,
      "세금": 8347,
      "또한": 8348,
      "지원": 8349,
      "의원": 8350,
      "때문에": 8351,
      "처벌": 8352,
      "asdfasdfasdfasdfasdfasdfasdfasdf": 8353,
      "하시": 8354,
      "국회": 8355,
      "다시": 8356,
      "이다": 8357,
      "할수": 8358,
      "우리나라": 8359,
      "상황": 8360,
      "정도": 8361,
      "주시": 8362,
      "겠습니다": 8363,
      "대통령님": 8364,
      "했습니다": 8365,
      "있어": 8366,
      "많이": 8367,
      "재인": 8368,
      "제도": 8369,
      "가는": 8370,
      "이라고": 8371,
      "보고": 8372,
      "라도": 8373,
      "사실": 8374,
      "않는": 8375,
      "지는": 8376,
      "있다": 8377,
      "처럼": 8378,
      "문재인": 8379,
      "네요": 8380,
      "저희": 8381,
      "사용": 8382,
      "않고": 8383,
      "랍니다": 8384,
      "자리": 8385,
      "**": 8386,
      "경제": 8387,
      "아무": 8388,
      "만들어": 8389,
      "이라는": 8390,
      "한다고": 8391,
      "행정": 8392,
      "부분": 8393,
      "십시": 8394,
      "드립니다": 8395,
      "에서는": 8396,
      "북한": 8397,
      "연금": 8398,
      "받아": 8399,
      "관련": 8400,
      "까요": 8401,
      "그래": 8402,
      "바랍니다": 8403,
      "가요": 8404,
      "일반": 8405,
      "내용": 8406,
      "아니라": 8407,
      "위한": 8408,
      "인데": 8409,
      "으며": 8410,
      "사는": 8411,
      "모르": 8412,
      "하는데": 8413,
      "개인": 8414,
      "것도": 8415,
      "거나": 8416,
      "모두": 8417,
      "들도": 8418,
      "기에": 8419,
      "되었": 8420,
      "리는": 8421,
      "해주세요": 8422,
      "사업": 8423,
      "가능": 8424,
      "부탁": 8425,
      "지도": 8426,
      "자는": 8427,
      "습니까": 8428,
      "이렇게": 8429,
      "사고": 8430,
      "기관": 8431,
      "해도": 8432,
      "지역": 8433,
      "정치": 8434,
      "관리": 8435,
      "자신": 8436,
      "생활": 8437,
      "가족": 8438,
      "있을": 8439,
      "불법": 8440,
      "보험": 8441,
      "되지": 8442,
      "하면서": 8443,
      "서울": 8444,
      "주택": 8445,
      "시키": 8446,
      "회사": 8447,
      "여러": 8448,
      "받고": 8449,
      "조사": 8450,
      "해결": 8451,
      "일을": 8452,
      "국민의": 8453,
      "부모": 8454,
      "==": 8455,
      "없어": 8456,
      "있고": 8457,
      "아닙": 8458,
      "보호": 8459,
      "어떻": 8460,
      "책임": 8461,
      "일이": 8462,
      "폐지": 8463,
      "제발": 8464,
      "병원": 8465,
      "하다": 8466,
      "알고": 8467,
      "--------": 8468,
      "자기": 8469,
      "따라": 8470,
      "이제": 8471,
      "인지": 8472,
      "잘못": 8473,
      "인이": 8474,
      "그런데": 8475,
      "근무": 8476,
      "같이": 8477,
      "법을": 8478,
      "현실": 8479,
      "근로": 8480,
      "어떻게": 8481,
      "자를": 8482,
      "아파": 8483,
      "30": 8484,
      "대해": 8485,
      "하루": 8486,
      "소년": 8487,
      "동안": 8488,
      "살아": 8489,
      "안전": 8490,
      "12": 8491,
      "임금": 8492,
      "주의": 8493,
      "사람이": 8494,
      "려고": 8495,
      "이러": 8496,
      "리를": 8497,
      "이는": 8498,
      "계속": 8499,
      "이용": 8500,
      "수가": 8501,
      "얼마": 8502,
      "지요": 8503,
      "발생": 8504,
      "직원": 8505,
      "보면": 8506,
      "자의": 8507,
      "서민": 8508,
      "시켜": 8509,
      "바로": 8510,
      "마음": 8511,
      "민원": 8512,
      "노동": 8513,
      "지고": 8514,
      "인권": 8515,
      "감사": 8516,
      "있도록": 8517,
      "이번": 8518,
      "있는데": 8519,
      "아파트": 8520,
      "의무": 8521,
      "행위": 8522,
      "부동": 8523,
      "봅니다": 8524,
      "국회의원": 8525,
      "민주": 8526,
      "하세요": 8527,
      "겁니다": 8528,
      "않습니다": 8529,
      "장을": 8530,
      "좋은": 8531,
      "중국": 8532,
      "소득": 8533,
      "만들": 8534,
      "!!!!": 8535,
      "같습니다": 8536,
      "부동산": 8537,
      "어나": 8538,
      "운전": 8539,
      "한번": 8540,
      "나요": 8541,
      "주는": 8542,
      "지를": 8543,
      "았습니다": 8544,
      "~~": 8545,
      "받는": 8546,
      "수도": 8547,
      "입니까": 8548,
      "사가": 8549,
      "정을": 8550,
      "되었습니다": 8551,
      "한다는": 8552,
      "어린": 8553,
      "제대로": 8554,
      "장애": 8555,
      "기가": 8556,
      "기간": 8557,
      "청와": 8558,
      "운영": 8559,
      "기도": 8560,
      "자유": 8561,
      "없고": 8562,
      "거래": 8563,
      "청와대": 8564,
      "했다": 8565,
      "계약": 8566,
      "일본": 8567,
      "관계": 8568,
      "인해": 8569,
      "있었": 8570,
      "정신": 8571,
      "환경": 8572,
      "들과": 8573,
      "사이": 8574,
      "미국": 8575,
      "사람들이": 8576,
      "글을": 8577,
      "밖에": 8578,
      "당장": 8579,
      "위해서": 8580,
      "나오": 8581,
      "하였습니다": 8582,
      "부탁드립니다": 8583,
      "말이": 8584,
      "이해": 8585,
      "그래서": 8586,
      "기준": 8587,
      "일자리": 8588,
      "수사": 8589,
      "으나": 8590,
      "대표": 8591,
      "신고": 8592,
      "아닙니다": 8593,
      "가장": 8594,
      "십시오": 8595,
      "누구": 8596,
      "있다고": 8597,
      "11": 8598,
      "전에": 8599,
      "것이다": 8600,
      "어떤": 8601,
      "이를": 8602,
      "100": 8603,
      "결과": 8604,
      "복지": 8605,
      "외국": 8606,
      "물론": 8607,
      "장이": 8608,
      "가고": 8609,
      "것으로": 8610,
      "해당": 8611,
      "정권": 8612,
      "문제가": 8613,
      "지급": 8614,
      "다니": 8615,
      "업무": 8616,
      "도로": 8617,
      "안녕": 8618,
      "최저": 8619,
      "그렇": 8620,
      "청소년": 8621,
      "이라도": 8622,
      "시고": 8623,
      "세계": 8624,
      "50": 8625,
      "다가": 8626,
      "그냥": 8627,
      "위원": 8628,
      "처리": 8629,
      "이러한": 8630,
      "지지": 8631,
      "이미": 8632,
      "않을": 8633,
      "되면": 8634,
      "전화": 8635,
      "아서": 8636,
      "재판": 8637,
      "주고": 8638,
      "지방": 8639,
      "개선": 8640,
      "않은": 8641,
      "법이": 8642,
      "그렇게": 8643,
      "력을": 8644,
      "아직": 8645,
      "언론": 8646,
      "뉴스": 8647,
      "하겠": 8648,
      "폭행": 8649,
      "대출": 8650,
      "있게": 8651,
      "으니": 8652,
      "어려": 8653,
      "어야": 8654,
      "국민이": 8655,
      "시행": 8656,
      "남성": 8657,
      "반대": 8658,
      "그러나": 8659,
      "기는": 8660,
      "받을": 8661,
      "조금": 8662,
      "건강": 8663,
      "이게": 8664,
      "19": 8665,
      "없다": 8666,
      "2018": 8667,
      "상을": 8668,
      "미래": 8669,
      "상태": 8670,
      "자들이": 8671,
      "개월": 8672,
      "정보": 8673,
      "어서": 8674,
      "본인": 8675,
      "차량": 8676,
      "또는": 8677,
      "대체": 8678,
      "가해": 8679,
      "진행": 8680,
      "가지고": 8681,
      "시장": 8682,
      "보니": 8683,
      "시작": 8684,
      "인간": 8685,
      "통해": 8686,
      "돈을": 8687,
      "요즘": 8688,
      "요구": 8689,
      "돌아": 8690,
      "미세": 8691,
      "업체": 8692,
      "는지": 8693,
      "투자": 8694,
      "이야": 8695,
      "방송": 8696,
      "당한": 8697,
      "시험": 8698,
      "자체": 8699,
      "답변": 8700,
      "하다고": 8701,
      "만큼": 8702,
      "확인": 8703,
      "시민": 8704,
      "중요": 8705,
      "조건": 8706,
      "적용": 8707,
      "문화": 8708,
      "있다는": 8709,
      "못하고": 8710,
      "에서도": 8711,
      "이며": 8712,
      "헌법": 8713,
      "께서": 8714,
      "신청": 8715,
      "등을": 8716,
      "어느": 8717,
      "적폐": 8718,
      "대학": 8719,
      "대책": 8720,
      "이에": 8721,
      "강력": 8722,
      "일부": 8723,
      "무슨": 8724,
      "200": 8725,
      "자들": 8726,
      "지가": 8727,
      "법원": 8728,
      "ht": 8729,
      "국민들이": 8730,
      "미세먼": 8731,
      "인정": 8732,
      "기사": 8733,
      "놓고": 8734,
      "청년": 8735,
      "보내": 8736,
      "억울": 8737,
      "요청": 8738,
      "말고": 8739,
      "1년": 8740,
      "000": 8741,
      "교사": 8742,
      "된다": 8743,
      "지난": 8744,
      "도와": 8745,
      "정의": 8746,
      "이루": 8747,
      "당연": 8748,
      "않았": 8749,
      "전문": 8750,
      "주민": 8751,
      "리가": 8752,
      "이지": 8753,
      "국민을": 8754,
      "대해서": 8755,
      "력이": 8756,
      "정이": 8757,
      "대부분": 8758,
      "힘들": 8759,
      "금을": 8760,
      "발전": 8761,
      "한테": 8762,
      "고통": 8763,
      "시설": 8764,
      "혜택": 8765,
      "가서": 8766,
      "하니": 8767,
      "검찰": 8768,
      "정부가": 8769,
      "교통": 8770,
      "성을": 8771,
      "직접": 8772,
      "단체": 8773,
      "다음": 8774,
      "비용": 8775,
      "의료": 8776,
      "담당": 8777,
      "재산": 8778,
      "동의": 8779,
      "좋겠습니다": 8780,
      "중에": 8781,
      "영업": 8782,
      "국민연금": 8783,
      "조치": 8784,
      "기본": 8785,
      "피해자": 8786,
      "살고": 8787,
      "무엇": 8788,
      "어디": 8789,
      "이후": 8790,
      "선수": 8791,
      "된다고": 8792,
      "마다": 8793,
      "15": 8794,
      "되어야": 8795,
      "군요": 8796,
      "치료": 8797,
      "구요": 8798,
      "정한": 8799,
      "아야": 8800,
      "40": 8801,
      ",,": 8802,
      "가격": 8803,
      "18": 8804,
      "대상": 8805,
      "개발": 8806,
      "자로": 8807,
      "했던": 8808,
      "당시": 8809,
      "한다면": 8810,
      "전혀": 8811,
      "십시요": 8812,
      "선거": 8813,
      "나는": 8814,
      "많습니다": 8815,
      "먹고": 8816,
      "금지": 8817,
      "//": 8818,
      "어린이": 8819,
      "제로": 8820,
      "차별": 8821,
      "말을": 8822,
      "안녕하세요": 8823,
      "정부는": 8824,
      "성이": 8825,
      "함께": 8826,
      "화폐": 8827,
      "결국": 8828,
      "2년": 8829,
      "임대": 8830,
      "얼마나": 8831,
      "출산": 8832,
      "지나": 8833,
      "tp": 8834,
      "공개": 8835,
      "건설": 8836,
      "이익": 8837,
      "더욱": 8838,
      "판결": 8839,
      "시대": 8840,
      "부담": 8841,
      "ww": 8842,
      "드시": 8843,
      "수준": 8844,
      "장관": 8845,
      "http": 8846,
      "조직": 8847,
      "제를": 8848,
      "하려": 8849,
      "자격": 8850,
      "고용": 8851,
      "도움": 8852,
      "대한민국의": 8853,
      "폭력": 8854,
      "먼저": 8855,
      "아주": 8856,
      "기술": 8857,
      "판단": 8858,
      "정상": 8859,
      "====": 8860,
      "이유로": 8861,
      "말씀": 8862,
      "월급": 8863,
      "어도": 8864,
      "asdfasdfasdfasdfasdfasdfasdfasdfasdfasdf": 8865,
      "asdfasdfasdfasdfasdfasdfasdfasdfasdfasdfasdfasdfasdfasdfasdfasdfasdfasdf": 8866,
      "은행": 8867,
      "조차": 8868,
      "더라도": 8869,
      "보는": 8870,
      "세상": 8871,
      "피해를": 8872,
      "부패": 8873,
      "특히": 8874,
      "활동": 8875,
      "분들": 8876,
      "사람들": 8877,
      "://": 8878,
      "현장": 8879,
      "식으로": 8880,
      "오늘": 8881,
      "정규": 8882,
      "아니고": 8883,
      "난민": 8884,
      "적이": 8885,
      "이가": 8886,
      "받지": 8887,
      "원을": 8888,
      "심히": 8889,
      "청원합니다": 8890,
      "행동": 8891,
      "나서": 8892,
      "싶습니다": 8893,
      "동물": 8894,
      "부족": 8895,
      "히려": 8896,
      "산업": 8897,
      "지켜": 8898,
      "최저임금": 8899,
      "인터": 8900,
      "인을": 8901,
      "도시": 8902,
      "스트": 8903,
      "거짓": 8904,
      "제한": 8905,
      "오히려": 8906,
      "5년": 8907,
      "심각": 8908,
      "금액": 8909,
      "받은": 8910,
      "해주시": 8911,
      "설치": 8912,
      "명이": 8913,
      "명을": 8914,
      "방법": 8915,
      "존재": 8916,
      "최근": 8917,
      "안되는": 8918,
      "일반행정": 8919,
      "하라": 8920,
      "공공": 8921,
      "취업": 8922,
      "필요한": 8923,
      "보여": 8924,
      "금융": 8925,
      "포함": 8926,
      "2017": 8927,
      "올라": 8928,
      "소리": 8929,
      "자들은": 8930,
      "반드시": 8931,
      "의견": 8932,
      "언제": 8933,
      "운동": 8934,
      "화를": 8935,
      "마련": 8936,
      "사기": 8937,
      "인한": 8938,
      "앞으로": 8939,
      "결정": 8940,
      "합니까": 8941,
      "----------------": 8942,
      "이루어": 8943,
      "없다고": 8944,
      "그럼": 8945,
      "처음": 8946,
      "비를": 8947,
      "듭니다": 8948,
      "므로": 8949,
      "기회": 8950,
      "정부의": 8951,
      "자동": 8952,
      "주장": 8953,
      "등의": 8954,
      "인가": 8955,
      "급여": 8956,
      "분들이": 8957,
      "했는데": 8958,
      "프로": 8959,
      "와서": 8960,
      "공사": 8961,
      "등학교": 8962,
      "가정": 8963,
      "예산": 8964,
      "하시는": 8965,
      "정규직": 8966,
      "군대": 8967,
      "못하는": 8968,
      "하도록": 8969,
      "서를": 8970,
      "국민들": 8971,
      "겠지만": 8972,
      "국민들의": 8973,
      "계획": 8974,
      "시다": 8975,
      "유치": 8976,
      "아버": 8977,
      "내고": 8978,
      "평가": 8979,
      "화가": 8980,
      "자녀": 8981,
      "머니": 8982,
      "가상": 8983,
      "자에게": 8984,
      "어렵": 8985,
      "더군요": 8986,
      "증거": 8987,
      "선생": 8988,
      "분양": 8989,
      "으로서": 8990,
      "열심히": 8991,
      "누가": 8992,
      "내가": 8993,
      "장애인": 8994,
      "우선": 8995,
      "너무나": 8996,
      "개정": 8997,
      "있지만": 8998,
      "구하고": 8999,
      "떨어": 9000,
      "식을": 9001,
      "하거나": 9002,
      "이건": 9003,
      "생각이": 9004,
      "명의": 9005,
      "십니까": 9006,
      "일반행정공무원": 9007,
      "더니": 9008,
      "나라가": 9009,
      "삼성": 9010,
      "시는": 9011,
      "국내": 9012,
      "미세먼지": 9013,
      "주차": 9014,
      "평등": 9015,
      "3년": 9016,
      "권을": 9017,
      "로운": 9018,
      "당신": 9019,
      "여기": 9020,
      "co": 9021,
      "부를": 9022,
      "진짜": 9023,
      "채용": 9024,
      "엄청": 9025,
      "거의": 9026,
      "서로": 9027,
      "겠습니까": 9028,
      "저의": 9029,
      "인상": 9030,
      "사항": 9031,
      "관심": 9032,
      "최소": 9033,
      "있으며": 9034,
      "수를": 9035,
      "없애": 9036,
      "법률": 9037,
      "찾아": 9038,
      "정책을": 9039,
      "수당": 9040,
      "투기": 9041,
      "드는": 9042,
      "위험": 9043,
      "사법": 9044,
      "개혁": 9045,
      "위원회": 9046,
      "매우": 9047,
      "사람은": 9048,
      "안을": 9049,
      "거리": 9050,
      "인의": 9051,
      "무시": 9052,
      "치는": 9053,
      "검사": 9054,
      "원이": 9055,
      "모습": 9056,
      "소송": 9057,
      "시스": 9058,
      "절대": 9059,
      "어린이집": 9060,
      "직장": 9061,
      "노력": 9062,
      "유지": 9063,
      "강화": 9064,
      "인터넷": 9065,
      "셨으면": 9066,
      "친구": 9067,
      "여자": 9068,
      "하던": 9069,
      "등록": 9070,
      "치고": 9071,
      "보장": 9072,
      "해외": 9073,
      "외국인": 9074,
      "의사": 9075,
      "입장": 9076,
      "주십시오": 9077,
      "살인": 9078,
      "국방": 9079,
      "선택": 9080,
      "사람들은": 9081,
      "못한": 9082,
      "서는": 9083,
      "그만": 9084,
      "시스템": 9085,
      "자신의": 9086,
      "내려": 9087,
      "돈이": 9088,
      "대기업": 9089,
      "센터": 9090,
      "부가": 9091,
      "분명": 9092,
      "않아": 9093,
      "집단": 9094,
      "이란": 9095,
      "주변": 9096,
      "가입": 9097,
      "빨리": 9098,
      "셔서": 9099,
      "선생님": 9100,
      "했고": 9101,
      "나라를": 9102,
      "10년": 9103,
      ".)": 9104,
      "기다": 9105,
      "말도": 9106,
      "불구하고": 9107,
      "스럽": 9108,
      "2018년": 9109,
      "ti": 9110,
      "60": 9111,
      "올림": 9112,
      "시에": 9113,
      "ㅋㅋ": 9114,
      "지어": 9115,
      "희망": 9116,
      "도를": 9117,
      "판매": 9118,
      "분이": 9119,
      "구조": 9120,
      "공원": 9121,
      "엄마": 9122,
      "의해": 9123,
      "가야": 9124,
      "문을": 9125,
      "이기": 9126,
      "게임": 9127,
      "집값": 9128,
      "인가요": 9129,
      "규제": 9130,
      "져야": 9131,
      "지키": 9132,
      "정은": 9133,
      "힘든": 9134,
      "버스": 9135,
      "사이트": 9136,
      "고소": 9137,
      "아니면": 9138,
      "부패한": 9139,
      "결혼": 9140,
      "복무": 9141,
      "과연": 9142,
      "아이를": 9143,
      "감독": 9144,
      "담배": 9145,
      "넘어": 9146,
      "시간을": 9147,
      "시급": 9148,
      "이명": 9149,
      "알려": 9150,
      "지금당장": 9151,
      "세를": 9152,
      "시간이": 9153,
      "역시": 9154,
      "등등": 9155,
      "때문입니다": 9156,
      "음주": 9157,
      "전국": 9158,
      "왔습니다": 9159,
      "하는지": 9160,
      "만이": 9161,
      "25": 9162,
      "특별": 9163,
      "사무": 9164,
      "올려": 9165,
      "무고": 9166,
      "17": 9167,
      "스로": 9168,
      "료를": 9169,
      "하자": 9170,
      "어요": 9171,
      "하는게": 9172,
      "정부에서": 9173,
      "잘못된": 9174,
      "키우": 9175,
      "구속": 9176,
      "주시기": 9177,
      "가상화폐": 9178,
      "추가": 9179,
      "보상": 9180,
      "13": 9181,
      "세대": 9182,
      "이명박": 9183,
      "중소": 9184,
      "id": 9185,
      "공정": 9186,
      "준비": 9187,
      "저도": 9188,
      "비리": 9189,
      "일어나": 9190,
      "연락": 9191,
      "게시": 9192,
      "자동차": 9193,
      "제공": 9194,
      "권력": 9195,
      "대하여": 9196,
      "시키고": 9197,
      "이하": 9198,
      "오는": 9199,
      "기로": 9200,
      "물을": 9201,
      "조선": 9202,
      "없었": 9203,
      "감사합니다": 9204,
      "받았": 9205,
      "조작": 9206,
      "주지": 9207,
      "없다는": 9208,
      "점을": 9209,
      "판사": 9210,
      "받아야": 9211,
      "철저": 9212,
      "남자": 9213,
      "이전": 9214,
      "있어서": 9215,
      "겁니까": 9216,
      "두고": 9217,
      "만을": 9218,
      "ew": 9219,
      "근혜": 9220,
      "들에": 9221,
      "과정": 9222,
      "문제를": 9223,
      "의를": 9224,
      "이름": 9225,
      "르고": 9226,
      "!!!": 9227,
      "없을": 9228,
      "아요": 9229,
      "행복": 9230,
      "관한": 9231,
      "했다고": 9232,
      "24": 9233,
      "인은": 9234,
      "각종": 9235,
      "있었습니다": 9236,
      "가를": 9237,
      "소비": 9238,
      "안됩니다": 9239,
      "갑질": 9240,
      "이면": 9241,
      "하셨": 9242,
      "가진": 9243,
      "하신": 9244,
      "처벌을": 9245,
      "이유는": 9246,
      "건가요": 9247,
      "강제": 9248,
      "청산": 9249,
      "유치원": 9250,
      "비스": 9251,
      "도대체": 9252,
      "사람을": 9253,
      "국민들은": 9254,
      "자들의": 9255,
      "올림픽": 9256,
      "단속": 9257,
      "위반": 9258,
      "우리가": 9259,
      "싶은": 9260,
      "충분": 9261,
      "16": 9262,
      "문제는": 9263,
      "바뀌": 9264,
      "더이상": 9265,
      "택시": 9266,
      "이야기": 9267,
      "연구": 9268,
      "였습니다": 9269,
      "세금을": 9270,
      "차를": 9271,
      "참여": 9272,
      "내는": 9273,
      "주식": 9274,
      "장은": 9275,
      "집니다": 9276,
      "불편": 9277,
      "말로": 9278,
      "번호": 9279,
      "청원을": 9280,
      "아무런": 9281,
      "있으면": 9282,
      "무조건": 9283,
      "바라": 9284,
      "전부": 9285,
      "제안": 9286,
      "있음": 9287,
      "수는": 9288,
      "해야합니다": 9289,
      "소방": 9290,
      "여러분": 9291,
      "부모님": 9292,
      "변경": 9293,
      "남북": 9294,
      "과거": 9295,
      "수의": 9296,
      "따라서": 9297,
      "14": 9298,
      "이어": 9299,
      "으로써": 9300,
      "국제": 9301,
      "공부": 9302,
      "종교": 9303,
      "있어야": 9304,
      "건축": 9305,
      "아무리": 9306,
      "자에": 9307,
      "전쟁": 9308,
      "완전": 9309,
      "위에": 9310,
      "아래": 9311,
      "박근혜": 9312,
      "호사": 9313,
      "만약": 9314,
      "드리": 9315,
      "일은": 9316,
      "발표": 9317,
      "제출": 9318,
      "평화": 9319,
      "er": 9320,
      "행을": 9321,
      "일에": 9322,
      "카드": 9323,
      "정도로": 9324,
      "건지": 9325,
      "할때": 9326,
      "보도": 9327,
      "그대로": 9328,
      "가치": 9329,
      "있지": 9330,
      "서비스": 9331,
      "중요한": 9332,
      "민주주의": 9333,
      "들고": 9334,
      "해라": 9335,
      "효과": 9336,
      "당연히": 9337,
      "안되": 9338,
      "소를": 9339,
      "해보": 9340,
      "우리는": 9341,
      "어려운": 9342,
      "기고": 9343,
      "하라고": 9344,
      "있는지": 9345,
      "의미": 9346,
      "퇴직": 9347,
      "투표": 9348,
      "나가": 9349,
      "건물": 9350,
      "부산": 9351,
      "좋아": 9352,
      "전기": 9353,
      "하였고": 9354,
      "전환": 9355,
      "서류": 9356,
      "규정": 9357,
      "줘야": 9358,
      "생각을": 9359,
      "젊은": 9360,
      "아이들이": 9361,
      "저지": 9362,
      "조합": 9363,
      "수술": 9364,
      "않으면": 9365,
      "매매": 9366,
      "주도": 9367,
      "추진": 9368,
      "4년": 9369,
      "대를": 9370,
      "사실을": 9371,
      "나이": 9372,
      "아직도": 9373,
      "경찰서": 9374,
      "라면": 9375,
      "만든": 9376,
      "기존": 9377,
      "아닙니까": 9378,
      "경쟁": 9379,
      "듯이": 9380,
      "6년": 9381,
      "공급": 9382,
      "범죄를": 9383,
      "못하게": 9384,
      "스스로": 9385,
      "부는": 9386,
      "불안": 9387,
      "이제는": 9388,
      "자영업": 9389,
      "검토": 9390,
      "뿐만": 9391,
      "식이": 9392,
      "항상": 9393,
      "이라면": 9394,
      "하여야": 9395,
      "자금": 9396,
      "부디": 9397,
      "쓰레": 9398,
      "중소기업": 9399,
      "자살": 9400,
      "민주당": 9401,
      "올리": 9402,
      "주시길": 9403,
      "70": 9404,
      "침해": 9405,
      "정당": 9406,
      "적극": 9407,
      "국토": 9408,
      "기초": 9409,
      "진정": 9410,
      "거부": 9411,
      "제도를": 9412,
      "80": 9413,
      "직업": 9414,
      "곳에": 9415,
      "청구": 9416,
      "가져": 9417,
      "고발": 9418,
      "모르는": 9419,
      "시키는": 9420,
      "사회적": 9421,
      "국가가": 9422,
      "사라": 9423,
      "주십시요": 9424,
      "함을": 9425,
      "작은": 9426,
      "집을": 9427,
      "훈련": 9428,
      "위협": 9429,
      "것에": 9430,
      "따른": 9431,
      "제외": 9432,
      "사랑": 9433,
      "생을": 9434,
      "쉽게": 9435,
      "작성": 9436,
      "매일": 9437,
      "된다는": 9438,
      "을때": 9439,
      "아닌가요": 9440,
      "책임을": 9441,
      "보유": 9442,
      "이자": 9443,
      "경우가": 9444,
      "!!!!!!!!": 9445,
      "이었": 9446,
      "전체": 9447,
      "제2": 9448,
      "기록": 9449,
      "않게": 9450,
      "지금까지": 9451,
      "지속": 9452,
      "영향": 9453,
      "갑니다": 9454,
      "소유": 9455,
      "걱정": 9456,
      "정확": 9457,
      "수많은": 9458,
      "도가": 9459,
      "원칙": 9460,
      "역사": 9461,
      "포기": 9462,
      "아동": 9463,
      "상대": 9464,
      "교육을": 9465,
      "바꾸": 9466,
      "벌금": 9467,
      "심지어": 9468,
      "신문": 9469,
      "일어": 9470,
      "만으로": 9471,
      "나고": 9472,
      "나라의": 9473,
      "하십니까": 9474,
      "하겠습니다": 9475,
      "답답": 9476,
      "흡연": 9477,
      "대통령이": 9478,
      "성과": 9479,
      "소음": 9480,
      "사진": 9481,
      "공단": 9482,
      "군인": 9483,
      "바이": 9484,
      "강남": 9485,
      "설명": 9486,
      "의한": 9487,
      "것이고": 9488,
      "이해가": 9489,
      "힘들어": 9490,
      "단순": 9491,
      "자료": 9492,
      "병역": 9493,
      "인사": 9494,
      "달라": 9495,
      "필요합니다": 9496,
      "달라고": 9497,
      "나라에서": 9498,
      "줄어": 9499,
      "한달": 9500,
      "가능한": 9501,
      "원의": 9502,
      "실시": 9503,
      "쓰고": 9504,
      "성장": 9505,
      "높은": 9506,
      "위하여": 9507,
      "르게": 9508,
      "장님": 9509,
      "2017년": 9510,
      "혜택을": 9511,
      "생산": 9512,
      "re": 9513,
      "거주": 9514,
      "이지만": 9515,
      "했지만": 9516,
      "자와": 9517,
      "르는": 9518,
      "확실": 9519,
      "시청": 9520,
      "안정": 9521,
      "노인": 9522,
      "안에": 9523,
      "com": 9524,
      "내용을": 9525,
      "사건을": 9526,
      "러운": 9527,
      "알아": 9528,
      "무기": 9529,
      "on": 9530,
      "국민은": 9531,
      "구청": 9532,
      "근데": 9533,
      "동일": 9534,
      "맞는": 9535,
      "댓글": 9536,
      "국가의": 9537,
      "신경": 9538,
      "아닐": 9539,
      "돌려": 9540,
      "자연": 9541,
      "항공": 9542,
      "납니다": 9543,
      "하려고": 9544,
      "법은": 9545,
      "겠다": 9546,
      "학년": 9547,
      "사례": 9548,
      "국정": 9549,
      "계를": 9550,
      "사과": 9551,
      "심을": 9552,
      "없어서": 9553,
      "지금은": 9554,
      "번째": 9555,
      "분들은": 9556,
      "),": 9557,
      "된다면": 9558,
      "국민들을": 9559,
      "부의": 9560,
      "하시고": 9561,
      "올립니다": 9562,
      "민족": 9563,
      "겠다고": 9564,
      "생각됩니다": 9565,
      "세력": 9566,
      "집에": 9567,
      "최고": 9568,
      "???": 9569,
      "제1": 9570,
      "in": 9571,
      "하다는": 9572,
      "세금으로": 9573,
      "진실": 9574,
      "혹은": 9575,
      "고려": 9576,
      "느끼": 9577,
      "않도록": 9578,
      "사망": 9579,
      "려면": 9580,
      "지로": 9581,
      "나온": 9582,
      "상황이": 9583,
      "대한민국은": 9584,
      "가게": 9585,
      "위를": 9586,
      "새로운": 9587,
      "있다면": 9588,
      "합리": 9589,
      "법으로": 9590,
      "보육": 9591,
      "징역": 9592,
      "밝혀": 9593,
      "얘기": 9594,
      "인구": 9595,
      "영상": 9596,
      "자들을": 9597,
      "물어": 9598,
      "했다는": 9599,
      "임을": 9600,
      "읍니다": 9601,
      "이유가": 9602,
      "어머니": 9603,
      "혼자": 9604,
      "그래도": 9605,
      "지정": 9606,
      "냐고": 9607,
      "리지": 9608,
      "부과": 9609,
      "업을": 9610,
      "집행": 9611,
      "손해": 9612,
      "고객": 9613,
      "고등학교": 9614,
      "점이": 9615,
      "가면": 9616,
      "하는거": 9617,
      "곳이": 9618,
      "지하": 9619,
      "부정": 9620,
      "만들고": 9621,
      "권리": 9622,
      "수십": 9623,
      "공매": 9624,
      "촛불": 9625,
      "이로": 9626,
      "아시": 9627,
      "성범죄": 9628,
      "점점": 9629,
      "어떠": 9630,
      "퇴근": 9631,
      "행사": 9632,
      "예를": 9633,
      "니까요": 9634,
      "벌어": 9635,
      "제기": 9636,
      "등으로": 9637,
      "수수": 9638,
      "그때": 9639,
      "려는": 9640,
      "먹는": 9641,
      "........": 9642,
      "낭비": 9643,
      "아침": 9644,
      "봐야": 9645,
      "최소한": 9646,
      "갈수": 9647,
      "일하는": 9648,
      "****": 9649,
      "지금도": 9650,
      "하나요": 9651,
      "사유": 9652,
      "등에": 9653,
      "ews": 9654,
      "========": 9655,
      "조사를": 9656,
      "김정은": 9657,
      "안타": 9658,
      "증가": 9659,
      "독립": 9660,
      "도입": 9661,
      "남편": 9662,
      "제품": 9663,
      "크게": 9664,
      "우리의": 9665,
      "능력": 9666,
      "정치인": 9667,
      "마시고": 9668,
      "대가": 9669,
      "했으면": 9670,
      "보건": 9671,
      "상승": 9672,
      "있으": 9673,
      "가까": 9674,
      "구매": 9675,
      "민간": 9676,
      "뿐입니다": 9677,
      "올해": 9678,
      "그에": 9679,
      "대학교": 9680,
      "들만": 9681,
      "원하는": 9682,
      "상담": 9683,
      "여론": 9684,
      "세월": 9685,
      "바람": 9686,
      "양심": 9687,
      "통일": 9688,
      "적이고": 9689,
      "단지": 9690,
      "바꿔": 9691,
      "https": 9692,
      "한국당": 9693,
      "대구": 9694,
      "형사": 9695,
      "불어": 9696,
      "마지": 9697,
      "어찌": 9698,
      "광고": 9699,
      "실업": 9700,
      "경기": 9701,
      "법에": 9702,
      "보다는": 9703,
      "지금의": 9704,
      "반도": 9705,
      "반복": 9706,
      "통신": 9707,
      "수급": 9708,
      "당하고": 9709,
      "선진": 9710,
      "배우": 9711,
      "도움이": 9712,
      "근거": 9713,
      "수정": 9714,
      "무서": 9715,
      "법의": 9716,
      "저를": 9717,
      "20년": 9718,
      "아이가": 9719,
      "23": 9720,
      "그동안": 9721,
      "등이": 9722,
      "음주운전": 9723,
      "원에서": 9724,
      "하네요": 9725,
      "news": 9726,
      "TV": 9727,
      "강력한": 9728,
      "중인": 9729,
      "피해자가": 9730,
      "국가에서": 9731,
      "방문": 9732,
      "겠다는": 9733,
      "많아": 9734,
      "내용이": 9735,
      "수익": 9736,
      "존경": 9737,
      "참고": 9738,
      "나아": 9739,
      "두순": 9740,
      "생활을": 9741,
      "후에": 9742,
      "주시고": 9743,
      "렸습니다": 9744,
      "우리나라는": 9745,
      "오래": 9746,
      "조두순": 9747,
      "해주는": 9748,
      "수입": 9749,
      "쓰레기": 9750,
      "이것이": 9751,
      "치를": 9752,
      "든지": 9753,
      "전세": 9754,
      "감을": 9755,
      "00만원": 9756,
      "전자": 9757,
      "사태": 9758,
      "안이": 9759,
      "중앙": 9760,
      "겠죠": 9761,
      "ㅡㅡ": 9762,
      "사건이": 9763,
      "기대": 9764,
      "보수": 9765,
      "쓰는": 9766,
      "국민들에게": 9767,
      "아이들": 9768,
      "페미": 9769,
      "죄를": 9770,
      "이것은": 9771,
      "걸로": 9772,
      "에만": 9773,
      "그리": 9774,
      "나와": 9775,
      "www": 9776,
      "안하고": 9777,
      "의무를": 9778,
      "협박": 9779,
      "비가": 9780,
      "것인지": 9781,
      "표현": 9782,
      "규모": 9783,
      "바른": 9784,
      "대신": 9785,
      "엄청난": 9786,
      "의심": 9787,
      "나오는": 9788,
      "마지막": 9789,
      "사의": 9790,
      "허가": 9791,
      "간곡": 9792,
      "행위를": 9793,
      "아버지": 9794,
      "인천": 9795,
      "성폭행": 9796,
      "모두가": 9797,
      "만드는": 9798,
      "사람의": 9799,
      "처분": 9800,
      "자식": 9801,
      "목숨": 9802,
      "스트레": 9803,
      "않았습니다": 9804,
      "이익을": 9805,
      "들었습니다": 9806,
      "고시": 9807,
      "었다": 9808,
      "사형": 9809,
      "통과": 9810,
      "받았습니다": 9811,
      "천만원": 9812,
      "이니": 9813,
      "학생들이": 9814,
      "듣고": 9815,
      "십니다": 9816,
      "인하여": 9817,
      "아는": 9818,
      "조정": 9819,
      "활용": 9820,
      "믿고": 9821,
      "상식": 9822,
      "대중": 9823,
      "경험": 9824,
      "90": 9825,
      "심각한": 9826,
      "그게": 9827,
      "아니라고": 9828,
      "방해": 9829,
      "했을": 9830,
      "노조": 9831,
      "간의": 9832,
      "누군": 9833,
      "분야": 9834,
      "생각해": 9835,
      "허위": 9836,
      "자들에게": 9837,
      "마디": 9838,
      "더불어": 9839,
      "관이": 9840,
      "발언": 9841,
      "읽어": 9842,
      "납부": 9843,
      "을수": 9844,
      "방향": 9845,
      "받게": 9846,
      "기능": 9847,
      "목적": 9848,
      "어떠한": 9849,
      "말입니다": 9850,
      "살기": 9851,
      "잡아": 9852,
      "장의": 9853,
      "1일": 9854,
      "특정": 9855,
      "비정규직": 9856,
      "조성": 9857,
      "전용": 9858,
      "지에": 9859,
      "과의": 9860,
      "an": 9861,
      "회의": 9862,
      "초등학교": 9863,
      "다양": 9864,
      "차례": 9865,
      "증을": 9866,
      "간에": 9867,
      "경찰이": 9868,
      "있으니": 9869,
      "27": 9870,
      "그러면": 9871,
      "창출": 9872,
      "마찬": 9873,
      "자인": 9874,
      "대다": 9875,
      "로서": 9876,
      "남녀": 9877,
      "평생": 9878,
      "정책이": 9879,
      "국민에게": 9880,
      "소에": 9881,
      "부에": 9882,
      "구입": 9883,
      "그들의": 9884,
      "간절": 9885,
      "얼굴": 9886,
      "이상의": 9887,
      "작년": 9888,
      "실제": 9889,
      "릅니다": 9890,
      "신용": 9891,
      "26": 9892,
      "다운": 9893,
      "저에게": 9894,
      "자체가": 9895,
      "려야": 9896,
      "유공": 9897,
      "차가": 9898,
      "개인의": 9899,
      "옵니다": 9900,
      "생명": 9901,
      "출국": 9902,
      "못할": 9903,
      "다니는": 9904,
      "심한": 9905,
      "약을": 9906,
      "합의": 9907,
      "부부": 9908,
      "사고가": 9909,
      "만한": 9910,
      "중한": 9911,
      "속에서": 9912,
      ".....": 9913,
      "위치": 9914,
      "물이": 9915,
      "마트": 9916,
      "그저": 9917,
      "축구": 9918,
      "워서": 9919,
      "상이": 9920,
      "돈으로": 9921,
      "안보": 9922,
      "***": 9923,
      "이사": 9924,
      "궁금": 9925,
      "라리": 9926,
      "장기": 9927,
      "선을": 9928,
      "인력": 9929,
      "봐도": 9930,
      "간곡히": 9931,
      "아빠": 9932,
      "지게": 9933,
      "시절": 9934,
      "사리": 9935,
      "으면서": 9936,
      "민원을": 9937,
      "경기도": 9938,
      "저희는": 9939,
      "희생": 9940,
      "하고자": 9941,
      "생기": 9942,
      "도와주세요": 9943,
      "보기": 9944,
      "지원을": 9945,
      "공동": 9946,
      "공인": 9947,
      "28": 9948,
      "앞에": 9949,
      "들여": 9950,
      "있기": 9951,
      "대응": 9952,
      "셔야": 9953,
      "~~~~": 9954,
      "주기": 9955,
      "있던": 9956,
      "되었고": 9957,
      "알바": 9958,
      "대형": 9959,
      "후보": 9960,
      "제시": 9961,
      "주셨으면": 9962,
      "고민": 9963,
      "상황에서": 9964,
      "마찬가지": 9965,
      "영어": 9966,
      "상당": 9967,
      "대법원": 9968,
      "자본": 9969,
      "법무": 9970,
      "요금": 9971,
      "욕을": 9972,
      "건강보험": 9973,
      "로부터": 9974,
      "힘들게": 9975,
      "지면": 9976,
      "하더라도": 9977,
      "기사를": 9978,
      "소리를": 9979,
      "만에": 9980,
      "아이들을": 9981,
      "차라리": 9982,
      "곳에서": 9983,
      "기억": 9984,
      "불가": 9985,
      "29": 9986,
      "????": 9987,
      "정작": 9988,
      "거라": 9989,
      "우려": 9990,
      "그램": 9991,
      "르면": 9992,
      "분노": 9993,
      "충분히": 9994,
      "우리나라의": 9995,
      "약속": 9996,
      "아니다": 9997,
      "없었습니다": 9998,
      "장에": 9999
    },
    "merges": [
      [
        "니",
        "다"
      ],
      [
        "습",
        "니다"
      ],
      [
        "으",
        "로"
      ],
      [
        ".",
        "."
      ],
      [
        "하",
        "는"
      ],
      [
        "하",
        "고"
      ],
      [
        "에",
        "서"
      ],
      [
        "합",
        "니다"
      ],
      [
        "입",
        "니다"
      ],
      [
        "a",
        "s"
      ],
      [
        "d",
        "f"
      ],
      [
        "as",
        "df"
      ],
      [
        "asdf",
        "asdf"
      ],
      [
        "국",
        "민"
      ],
      [
        "들",
        "이"
      ],
      [
        "있",
        "는"
      ],
      [
        "다",
        "고"
      ],
      [
        "사",
        "람"
      ],
      [
        "하",
        "지"
      ],
      [
        "하",
        "여"
      ],
      [
        "대",
        "한"
      ],
      [
        "있",
        "습니다"
      ],
      [
        "생",
        "각"
      ],
      [
        "에",
        "게"
      ],
      [
        "이",
        "라"
      ],
      [
        "다",
        "는"
      ],
      [
        "해",
        "서"
      ],
      [
        "니",
        "까"
      ],
      [
        "-",
        "-"
      ],
      [
        "나",
        "라"
      ],
      [
        "들",
        "은"
      ],
      [
        "하",
        "게"
      ],
      [
        "세",
        "요"
      ],
      [
        "2",
        "0"
      ],
      [
        "우",
        "리"
      ],
      [
        "것",
        "이"
      ],
      [
        "asdfasdf",
        "asdfasdf"
      ],
      [
        "정",
        "부"
      ],
      [
        "까",
        "지"
      ],
      [
        "들",
        "의"
      ],
      [
        "하",
        "면"
      ],
      [
        "해",
        "야"
      ],
      [
        "아",
        "니"
      ],
      [
        "지",
        "만"
      ],
      [
        "..",
        "."
      ],
      [
        "들",
        "어"
      ],
      [
        "는",
        "데"
      ],
      [
        "리",
        "고"
      ],
      [
        "0",
        "0"
      ],
      [
        "적",
        "으로"
      ],
      [
        "대",
        "통"
      ],
      [
        "해",
        "주"
      ],
      [
        "대통",
        "령"
      ],
      [
        "문",
        "제"
      ],
      [
        "!",
        "!"
      ],
      [
        "지",
        "금"
      ],
      [
        "라",
        "고"
      ],
      [
        "으",
        "면"
      ],
      [
        "적",
        "인"
      ],
      [
        "들",
        "을"
      ],
      [
        "국",
        "가"
      ],
      [
        "되",
        "어"
      ],
      [
        "민",
        "국"
      ],
      [
        "대한",
        "민국"
      ],
      [
        "없",
        "는"
      ],
      [
        "되",
        "는"
      ],
      [
        "이",
        "런"
      ],
      [
        "아",
        "이"
      ],
      [
        "시",
        "간"
      ],
      [
        "한",
        "다"
      ],
      [
        "청",
        "원"
      ],
      [
        "대",
        "로"
      ],
      [
        "피",
        "해"
      ],
      [
        "너",
        "무"
      ],
      [
        "부",
        "터"
      ],
      [
        "같",
        "은"
      ],
      [
        "었",
        "습니다"
      ],
      [
        "많",
        "은"
      ],
      [
        "저",
        "는"
      ],
      [
        "이",
        "상"
      ],
      [
        "도",
        "록"
      ],
      [
        "때",
        "문"
      ],
      [
        "--",
        "--"
      ],
      [
        "경",
        "찰"
      ],
      [
        "20",
        "1"
      ],
      [
        "그",
        "런"
      ],
      [
        "라",
        "는"
      ],
      [
        "학",
        "교"
      ],
      [
        "공",
        "무"
      ],
      [
        "그",
        "리고"
      ],
      [
        "이",
        "나"
      ],
      [
        "하",
        "였"
      ],
      [
        "사",
        "회"
      ],
      [
        "것",
        "은"
      ],
      [
        "위",
        "해"
      ],
      [
        "것",
        "입니다"
      ],
      [
        "공무",
        "원"
      ],
      [
        "하",
        "기"
      ],
      [
        "범",
        "죄"
      ],
      [
        "한",
        "국"
      ],
      [
        "1",
        "0"
      ],
      [
        "교",
        "육"
      ],
      [
        "다",
        "면"
      ],
      [
        "기",
        "업"
      ],
      [
        "렇",
        "게"
      ],
      [
        "에",
        "는"
      ],
      [
        "정",
        "책"
      ],
      [
        "사",
        "건"
      ],
      [
        "들",
        "에게"
      ],
      [
        "에",
        "도"
      ],
      [
        "생각",
        "합니다"
      ],
      [
        "학",
        "생"
      ],
      [
        "제",
        "가"
      ],
      [
        "주",
        "세요"
      ],
      [
        "필",
        "요"
      ],
      [
        "하지",
        "만"
      ],
      [
        "가",
        "지"
      ],
      [
        "그",
        "러"
      ],
      [
        "만",
        "원"
      ],
      [
        "아",
        "닌"
      ],
      [
        "없",
        "이"
      ],
      [
        "됩",
        "니다"
      ],
      [
        "것",
        "을"
      ],
      [
        "여",
        "성"
      ],
      [
        "..",
        ".."
      ],
      [
        "현",
        "재"
      ],
      [
        "립",
        "니다"
      ],
      [
        "경",
        "우"
      ],
      [
        "이",
        "고"
      ],
      [
        "자",
        "가"
      ],
      [
        "모",
        "든"
      ],
      [
        "보",
        "다"
      ],
      [
        "기",
        "를"
      ],
      [
        "다",
        "른"
      ],
      [
        "사",
        "를"
      ],
      [
        "없",
        "습니다"
      ],
      [
        "하",
        "나"
      ],
      [
        "이",
        "유"
      ],
      [
        "하",
        "며"
      ],
      [
        "정",
        "말"
      ],
      [
        "면",
        "서"
      ],
      [
        "?",
        "?"
      ],
      [
        "되",
        "고"
      ],
      [
        "세",
        "금"
      ],
      [
        "또",
        "한"
      ],
      [
        "지",
        "원"
      ],
      [
        "의",
        "원"
      ],
      [
        "때문",
        "에"
      ],
      [
        "처",
        "벌"
      ],
      [
        "asdfasdfasdfasdf",
        "asdfasdfasdfasdf"
      ],
      [
        "하",
        "시"
      ],
      [
        "국",
        "회"
      ],
      [
        "다",
        "시"
      ],
      [
        "이",
        "다"
      ],
      [
        "할",
        "수"
      ],
      [
        "우리",
        "나라"
      ],
      [
        "상",
        "황"
      ],
      [
        "정",
        "도"
      ],
      [
        "주",
        "시"
      ],
      [
        "겠",
        "습니다"
      ],
      [
        "대통령",
        "님"
      ],
      [
        "했",
        "습니다"
      ],
      [
        "있",
        "어"
      ],
      [
        "많",
        "이"
      ],
      [
        "재",
        "인"
      ],
      [
        "제",
        "도"
      ],
      [
        "가",
        "는"
      ],
      [
        "이라",
        "고"
      ],
      [
        "보",
        "고"
      ],
      [
        "라",
        "도"
      ],
      [
        "사",
        "실"
      ],
      [
        "않",
        "는"
      ],
      [
        "지",
        "는"
      ],
      [
        "있",
        "다"
      ],
      [
        "처",
        "럼"
      ],
      [
        "문",
        "재인"
      ],
      [
        "네",
        "요"
      ],
      [
        "저",
        "희"
      ],
      [
        "사",
        "용"
      ],
      [
        "않",
        "고"
      ],
      [
        "랍",
        "니다"
      ],
      [
        "자",
        "리"
      ],
      [
        "*",
        "*"
      ],
      [
        "경",
        "제"
      ],
      [
        "아",
        "무"
      ],
      [
        "만",
        "들어"
      ],
      [
        "이라",
        "는"
      ],
      [
        "한",
        "다고"
      ],
      [
        "행",
        "정"
      ],
      [
        "부",
        "분"
      ],
      [
        "십",
        "시"
      ],
      [
        "드",
        "립니다"
      ],
      [
        "에서",
        "는"
      ],
      [
        "북",
        "한"
      ],
      [
        "연",
        "금"
      ],
      [
        "받",
        "아"
      ],
      [
        "관",
        "련"
      ],
      [
        "까",
        "요"
      ],
      [
        "그",
        "래"
      ],
      [
        "바",
        "랍니다"
      ],
      [
        "가",
        "요"
      ],
      [
        "일",
        "반"
      ],
      [
        "내",
        "용"
      ],
      [
        "아니",
        "라"
      ],
      [
        "위",
        "한"
      ],
      [
        "인",
        "데"
      ],
      [
        "으",
        "며"
      ],
      [
        "사",
        "는"
      ],
      [
        "모",
        "르"
      ],
      [
        "하는",
        "데"
      ],
      [
        "개",
        "인"
      ],
      [
        "것",
        "도"
      ],
      [
        "거",
        "나"
      ],
      [
        "모",
        "두"
      ],
      [
        "들",
        "도"
      ],
      [
        "기",
        "에"
      ],
      [
        "되",
        "었"
      ],
      [
        "리",
        "는"
      ],
      [
        "해주",
        "세요"
      ],
      [
        "사",
        "업"
      ],
      [
        "가",
        "능"
      ],
      [
        "부",
        "탁"
      ],
      [
        "지",
        "도"
      ],
      [
        "자",
        "는"
      ],
      [
        "습",
        "니까"
      ],
      [
        "이",
        "렇게"
      ],
      [
        "사",
        "고"
      ],
      [
        "기",
        "관"
      ],
      [
        "해",
        "도"
      ],
      [
        "지",
        "역"
      ],
      [
        "정",
        "치"
      ],
      [
        "관",
        "리"
      ],
      [
        "자",
        "신"
      ],
      [
        "생",
        "활"
      ],
      [
        "가",
        "족"
      ],
      [
        "있",
        "을"
      ],
      [
        "불",
        "법"
      ],
      [
        "보",
        "험"
      ],
      [
        "되",
        "지"
      ],
      [
        "하면",
        "서"
      ],
      [
        "서",
        "울"
      ],
      [
        "주",
        "택"
      ],
      [
        "시",
        "키"
      ],
      [
        "회",
        "사"
      ],
      [
        "여",
        "러"
      ],
      [
        "받",
        "고"
      ],
      [
        "조",
        "사"
      ],
      [
        "해",
        "결"
      ],
      [
        "일",
        "을"
      ],
      [
        "국민",
        "의"
      ],
      [
        "부",
        "모"
      ],
      [
        "=",
        "="
      ],
      [
        "없",
        "어"
      ],
      [
        "있",
        "고"
      ],
      [
        "아",
        "닙"
      ],
      [
        "보",
        "호"
      ],
      [
        "어",
        "떻"
      ],
      [
        "책",
        "임"
      ],
      [
        "일",
        "이"
      ],
      [
        "폐",
        "지"
      ],
      [
        "제",
        "발"
      ],
      [
        "병",
        "원"
      ],
      [
        "하",
        "다"
      ],
      [
        "알",
        "고"
      ],
      [
        "----",
        "----"
      ],
      [
        "자",
        "기"
      ],
      [
        "따",
        "라"
      ],
      [
        "이",
        "제"
      ],
      [
        "인",
        "지"
      ],
      [
        "잘",
        "못"
      ],
      [
        "인",
        "이"
      ],
      [
        "그런",
        "데"
      ],
      [
        "근",
        "무"
      ],
      [
        "같",
        "이"
      ],
      [
        "법",
        "을"
      ],
      [
        "현",
        "실"
      ],
      [
        "근",
        "로"
      ],
      [
        "어떻",
        "게"
      ],
      [
        "자",
        "를"
      ],
      [
        "아",
        "파"
      ],
      [
        "3",
        "0"
      ],
      [
        "대",
        "해"
      ],
      [
        "하",
        "루"
      ],
      [
        "소",
        "년"
      ],
      [
        "동",
        "안"
      ],
      [
        "살",
        "아"
      ],
      [
        "안",
        "전"
      ],
      [
        "1",
        "2"
      ],
      [
        "임",
        "금"
      ],
      [
        "주",
        "의"
      ],
      [
        "사람",
        "이"
      ],
      [
        "려",
        "고"
      ],
      [
        "이",
        "러"
      ],
      [
        "리",
        "를"
      ],
      [
        "이",
        "는"
      ],
      [
        "계",
        "속"
      ],
      [
        "이",
        "용"
      ],
      [
        "수",
        "가"
      ],
      [
        "얼",
        "마"
      ],
      [
        "지",
        "요"
      ],
      [
        "발",
        "생"
      ],
      [
        "직",
        "원"
      ],
      [
        "보",
        "면"
      ],
      [
        "자",
        "의"
      ],
      [
        "서",
        "민"
      ],
      [
        "시",
        "켜"
      ],
      [
        "바",
        "로"
      ],
      [
        "마",
        "음"
      ],
      [
        "민",
        "원"
      ],
      [
        "노",
        "동"
      ],
      [
        "지",
        "고"
      ],
      [
        "인",
        "권"
      ],
      [
        "감",
        "사"
      ],
      [
        "있",
        "도록"
      ],
      [
        "이",
        "번"
      ],
      [
        "있는",
        "데"
      ],
      [
        "아파",
        "트"
      ],
      [
        "의",
        "무"
      ],
      [
        "행",
        "위"
      ],
      [
        "부",
        "동"
      ],
      [
        "봅",
        "니다"
      ],
      [
        "국회",
        "의원"
      ],
      [
        "민",
        "주"
      ],
      [
        "하",
        "세요"
      ],
      [
        "겁",
        "니다"
      ],
      [
        "않",
        "습니다"
      ],
      [
        "장",
        "을"
      ],
      [
        "좋",
        "은"
      ],
      [
        "중",
        "국"
      ],
      [
        "소",
        "득"
      ],
      [
        "만",
        "들"
      ],
      [
        "!!",
        "!!"
      ],
      [
        "같",
        "습니다"
      ],
      [
        "부동",
        "산"
      ],
      [
        "어",
        "나"
      ],
      [
        "운",
        "전"
      ],
      [
        "한",
        "번"
      ],
      [
        "나",
        "요"
      ],
      [
        "주",
        "는"
      ],
      [
        "지",
        "를"
      ],
      [
        "았",
        "습니다"
      ],
      [
        "~",
        "~"
      ],
      [
        "받",
        "는"
      ],
      [
        "수",
        "도"
      ],
      [
        "입",
        "니까"
      ],
      [
        "사",
        "가"
      ],
      [
        "정",
        "을"
      ],
      [
        "되",
        "었습니다"
      ],
      [
        "한",
        "다는"
      ],
      [
        "어",
        "린"
      ],
      [
        "제",
        "대로"
      ],
      [
        "장",
        "애"
      ],
      [
        "기",
        "가"
      ],
      [
        "기",
        "간"
      ],
      [
        "청",
        "와"
      ],
      [
        "운",
        "영"
      ],
      [
        "기",
        "도"
      ],
      [
        "자",
        "유"
      ],
      [
        "없",
        "고"
      ],
      [
        "거",
        "래"
      ],
      [
        "청와",
        "대"
      ],
      [
        "했",
        "다"
      ],
      [
        "계",
        "약"
      ],
      [
        "일",
        "본"
      ],
      [
        "관",
        "계"
      ],
      [
        "인",
        "해"
      ],
      [
        "있",
        "었"
      ],
      [
        "정",
        "신"
      ],
      [
        "환",
        "경"
      ],
      [
        "들",
        "과"
      ],
      [
        "사",
        "이"
      ],
      [
        "미",
        "국"
      ],
      [
        "사람",
        "들이"
      ],
      [
        "글",
        "을"
      ],
      [
        "밖",
        "에"
      ],
      [
        "당",
        "장"
      ],
      [
        "위",
        "해서"
      ],
      [
        "나",
        "오"
      ],
      [
        "하였",
        "습니다"
      ],
      [
        "부탁",
        "드립니다"
      ],
      [
        "말",
        "이"
      ],
      [
        "이",
        "해"
      ],
      [
        "그래",
        "서"
      ],
      [
        "기",
        "준"
      ],
      [
        "일",
        "자리"
      ],
      [
        "수",
        "사"
      ],
      [
        "으",
        "나"
      ],
      [
        "대",
        "표"
      ],
      [
        "신",
        "고"
      ],
      [
        "아닙",
        "니다"
      ],
      [
        "가",
        "장"
      ],
      [
        "십시",
        "오"
      ],
      [
        "누",
        "구"
      ],
      [
        "있",
        "다고"
      ],
      [
        "1",
        "1"
      ],
      [
        "전",
        "에"
      ],
      [
        "것이",
        "다"
      ],
      [
        "어",
        "떤"
      ],
      [
        "이",
        "를"
      ],
      [
        "1",
        "00"
      ],
      [
        "결",
        "과"
      ],
      [
        "복",
        "지"
      ],
      [
        "외",
        "국"
      ],
      [
        "물",
        "론"
      ],
      [
        "장",
        "이"
      ],
      [
        "가",
        "고"
      ],
      [
        "것",
        "으로"
      ],
      [
        "해",
        "당"
      ],
      [
        "정",
        "권"
      ],
      [
        "문제",
        "가"
      ],
      [
        "지",
        "급"
      ],
      [
        "다",
        "니"
      ],
      [
        "업",
        "무"
      ],
      [
        "도",
        "로"
      ],
      [
        "안",
        "녕"
      ],
      [
        "최",
        "저"
      ],
      [
        "그",
        "렇"
      ],
      [
        "청",
        "소년"
      ],
      [
        "이라",
        "도"
      ],
      [
        "시",
        "고"
      ],
      [
        "세",
        "계"
      ],
      [
        "5",
        "0"
      ],
      [
        "다",
        "가"
      ],
      [
        "그",
        "냥"
      ],
      [
        "위",
        "원"
      ],
      [
        "처",
        "리"
      ],
      [
        "이러",
        "한"
      ],
      [
        "지",
        "지"
      ],
      [
        "이",
        "미"
      ],
      [
        "않",
        "을"
      ],
      [
        "되",
        "면"
      ],
      [
        "전",
        "화"
      ],
      [
        "아",
        "서"
      ],
      [
        "재",
        "판"
      ],
      [
        "주",
        "고"
      ],
      [
        "지",
        "방"
      ],
      [
        "개",
        "선"
      ],
      [
        "않",
        "은"
      ],
      [
        "법",
        "이"
      ],
      [
        "그",
        "렇게"
      ],
      [
        "력",
        "을"
      ],
      [
        "아",
        "직"
      ],
      [
        "언",
        "론"
      ],
      [
        "뉴",
        "스"
      ],
      [
        "하",
        "겠"
      ],
      [
        "폭",
        "행"
      ],
      [
        "대",
        "출"
      ],
      [
        "있",
        "게"
      ],
      [
        "으",
        "니"
      ],
      [
        "어",
        "려"
      ],
      [
        "어",
        "야"
      ],
      [
        "국민",
        "이"
      ],
      [
        "시",
        "행"
      ],
      [
        "남",
        "성"
      ],
      [
        "반",
        "대"
      ],
      [
        "그러",
        "나"
      ],
      [
        "기",
        "는"
      ],
      [
        "받",
        "을"
      ],
      [
        "조",
        "금"
      ],
      [
        "건",
        "강"
      ],
      [
        "이",
        "게"
      ],
      [
        "1",
        "9"
      ],
      [
        "없",
        "다"
      ],
      [
        "201",
        "8"
      ],
      [
        "상",
        "을"
      ],
      [
        "미",
        "래"
      ],
      [
        "상",
        "태"
      ],
      [
        "자",
        "들이"
      ],
      [
        "개",
        "월"
      ],
      [
        "정",
        "보"
      ],
      [
        "어",
        "서"
      ],
      [
        "본",
        "인"
      ],
      [
        "차",
        "량"
      ],
      [
        "또",
        "는"
      ],
      [
        "대",
        "체"
      ],
      [
        "가",
        "해"
      ],
      [
        "진",
        "행"
      ],
      [
        "가지",
        "고"
      ],
      [
        "시",
        "장"
      ],
      [
        "보",
        "니"
      ],
      [
        "시",
        "작"
      ],
      [
        "인",
        "간"
      ],
      [
        "통",
        "해"
      ],
      [
        "돈",
        "을"
      ],
      [
        "요",
        "즘"
      ],
      [
        "요",
        "구"
      ],
      [
        "돌",
        "아"
      ],
      [
        "미",
        "세"
      ],
      [
        "업",
        "체"
      ],
      [
        "는",
        "지"
      ],
      [
        "투",
        "자"
      ],
      [
        "이",
        "야"
      ],
      [
        "방",
        "송"
      ],
      [
        "당",
        "한"
      ],
      [
        "시",
        "험"
      ],
      [
        "자",
        "체"
      ],
      [
        "답",
        "변"
      ],
      [
        "하",
        "다고"
      ],
      [
        "만",
        "큼"
      ],
      [
        "확",
        "인"
      ],
      [
        "시",
        "민"
      ],
      [
        "중",
        "요"
      ],
      [
        "조",
        "건"
      ],
      [
        "적",
        "용"
      ],
      [
        "문",
        "화"
      ],
      [
        "있",
        "다는"
      ],
      [
        "못",
        "하고"
      ],
      [
        "에서",
        "도"
      ],
      [
        "이",
        "며"
      ],
      [
        "헌",
        "법"
      ],
      [
        "께",
        "서"
      ],
      [
        "신",
        "청"
      ],
      [
        "등",
        "을"
      ],
      [
        "어",
        "느"
      ],
      [
        "적",
        "폐"
      ],
      [
        "대",
        "학"
      ],
      [
        "대",
        "책"
      ],
      [
        "이",
        "에"
      ],
      [
        "강",
        "력"
      ],
      [
        "일",
        "부"
      ],
      [
        "무",
        "슨"
      ],
      [
        "20",
        "0"
      ],
      [
        "자",
        "들"
      ],
      [
        "지",
        "가"
      ],
      [
        "법",
        "원"
      ],
      [
        "h",
        "t"
      ],
      [
        "국민",
        "들이"
      ],
      [
        "미세",
        "먼"
      ],
      [
        "인",
        "정"
      ],
      [
        "기",
        "사"
      ],
      [
        "놓",
        "고"
      ],
      [
        "청",
        "년"
      ],
      [
        "보",
        "내"
      ],
      [
        "억",
        "울"
      ],
      [
        "요",
        "청"
      ],
      [
        "말",
        "고"
      ],
      [
        "1",
        "년"
      ],
      [
        "00",
        "0"
      ],
      [
        "교",
        "사"
      ],
      [
        "된",
        "다"
      ],
      [
        "지",
        "난"
      ],
      [
        "도",
        "와"
      ],
      [
        "정",
        "의"
      ],
      [
        "이",
        "루"
      ],
      [
        "당",
        "연"
      ],
      [
        "않",
        "았"
      ],
      [
        "전",
        "문"
      ],
      [
        "주",
        "민"
      ],
      [
        "리",
        "가"
      ],
      [
        "이",
        "지"
      ],
      [
        "국민",
        "을"
      ],
      [
        "대",
        "해서"
      ],
      [
        "력",
        "이"
      ],
      [
        "정",
        "이"
      ],
      [
        "대",
        "부분"
      ],
      [
        "힘",
        "들"
      ],
      [
        "금",
        "을"
      ],
      [
        "발",
        "전"
      ],
      [
        "한",
        "테"
      ],
      [
        "고",
        "통"
      ],
      [
        "시",
        "설"
      ],
      [
        "혜",
        "택"
      ],
      [
        "가",
        "서"
      ],
      [
        "하",
        "니"
      ],
      [
        "검",
        "찰"
      ],
      [
        "정부",
        "가"
      ],
      [
        "교",
        "통"
      ],
      [
        "성",
        "을"
      ],
      [
        "직",
        "접"
      ],
      [
        "단",
        "체"
      ],
      [
        "다",
        "음"
      ],
      [
        "비",
        "용"
      ],
      [
        "의",
        "료"
      ],
      [
        "담",
        "당"
      ],
      [
        "재",
        "산"
      ],
      [
        "동",
        "의"
      ],
      [
        "좋",
        "겠습니다"
      ],
      [
        "중",
        "에"
      ],
      [
        "영",
        "업"
      ],
      [
        "국민",
        "연금"
      ],
      [
        "조",
        "치"
      ],
      [
        "기",
        "본"
      ],
      [
        "피해",
        "자"
      ],
      [
        "살",
        "고"
      ],
      [
        "무",
        "엇"
      ],
      [
        "어",
        "디"
      ],
      [
        "이",
        "후"
      ],
      [
        "선",
        "수"
      ],
      [
        "된",
        "다고"
      ],
      [
        "마",
        "다"
      ],
      [
        "1",
        "5"
      ],
      [
        "되어",
        "야"
      ],
      [
        "군",
        "요"
      ],
      [
        "치",
        "료"
      ],
      [
        "구",
        "요"
      ],
      [
        "정",
        "한"
      ],
      [
        "아",
        "야"
      ],
      [
        "4",
        "0"
      ],
      [
        ",",
        ","
      ],
      [
        "가",
        "격"
      ],
      [
        "1",
        "8"
      ],
      [
        "대",
        "상"
      ],
      [
        "개",
        "발"
      ],
      [
        "자",
        "로"
      ],
      [
        "했",
        "던"
      ],
      [
        "당",
        "시"
      ],
      [
        "한다",
        "면"
      ],
      [
        "전",
        "혀"
      ],
      [
        "십시",
        "요"
      ],
      [
        "선",
        "거"
      ],
      [
        "나",
        "는"
      ],
      [
        "많",
        "습니다"
      ],
      [
        "먹",
        "고"
      ],
      [
        "금",
        "지"
      ],
      [
        "/",
        "/"
      ],
      [
        "어린",
        "이"
      ],
      [
        "제",
        "로"
      ],
      [
        "차",
        "별"
      ],
      [
        "말",
        "을"
      ],
      [
        "안녕",
        "하세요"
      ],
      [
        "정부",
        "는"
      ],
      [
        "성",
        "이"
      ],
      [
        "함",
        "께"
      ],
      [
        "화",
        "폐"
      ],
      [
        "결",
        "국"
      ],
      [
        "2",
        "년"
      ],
      [
        "임",
        "대"
      ],
      [
        "얼마",
        "나"
      ],
      [
        "출",
        "산"
      ],
      [
        "지",
        "나"
      ],
      [
        "t",
        "p"
      ],
      [
        "공",
        "개"
      ],
      [
        "건",
        "설"
      ],
      [
        "이",
        "익"
      ],
      [
        "더",
        "욱"
      ],
      [
        "판",
        "결"
      ],
      [
        "시",
        "대"
      ],
      [
        "부",
        "담"
      ],
      [
        "w",
        "w"
      ],
      [
        "드",
        "시"
      ],
      [
        "수",
        "준"
      ],
      [
        "장",
        "관"
      ],
      [
        "ht",
        "tp"
      ],
      [
        "조",
        "직"
      ],
      [
        "제",
        "를"
      ],
      [
        "하",
        "려"
      ],
      [
        "자",
        "격"
      ],
      [
        "고",
        "용"
      ],
      [
        "도",
        "움"
      ],
      [
        "대한민국",
        "의"
      ],
      [
        "폭",
        "력"
      ],
      [
        "먼",
        "저"
      ],
      [
        "아",
        "주"
      ],
      [
        "기",
        "술"
      ],
[...]
